# v5-bpe merges v1
à ®
à ¤
à ¦
à ¯
à ¥
Ġ à¤
à¯ į
Ġ t
à §
Ġ à®
à¯į à®
Ġ a
i n
Ġ à¦
h e
o n
à¤ ¾
r e
à¯ ģ
e r
à® ¿
Ġ s
à®¿ à®
a t
à¥ į
à¥į à¤
e n
Ġt he
o r
à¤¾ à¤
e s
Ġ c
à¯ģ à®
à¦ ¾
i s
Ġ d
à¥ ĩ
i t
a l
a n
Ġ o
Ġ p
à¦ °
à§ į
a r
Ġ f
à® ¾
à¤ ¿
Ġ w
à®¾ à®
l e
à§ ĩ
i on
à¤¿ à¤
Ċ Ċ
à¦¾ à¦
ķ à®
à§į à¦
Ġ b
Ġ m
Ġà¤ ķ
à¦ ¿
e d
Ġa n
a s
in g
i c
à¥ Ģ
Ġ in
à¤ °
Ġo f
o u
à¤ Ĥ
e l
Ġ l
o m
Ġt o
à¯ Ī
à® °
à¦¿ à¦
à® ¤
en t
Ġan d
Ġ n
c t
e t
à¤ ¨
r o
® à¯į
a m
à¯įà® ¤
s t
à¤ ¤
Ġt h
à¯įà® ª
à¥ ĭ
Ġ (
o l
Ġ h
i l
Ġà¤ ¸
à® Ł
Ġ is
Ġ re
à¥ ¤
à® ©
Ġ e
u n
à¯Ī à®
a c
Ġà¤ ¹
à¤ ķ
Ġd e
i m
Ġ 1
à¯įà® Ł
à® ²
Ġà¤ ®
u r
Ġà® ª
o s
u t
ķ à¯įà®
à¥įà¤ °
à®¿à® ¯
v e
o t
a d
Ġ g
i d
ķà® ³
Ġà¤ ª
à¤ ¸
i g
Ġ S
at ion
Ġf or
à§ĩ à¦
Ġ A
Ġ I
¯ à¦
à¥ Ī
Ġ T
Ġ C
u m
Ġ y
u s
à¥ ģ
o w
q u
â Ģ
Ġ 2
i f
à®¿à® ²
c e
u l
à¯ģà® ®à¯į
Ġà® ®
ª à¯įà®ª
¯à¦ ¼
Ġ on
Ġà® ĩ
v er
Ġà¤¹ à¥Ī
Ġb e
r a
à¥ĩ à¤Ĥ
à¤ ®
à¤¾à¤ °
à¦ ¨
à® ®
Ġc on
Ġ =
à® ±
Ġà¤ķ à¥ĩ
l y
Ġ $
à¯įà® ±
p e
à¦ ¤
Ã ©
Ġà® ħ
à¥įà¤ ¯
Ġs t
- -
es t
à¤ ¹
à¤ ²
Ġà® µ
Ġ M
it h
Ġà® ķ
e m
a y
o d
c h
Ġà® ¤
Ġth at
à§į à¦°
à¯ Ĩ
ar t
à® µ
Ġ P
is t
Ġà¤® à¥ĩà¤Ĥ
i r
à¯ ĩ
à¯ Ĭ
à®¿à® ©
ķà¯įà® ķ
Ġà¦ ¸
g e
Ġa l
Ġà¤ µ
à¦¾ à¦°
Ġ it
Ġà¦ ¬
à¤¾à¤ ¨
à§ ģ
à§ĩ à¦°
Ġà¦ ª
Ġ r
Ġp ro
à¤ µ
re s
Ġà¤ ľ
t er
Ġ \
Ġ v
à®¤ à¯ģ
à¤ Ĺ
a b
0 0
" "
Ļ à¯įà®
à¤ ¦
s e
Ġa s
à¤ ª
à¯ ĭ
à¦ ķ
r i
à® ķ
à¤ ¯
Ġà¤ ħ
at e
Ġw ith
¨ à¯įà®¤
à§ Ģ
Ġ R
Ġc om
Ġà® ļ
à¦ ²
à® ®à¯į
s .
Ġ B
Ġà® ¨
Ġ un
Ġs e
an d
à¥ Ĥ
à¥įà¤ ¤
ķà®³ à¯į
à¯Īà® ¯
p l
Ġy ou
ig h
à®¿à®² à¯į
d e
Ġà® ķà®
s ,
Ġ D
Ġà¦ ı
Ġ en
à¦ ¬
t e
Ġ E
el f
Ġà¤ °
à¯ģà® ¤
à¦ ®
Ġ or
Ġà¤ ¬
à®¤ à¯įà®¤
o c
Ġà¤ ¦
Ġà¤ Ń
Ġe x
Ġà¤ ¨
Ġ N
u e
i v
Ġ L
à® ¯
Ġw h
à¤° à¥įà¤
à® Ļà¯įà®
à®¿à® °
ct ion
he r
Ġl a
k e
il l
> >
Ġa re
Ġa t
a p
or t
à® ļ
Ġ F
Ġà¦ ķ
Ġw e
) ,
an t
à® £
r om
à§įà¦ ¤
igh t
à® ª
Ġ us
am e
Ł à¯įà®Ł
à¦ ¯à¦¼
à¤ ¶
m ent
à¥ĭ à¤Ĥ
ķà¯įà® ķà®
i al
Ġs u
p le
i z
ªà¯įà®ª à®Ł
ĠT he
. .
o re
Ġà® İ
à¤¿à¤ ¯
n t
Ġth is
à¦¾à¦ ¨
Ġ H
à¤¿à¤ ķ
ur n
Ġb y
Ġ W
à§įà¦ ¯
Ġ "
à§ ĭ
Â ł
Ġà¤ª à¥įà¤°
a ve
Ġn ot
it ion
à¯ Ĥ
Ġn e
er s
t h
Ġà¦ ®
Ġà¤¹à¥Ī à¥¤
l d
it y
Ġà¤ Ĺ
à® ´
Ġ le
à®¾à® ©
Ġà¤ķ à¥Ģ
Ġà¤ķ à¤¾
à§įà¦ ¬
Ġà¦ ħ
à¦ ¸
n d
Ġà® Ĩ
à® ³
à®¿à®© à¯į
Ġà¤ Ķ
à¦ ª
i a
Ġ G
Ġ qu
p ar
Ġ -
i ve
in t
Ġf rom
à¯ģà® µ
Ġà¤Ķ à¤°
es s
Ġà¤¸ à¥ĩ
à¦¿à¦ ķ
à®¾à® ²
Ġà¤ ī
i es
o p
Ġà¦ ¦
o g
à¦ Ł
Ġà¤ ĩ
# #
Ġ 3
elf .
à¤ ¬
Ġà¤ ²
à®± à¯įà®±
in e
on e
Ġà® ī
a ge
à¥ģ à¤
) .
Ġ he
i e
Ġc an
) :
Ġh ave
ul t
en d
at a
' s
p er
à®¾à® °
à®¾à® ķ
à¤¿à¤ ¤
Ġà¤ ¶
b er
à¯įà® ļ
à® ķà®
âĢ Ļ
Ġs h
à®° à¯į
Ġ O
"" "
re t
al l
à®² à¯į
d d
à¤ §
a in
à®¿à® Ł
Ġà¦ Ĩ
à¤ ¼
Ġ k
Ġà®İ à®©
p t
as s
Ġ el
u st
Ġà¤ ¤
T he
ou ld
y pe
à¤ ľ
à¯įà® ³
c l
à¯ Ģ
0 1
a g
Ġà¤ ¯
u d
à®¤à¯ģ .
Ġà¤ Ĩ
Ġà¦ ¹
ķ à¯į
re d
Ã ³
à¦ Ĥ
i p
à¤¾à¤ ¤
Ġ J
as t
ou r
à®° à¯ģà®
à¥įà¤ µ
à¦ ¹
f or
Ġc h
Ġà¤ ı
Ġ âĢ
à¤¾à¤ ²
ac e
ic al
in d
Ġc l
Ġn um
p ort
Ġt r
o st
u re
à¤ £
Ġp l
Ã Ń
à®¿à® ±
Ġà¤° à¤¾à¤
( s
u p
de f
Ġ 4
om e
-- --
à®£ à¯įà®Ł
Ġw ill
ac k
ab le
ic h
à¦° à§įà¦
an s
i b
à® ¨à¯įà®¤
à®° à¯įà®
an ce
f t
r ou
t o
à¦¿à¦ ¤
e ct
( )
Ġà¤µ à¤¿à¤
à®² à¯įà®
ar d
à® ªà¯įà®ªà®Ł
Ġà¦ª à§įà¦°
ret urn
im e
Ġà¦ ¨
Ġ im
à¤¾à¤ ¸
Ġ j
at ed
à¦ ¦
Ġal l
Ġà¤ķ à¥ĭ
Ġà®ķà® Łà¯įà®Ł
Ġw as
>> >
à¦ ¶
at h
Ġ U
Ġ1 9
à¦¾à¦ ¸
Ġ 5
à¯ģà® ķà¯įà®ķ
id e
i le
Ã ¡
} {
Ġ 0
Ġp art
Ġ est
Ġ à§
à® ķà¯įà®ķ
d u
es .
Ġd es
Ġf un
a v
Ġs elf.
f f
es ,
à¦Ł à¦¿
c on
à¤¨ à¥ĩ
Ġà¤ ¥
Ġà¤ĩ à¤¸
à¯ģà® ³
s ion
à¥įà¤ ·
Ġm e
à¤¿à¤¯ à¤¾
f r
Ġcom p
Ġw he
el l
Ġ '
Ġà® Ĵ
Ġm a
à®© à¯į
Ġh as
à§įà¦ Ł
Ġ +
à® ķà¯įà®ķà®
ac h
à¥įà¤ ¦
Ġd o
u b
à®Ł à¯įà®Ł
ĠI n
Ġa r
o k
à¦¿à¦ ¯à¦¼
à¤ Ń
à¦¾à¦ ¯à¦¼
Ġre s
Ġon e
Ġà¦ķ à¦°
ar y
ig n
à¯ģà® ±
Ġà¤¹à¥Ī à¤Ĥ
à¥ ĥ
à§ĩà¦ ¶
t her
x t
à¤¾à¤° à¤¤
Ġà¤ª à¤°
ic e
or k
à¤ ¡
à®¾à® Ł
it e
à¤¿à¤ ¸
à¯įà® ķ
or d
Ġà¦ ¤
a ct
à¥įà¤ Ł
à§ Ĥ
Ġv al
à¦¾à¦ ²
Ġp er
c c
à¤¾à¤ ®
Ġ if
Ġa b
ation s
Ġa p
Ġà¤¸ à¤Ĥ
r u
p h
à§ ĥ
u al
Ġ2 01
Ġà¦ ¶
ou t
o b
Ġ [
Ġà¦ ľ
$ $
e re
à¤ Ł
à®Ļà¯įà® ķ
Ġs c
a re
à¤ ļ
Ġo ut
Ġwh ich
for m
à¤¤ à¤¾
à¦ Ĺ
Ġcon t
o int
à¤¾à¤ ¦
i re
d er
à¤¿à¤ ¨
Ġc ol
n e
Ġà¦ ī
on g
Ġb ut
0 ,
ĠT h
an g
Ġà¦ ĵ
ar i
iz e
à¯ģà®¤ à¯įà®¤
Ġ V
Ġà¦ °
r y
Ġà¤ı à¤ķ
e p
à¯ģà®³ à¯įà®³
ro w
à¥ĩ à¤¶
à¥įà¤ ¥
.. .
fr ac
g h
m a
_ {
r ic
à¯įà® ©
à§ ¦
à®¾à® ķà®
Ġ et
Ġà¦ ¯
ª à¯į
à®¿à® ¤
à¥Ģ à¤¯
Ġà®ª à¯Ĩ
a ,
en ce
ou s
i ent
à®¾à® £
Ġà¤ ļ
à¯ģà®®à¯į ,
à¯įà® µ
as e
à¯ģà®®à¯į .
Ġà¤Ń à¤¾à¤°à¤¤
os e
od el
Ġà¤°à¤¾à¤ ľ
à¯ģà® ķ
Ġ K
at or
r ight
à®¿à® µ
is e
à¦¾à¦ ®
Ġ es
a k
o ok
ut ion
à¦¿à¦ ¨
Ġne w
le ct
à®© à¯įà®±
Ġfun ction
à¤ ¥
Ġ à¥
à®¾à® µ
e ar
frac {
Ġqu e
Ġyou r
l o
à¦¬ à¦Ĥ
à¦¾à¦ Ĺ
à¤ ĸ
c k
1 ,
pe c
v el
Ã³ n
Ġp ar
Ġà¦ı à¦¬à¦Ĥ
à®²à¯įà® ²
Ġm ore
c ol
à¯ģà® Ł
ou nt
à¤¤ à¥įà¤°
à§ĩà¦ ¨
) )
Ġà¦ Ĺ
Ġà¦ Ń
o ,
âĢĻ s
art ition
Ġ x
Ġd el
Ġ$ \
Ġà¦¬ à¦¿à¦
le d
à¦ §
Ġs a
à¦ £
à¤¾à¤ ¯
Ġt ime
en er
od e
re e
ĠS t
Ġre c
Ġin ter
or y
Ġ :
Ġt e
Ġnum ber
à¦ Ń
Ġ up
ir st
Ġo b
y s
_ j
am ple
par am
Ġà¤¹ à¥ĭ
âĢ ¢
w o
à¤¾à¤ Ĥ
" ,
Ġà¤ķ à¤°
à®Ļà¯įà® ķà®³
Ġs o
er m
Ġo ther
I n
f ere
à¦¾à¦ ¦
' t
g r
le ft
Ġà¦ı à¦ķ
Ġs ol
c es
qu e
à¦ ĩ
à¦¾à¦ ¬
Ġà®ħ à®®
l l
à® ªà¯įà®ª
Ġe qu
à¤¿à¤ ²
l ow
r ing
ver y
} $
i o
à¥įà¤ ®
Ġm an
Ġs ome
er v
à¦¾à¦ ķ
Ġfor m
ou nd
n ow
Ġ {
Ġs p
Ġà¤¸ à¤®
D D
à¥ Į
à®ªà¯įà®ªà®Ł à¯įà®Ł
Ġg o
t a
à¦¿à¦ ²
à§įà¦ ·
Ġl '
i er
à§įà¦ ¯à¦
Ġ .
i Ã³n
s o
ĠC h
Ġ 6
Ġd ata
i ke
à¦¾à¦ ľ
à§ĩ à¥¤
Ġ Ã
Ġa g
Ġs et
Ġw ould
à§įà¦ ¦
ent s
Ġ >
Ġ2 00
Ġp re
Ġthe re
Ġà®ķ à¯Ĭ
§ à§
Ġt wo
à¤° à¥Ģ
à¥įà¤ §
à¯ģà® ®
Ġa m
Ġan y
S t
j ect
à¦¾à¦ ¤
Ġo ver
ri b
v al
à¦¿à¦ ¸
à¯Ĭ à®´
Ġ$ $
Ġc o
( "
ol d
(s elf
^ {
f .
à¤¸ à¥ĩ
Ġà¤¹à¥Īà¤Ĥ à¥¤
: param
Ġ1 0
Ġn o
Ġthe ir
b le
p ro
um n
p res
à¤ķ à¥įà¤·
Ġg et
et h
i an
ar g
i el
Ġs y
à¯ģà® °
T h
Ġf e
P artition
Ġus e
ar k
Ġo ur
- 1
Ġà¦¹ à¦¯à¦¼
) $
em ent
u es
y ,
Ġe ach
Ġf irst
à¦¿ à¦°
Ġà®ķà®Łà¯įà®Ł à®¿à®Ł
Ġcon s
Ġà¤¨ à¥ĩ
Ġà¦ª à¦°
· à¥įà¤Ł
à®¾à® ¯
à®± à¯įà®ķ
Ġof f
( x
en s
ic k
à¤¾à¤ Ĺ
à®ķ à¯į
2 ,
Ġd is
p ut
à§įà¦ ¥
à¯ģà® ķà®³
Ġm at
Ġp r
Ġw ork
ķà¯įà®ķà® ªà¯įà®ªà®Ł
at es
à®° à¯ģ
Ġ 8
Ġà¤¹ à¥ģà¤
Ġà¤Ń à¥Ģ
un c
à¤¤ à¥įà¤¤
Ġin te
Ġà¤ħ à¤¨
Ġà®ķ à¯ĭ
i ed
à¤¨ à¤¾
Âł Ġ
Ġ ro
Ġde f
al ly
Ġit s
w e
Ġl os
à¤¾ à¥¤
à§ĩà¦ ²
Ġthe y
e g
c om
à¦ ¼
à®¾à®² à¯į
Ġth an
Ġus ing
ĠâĢ ĵ
¡ à¦¼
Ġh ow
s :
à¤¾à¤ ¹
Ġ 7
Ġas s
Ġd if
Ġp os
iel d
à§ĩà¦ ķ
à®¾à® ¤
1 .
T ype
à¤°à¥įà¤ µ
à®ķà® °
à®Ļà¯įà® ķà®³à¯į
à¯Īà® ªà¯įà®ª
à¯Īà® ķà¯į
Ġre g
a .
ic t
à¤¾à¤ µ
à¤¾à¤ ķ
Ġcom m
Ġp oint
à¦¾à¦ ·
Ġl ist
à®© .
Ġa dd
Ġk now
pe ct
à®¿à®° à¯ģà®
Ġpro v
Ġthe n
Ġà¦® à¦¹
0 .
c he
en c
§ à¥
à§įà¦ ļ
Ġval ue
Ġà®ļ à¯Ĩ
à®¤à¯įà®¤ à®¿à®²à¯į
Ġà¤¯ à¤¹
Ġà¤Ĺ à¤¯
a il
à¦ ľ
à¯įà® ®
Ġp or
ad o
à§ĩà¦ Ľ
ĠA n
Ġwh at
Ġà¦ ĩ
Ġà®µ à®¿à®
(self ,
at ive
if ic
r an
ul ar
Ġà®İà®© à¯įà®±
à®³ à¯įà®³
à®¾à® ±
Ġg ener
Ġv ari
am b
à¯ģà® ķà®³à¯į
el y
r it
à®¾à® Łà¯įà®Ł
Ġà®ª à¯Ĭ
à¤ Ī
ic s
à¥ĭ à¤Ĺ
à¦¿à¦ ¬
à®¿à® ªà¯įà®ª
Ġd ist
à¥ģ à¤°
à¥ĥ à¤¤
Ġc or
Ġm y
in k
à¤¾à¤ ģ
à® ¨
à®¿à®¯ à®²à¯į
Ġin to
Ġs im
ct or
l es
à¥Ģ à¤Ĥ
Ġab out
Ġe v
Ġwh o
à¤ķ à¥ĩ
à® ĩ
Ġl ike
Ġà¦ ĸ
Ġà®İà®© à¯įà®ª
ul l
à¤ķ à¤¾
à¦ķ à§įà¦·
Ġ Y
Ġà¤ľ à¤¾à¤¤
' ,
à¤¤ à¥ĩ
Ġal so
Ġwhe n
d ay
on t
Ã ¨
ĠTh is
ĠW e
o v
à¦ ¥
à¦¤ à§įà¦¤
à®¿à® ķà¯įà®ķ
Ġb as
Ġl as
o ve
ro s
| |
ĠI t
Ġb et
Ġm in
Ġne ed
Ġon ly
Ġà¤ §
Ġà®¤ à¯Ĭ
il d
à¤¡ à¤¼
à¦ ļ
à¦¾à¦Ĺ à¦°
à§Ģ à¦¯à¦¼
2 .
a us
e .
à®®à¯į ,
à®¿à® ´
Ġs pec
re am
à¤Ĥ à¤Ĺ
Ġ ke
Ġa cc
d a
oc k
r ame
à¤¾à¤ ª
à®¾à® ³
ĠN one
Ġp ol
Ġus ed
Ġà¦ ¥
Ġà§ §à§
à¥Ģ à¤¨
à¥įà¤ ķ
Ġy ear
âĢ Ŀ
Ġbe en
Ġin cl
Ġsu b
Ġà¤ī à¤¨
Ġà®µ à®°
Ġà®Ĵ à®°à¯ģ
^ 2
e c
m ath
p on
p r
¨à¯įà®¤ à¯ģ
ĠI f
m er
n ame
rou p
te xt
à®¿à®© à¯įà®±
Ġ ent
Ġp res
e x
ol og
ou gh
ru ct
ĠC om
a ult
t ic
ub l
à¤¾à¤ ·
à¦ ĸ
à®¿à® ķà®
Ġ ,
Ġb ot
Ġm odel
Ġsa id
Ġà¦¸ à¦®
s q
à®¿à® ķà®³
Ġ `
ib le
Ġb u
Ġre l
Ġsh ould
Ġà¤² à¤¿à¤
Ġà®ĩ à®°à¯ģà®
à¤¤ à¤¿à¤
à¥Ĥ à¤ª
Ġ Â
ĠR DD
Ġn ame
] ,
a ke
r or
Ġ 9
ĠP ro
Ġm ay
Ġwhe re
\ right
ce pt
ion s
à¤ «
Ġt ra
Ġà¦¬ à¦¾à¦
Ġà®ĩ à®¨à¯įà®¤
_ t
as ,
n ing
à¥ ¦
Ġa ct
Ġd u
Ġj ust
ion al
Ġre t
Ġà¤¸ à¥įà¤¥
il ity
Ġst ud
Ġà¤ħ à¤§
à®¾à®° à¯įà®
à®¾à®ķ à¯ģà®®à¯į.
Ġà¤ª à¥Ĥ
t he
à¦ ·
ation al
ble m
c re
ie w
à¤¿à¤ ®
à§ģ à¦²
ĠA r
Ġf in
Ġun a
iv en
ter n
à¥įà¤ ª
Ġa d
Ġthe m
Ġtr ans
Ġà¦ħ à¦¨
y .
00 0
Partition s
er ial
he d
is h
p os
_ s
i ver
Ġ <
Ġp e
Ġà®ķà¯Ĭ à®£à¯įà®Ł
+ ----
2 }
_ d
ay s
e w
p end
à¥įà¤ ²
Ġ i
Ġà¦ ļ
Ġà®ª à¯ĭ
e ,
n er
o .
ĠA l
Ġf ol
Ġà¤ķ à¤¿à¤¯à¤¾
ing ,
à®¾à® ļ
em s
Ġà®® à¯ģà®
à¦° à§įà¦¬
Ġres ult
ĠÃ ł
Ġà®ī à®³à¯įà®³
am il
at ing
ed .
r dd
ment s
o y
à®ķ à¯ģà®¤
Ġ2 0
ĠR e
Ġcl ass
Ġpro du
Ġà¦ıà¦ķ à¦Łà¦¿
( d
i que
à¤¾à¤ ľ
à®ª à¯į
Ġc al
Ġc re
g et
·à¥įà¤Ł à¥įà¤°
à¤¾à¤ ¬
à¥įà¤ ļ
Ġ1 8
ĵ à¤Ĥ
c ul
à¤¿à¤ °
à®ķà¯įà®ķà® ²
Ġh is
Ġim port
Ġin d
Ġsu p
Ġà¤° à¥Ĥà¤ª
Ġà¤¹ à¥Ģ
B y
F rame
i x
or m
à¤¿à¤ Ĥ
Ġun der
Ġà¤® à¤¹
Ġà¤ľ à¤¿à¤¸
Ġà®ķà® °
ļ à¯į
er .
h at
i k
n ce
pl ic
u res
à®® à¯įà®ª
Ġg r
Ġsh ow
Ġà¤¨ à¤¾à¤®
ata Frame
rou nd
à§įà¦Ł à§įà¦°
à®¿à®¤ à¯įà®¤
left (
à¤°à¥įà¤ ®
à§Ģ à¦°
Ġe m
5 ,
Ġ %
Ġ _
Ġa c
Ġà®ħ à®°
ation ,
u g
à¥įà¤ ŀ
à¥įà¤¤ à¥įà¤°
Ġ1 2
Ġm u
Ġre m
Ġà¦ Ľ
Ġà®ª à®¿à®°
Ġà®® à®±à¯įà®±
Ġà®Ĩ à®ķ
f ter
i en
par k
ra ct
à¤¿à¤ µ
à¤ķ à¥įà¤¤
à®¤ à¯į
à®¾à® ´
Ġà¤µà¤¿à¤ ¶
Ġà®® à¯ĩ
## #
Ġ ve
Ġc ar
Ġdif fere
Ġdo es
Ġl oc
Ġs on
Ġt ype
Ġà¤¹à¥Ī ,
Ġà®ĩ à®ļ
ķà¯įà®ķà®ªà¯įà®ªà®Ł à¯įà®Ł
al e
it ies
n g
à®¿à® ®
ĠU n
Ġd '
Ġà¤ľ à¤¨
a ir
an ge
f ore
o ol
p art
t y
¸ à¯į
ÃŃ a
Ġà¥ §à¥
Ġà®µ à®Ł
ĠâĢ ľ
" )
id ent
re nt
s et
à¯Īà® ªà¯į
Ġ( 1
Ġin st
Ġà®¨ à®Ł
Ġà®¨ à¯Ĥ
Th is
at ch
à§ĥ à¦¤
Ġà¤°à¤¾à¤ľ à¥įà¤¯
Ġà¦ ²
Ġà®ħ à®Ł
Ġà®ĩ à®¤à¯ģ
e k
p s
à®¾à®£ à¯įà®Ł
à¯ģà® ª
Ġfol low
Ġin t
Ġl ast
Ġà¦ľ à¦¨
\ frac{
er ,
u de
à¤¾à¤ ĵà¤Ĥ
à®°à¯įà® ķà®³à¯į
à®¾à®° à¯į
à®¿à®± à®¤à¯ģ.
à¯ģà®ķà¯įà®ķ à¯ģ
Ġthe se
Ġwe re
Ġà®¤ à¯Ĩ
en g
à¥įà¤¤ à¤¾à¤¨
Ġc he
Ġd et
Ġf ind
Ġma x
Ġpro blem
Ġà¤® à¤¾à¤¨
and om
we en
y le
à¤¾à¤ ¥
ĠS e
Ġf il
Ġp h
Ġà®ħ à®¤
p en
à¥ģà¤ ĸ
à¦¿à¦ ®
à¯ģà® ªà¯įà®ª
à¯įà® ²
Ġ z
Ġf l
Ġà¤ľà¤¾à¤¤ à¤¾
Ġà¦¥ à§ĩà¦ķ
a x
an c
in st
m e
re at
à¤ ·
à¤ª à¤¨
à¥įà¤ ¨
à¯Īà® ķà®³
Ġd on
Ġl ine
Ġà¤ľ à¥ĭ
Ġà¦¦ à§įà¦¬
ac iÃ³n
ad e
ation .
g or
r on
s )
à¯įà®ª à¯įà®ª
Ġà®ħ à®µ
] )
er t
im es
à¤¥ à¤¾
à¥ģ à¤¨
à§ģ à¦°
Ġ\ frac{
Ġb l
Ġà¤° à¤¹
Ġà®ĩ à®²
Ġà®ķ à®¾à®²
eth od
in ed
m ap
o x
à®® à®¿à®´
Ġc ount
Ġcol umn
Ġsy st
N one
ot her
t ing
¤ à¯įà®¤
à¥įà¤ ¡
à¯ģ ,
à¯įà®¤ à¯įà®¤
Ġin v
Ļà¯įà® ķ
rou gh
Ġ &
Ġ Ã©
ĠT r
Ġbet ween
Ġcom ple
Ġg iven
Ġl ong
Ġm on
Ġà®ª à®¯
Ġà®ķ à¯Ĥ
al le
in ce
n 't
¯ à§
à¥ĩ à¤¤à¥įà¤°
Ġ1 1
ĠE x
Ġcon st
Ġd Ã©
Ġl ook
Ġto p
Ġà¤Ń à¤¾à¤·
Ġà®ĩ à®°
Ġà®ķ à¯ģà®±
s c
s h
ut e
à¤¾à¤ Ī
Ġm em
Ġma ke
Ġret urn
Ġà¤¥ à¥ĩ
Ġà¤¸ à¤¬
Ġà¤ķ à¥įà¤·
( f
3 ,
an k
ing .
ra y
à¤¦ à¥ĩà¤¶
à¥Ģ à¤¤
à¥įà¤ ¹
à®® à®¾à®©
à®° à®¿à®¯
Ġ ver
Ġm ost
Ġs er
Ġsu ch
Ġà¦ī à¦ª
Ġà®®à®±à¯įà®± à¯ģà®®à¯į
ind ow
re ad
à¤°à¥įà¤ ¥
à¦ ŀ
à¦¾à¦¦ à§ĩà¦¶
ĠC on
Ġde c
Ġl es
Ġà®¤à¯Ĭ à®Ł
3 .
amb da
con d
im it
m at
w ard
ĠC ol
Ġcom o
Ġh ad
Ġr ight
Ġs ame
Ġs ur
- 2
if ied
o le
os ,
Ġ |
ĠL a
Ġbe c
Ġt erm
Ġà¦¥à§ĩà¦ķ à§ĩ
Ġà¦®à¦¹ à¦¾à¦¸
Ġà®ħ à®±
ra ph
à¦ ¡à¦¼
à®¿à® ķà®³à¯į
Ġà¤ ĸ
Ġà¤ķ à¤¾à¤°
( [
is s
| -
Ã ±
à¤µ à¤Ĥ
à¤¸ à¥įà¤¥
à¯Īà®¯ à®¿à®²à¯į
à¯įà®ª à®Ł
Ġat t
Ġà¤¤ à¤¥à¤¾
Ġà¤µ à¥įà¤¯
Ġà®® à¯Ĭà®´
am p
he n
or s
p i
à¦¤ à¦¿à¦
à§¦ à§¦
Ġ ...
Ġpos s
Ġà¤¹à¥ģà¤ Ĩ
Ġà¦®à¦¹à¦¾à¦¸ à¦¾à¦Ĺà¦°
Ġà® ı
Ġà®® à¯ģà®¤
( 1
(s elf.
W e
\right )
er o
et urn
à¤ ħ
à¦¾à¦ ¹
à¦¿à¦¯à¦¼ à¦¾
à® ķà¯įà®
à¯ĩ à®ļ
à¯Īà® µ
Ġb ack
Ġm ust
Ġs ign
Ġà¤ «
Ġà¤ī à¤¤à¥įà¤¤
Ġà®ĩ à®¤
Ġà®ĩ à®µ
ad a
am pl
à¤¤ à¥Ģ
à¤¿à¤¸ à¥įà¤¤à¤¾à¤¨
à¦¸ à§įà¦¥
à¯Īà®¯ à¯ģà®®à¯į
Ġ0 .
ĠF or
Ġc ould
Ġcon ver
Ġà¤¥ à¤¾à¥¤
Ġà¤ķà¥įà¤· à¥ĩà¤¤à¥įà¤°
Ġà¦¸ à¦¾à¦²
Ļ à§įà¦
( t
: `
inst ance
m an
o ple
à¤¾ ,
à¤ķ à¤¾à¤°
à¤ķ à¥Ģ
à¦¤ à§ĩ
Ġ X
Ġa v
( l
as on
id ad
ow er
ro p
t en
à¤¨ à¥įà¤¦
à¤¿à¤¯ à¥ĭà¤Ĥ
à¦ķ à§ĩ
à®© à¯įà®©
Ġa ut
Ġc ur
Ġe le
Ġw ell
Ġà¤¦ à¥ĩ
Ġà¦¨ à¦¾à¦®
Ġà¦ĸ à§ĩà¦²
ar n
f er
i ous
u c
à¤§ à¤¾à¤¨
à¥Ĥ à¤°
à¦ «
à§įà¦ ¨
Ġa fter
Ġis instance
Ġà¤°à¤¾à¤ ·à¥įà¤Łà¥įà¤°
Ġà¤¸à¤¬ à¤¸à¥ĩ
c ess
id er
n um
ow n
{ \
à¥įà¤ŀ à¤¾à¤¨
à¦¾à¦ §
à¯ģà®ķ à®¿à®©à¯įà®±
Ġ1 5
Ġke y
Ġmu ch
Ġo per
Ġor der
Ġpart ition
Ġsol ution
Ġà¤Ńà¤¾à¤°à¤¤ à¥Ģà¤¯
Ġà¦ «
Ĥ à¦²
in s
is m
w ork
à¤¬ à¥įà¤¦
à¤ķ à¤°
à¥ĭ à¤²
à®°à¯įà® ķà®³
à®¿à® ķà¯į
à®ķà¯įà®ķ à®¿à®¯
à¯ĩ à®°
Ġr dd
Ġà¤¯ à¤¾
Ġà®ļà¯Ĩ à®¯
-- -
alle l
erial iz
it ial
} \
à¤¾à¤ £
à¤¿à¤ £
à¦ ī
à§Ģ à¦¨
à§Ģ à¦ª
à®¤à¯įà®¤ à®¿à®©à¯į
à®°à¯ģà® ®
à®¾à® ®
Ġd ire
Ġn on
E x
aus e
cl ass
est ion
et s
y p
à¤¿à¤ ·
Ġc ap
Ġse e
Ġà¤µ à¤°à¥įà¤
= None
A l
ab ility
ers on
s w
ult i
à¤¦ à¥įà¤§
à¤¿à¤ ¶
à¥įà¤ ¬
à§įà¦ ª
à®¿à® ļ
Ġbot h
Ġdiffere nt
Ġl o
Ġm ethod
Ġpl an
Ġre du
Ġà¤Ĺà¤¯ à¤¾
Ġà®¨ à®¿à®²
C on
c i
e y
r m
r t
à¤¸ à¥įà¤ķ
à¥Ģ ,
à¦¿à¦ £
à®¯ à®°
Ġe very
Ġst art
Ġà¤¬ à¤¾à¤¦
R eturn
m all
à¤¾à¤ ļ
à¦ Ľ
à¦ķ à§įà¦¤
à§ĩà¦ ¬
à¯Ĩ à®³
ĠA s
Ġman y
Ġval ues
Ġà¤¤ à¤ķ
Ġà¤¦ à¥įà¤µ
Ġà¤¶ à¤¬à¥įà¤¦
Ġà¤ı à¤µà¤Ĥ
$ .
---- ----
er g
n ot
um ent
} ^{
Ã¡ s
à¤ª à¥įà¤°
à¥ģ à¤¸
à¦¤à§įà¦¤ à¦°
à®¾à® ®à¯į
à®¿à® ķ
à¯Ī ,
à¯Īà® ¨à¯įà®¤
Ġ /
ĠN ew
Ġa u
Ġà¦ķà¦° à§ĩ
Ļà§įà¦ Ĺ
al ue
c ent
er ator
à§įà¦ §
Ġg u
Ġà¦ħ à¦¬
Ġà®İà®©à¯įà®ª à®¤à¯ģ
I f
av a
m b
oc i
à¦® à¦¾à¦¨
Ġà¤ªà¥Ĥ à¤°à¥įà¤µ
Ġà¦ı à¦ĩ
Ġà®Ĩ à®£à¯įà®Ł
R e
at ure
c .
ing s
res s
à¤¿à¤¨ à¥įà¤¦
à¥įà¤¯ à¤¾
à¦² à§ĩ
à§ Ī
à¯ģà® ²
Ġ very
Ġex ample
Ġf amil
Ġre pres
Ġs erv
Ġst ate
Ġà®¤ à®®à®¿à®´
Ġà®ħ à®´
Ġà®ĩ à®Ł
Ġà®ķà® ²
_ _
at er
def ault
gr am
v iew
à¤ ł
à¤¹ à¤²
à§Ĥ à¦°à§įà¦¬
à§įà¦ ķ
à® ħ
à®¾à®± à¯įà®±
Ġ *
Ġ ed
ĠD e
Ġan al
Ġb el
Ġdist rib
Ġpro per
Ġà¤§ à¤°à¥įà¤®
Ġà¤ªà¥įà¤° à¤¦à¥ĩà¤¶
Ġà¦¬à¦¾à¦ Ĥà¦²
as .
form ation
g an
n a
à¥ĩ à¤²
à¦¾à¦· à§įà¦Łà§įà¦°
Ġ Q
Ġ1 6
Ġhe l
Ġhe re
Ġincl ud
Ġw ay
Ġà¤¦ à¥ĩà¤¶
Ġà¦¬à¦¿à¦ ¶
1 2
d f
i qu
im um
is ion
os .
p or
ual ly
à¦° à§įà¦¤
à®¿à® Łà¯įà®Ł
Ġ her
Ġsup port
Ġà¦Ľ à¦¿à¦²
Ġà®ª à®²
Ġà®µà®¿à® ³
ent e
o f
o od
om et
à¤® à¥ĩà¤Ĥ
à®¿ ,
Ġper form
Ġsyst em
Ġth ink
Ġw ant
Ġà¤µà¤¿à¤¶ à¥įà¤µ
Ġà¦¦ à¦ķà§įà¦·
Ġà¦¹ à¦¿à¦¸
Ġà®ī à®²
ed ,
ff ic
g .
iver s
s elf.
ubl ic
à¤¿à¤ ¦
à¤ķà¥įà¤· à¤¿à¤£
à®µ à®°
à¯ģà®ķ à®¿à®±à®¤à¯ģ.
Ġ1 ,
Ġ19 9
Ġob ject
Ġà®¨ à®¾à®Ł
Ġà®µ à¯ĩ
) ]
al ity
re st
w n
¹ à¤¾à¤¸
à¤¤à¤¿à¤ ¹à¤¾à¤¸
à¯Īà® ķà®³à¯į
Ġ1 4
Ġd id
Ġpart ic
Ġt ake
Ġà¦® à¦§
Ġà¦¸ à¦Ĥ
Ġà¦¹à¦¯à¦¼ à¥¤
o h
r ror
t r
v en
Ġ= =
Ġth rough
Ġà¤ħà¤§ à¤¿à¤ķ
Ġà¦° à¦¾à¦ľ
1 0
col lect
par allel
t al
© à¯įà®©
à¤ ģ
à¤ ĩ
à§įà¦¯ à¦¾à¦¨
à§įà¦¯ à§ĩ
à¯ģà®µ à®¤
ĠC l
Ġcont ain
Ġd iv
Ġinte gr
ĠÂ «
_ n
ar ch
er n
it s
l and
p ath
r al
ra ction
} }
Ã Ĺ
à¤¸à¥įà¤ķ à¥ĥà¤¤
à¦°à§įà¦ ¥
à§ĩà¦ ĸ
à§įà¦ ¡
à®°à¯į .
à®Ļà¯įà® ķà®
Ġpe ople
Ġs he
Ġà¤īà¤¤à¥įà¤¤ à¤°
Ġà®ªà®¯ à®©
Ġà®ĩà®¨à¯įà®¤ à®¿à®¯
$ ,
2 0
E rror
f ul
l ine
parallel ize
vel op
à¦¾à¦ ĩ
à®ķà¯įà®ķà®² à¯Ī
Ġex t
Ġo pt
Ġà¤ķ à¤¿
Ġà¦¦à¦ķà§įà¦· à¦¿à¦£
Ġà®ķà® Ł
an y
e b
f ic
g er
ra ise
ur ing
à¤ ı
à¥įà¤ ¸
à®¿à®² à®¿à®°à¯ģà®
Ġh igh
Ġprov id
Ġs ort
Ġself. _j
Ġst ring
Ġà®ķà® £
I t
as h
e ver
eng th
in c
math b
ou n
p ly
sq l
t t
à¤¶ à¥įà¤ļ
à¥ ī
à¦¨ à§įà¦¤
à¦¾à¦ ª
ĠI '
ĠS h
Ġap pro
Ġr ad
Ġà¤µ à¤¾à¤²
Ġà¦ī à¦¤à§įà¦¤à¦°
1 5
m in
m on
se :
t ed
Ã© n
à¤ ¢
à¥Į à¤°
à¯Īà® ķà¯įà®ķ
Ġc ode
Ġd ay
Ġex per
Ġsc .
Ġst r
Ġà¤¸ à¤¾à¤¥
Ġà¦¦ à§ĩà¦¶
( \
4 .
= "
A n
ag es
collect ()
ing le
t le
un d
v ent
Ã© s
à¤Ĥ à¤¡
à®° à¯ģà®µ
à®± à¯įà®ª
à¯ģ .
à¯įà®ļ à®¿à®¯
Ġ er
ĠS ch
Ġin cre
Ġle ad
Ġp erson
Ġwe ek
Ġà¤ ĺ
( ),
1 1
L e
ch n
in al
u x
à¤Ĺ à¤°
à¯įà® ķà®³
Ġc all
Ġf ile
Ġp ost
Ġr andom
Ġà¤¦ à¤ķà¥įà¤·à¤¿à¤£
Ġà¤ī à¤ª
Ġà¤Ĺ à¥įà¤°
Ġà®µà®Ł à®¿à®µ
T r
` `
el se:
ic a
n ess
s in
à¤¹ à¤°
à¤¹ à¥Ģà¤Ĥ
à¤¾à¤° à¤¾
à¥ģ à¤²
à§įà¦° à¦¿à¦ķ
à®³ à®µ
à®¾à®´ à¯įà®ªà¯įà®ª
à®¾à®´à¯įà®ªà¯įà®ª à®¾à®£
ĠE n
Ġfollow ing
Ġpro b
Ġre ad
Ġre qu
Ġà¤¬ à¤¨
Ġà®® à¯ģà®±
- s
F unc
c ed
erializ er
ir c
m .
om b
sq rt
t on
à¤£ à¥įà¤¡
à¦ŀ à§įà¦ļ
à§ Į
Ġ1 .
Ġev en
Ġg roup
Ġin f
Ġs ize
Ġst at
Ġth ree
Ġà¦Ń à¦¾à¦·
Ġà§ ¨
Ġà® Ĳ
[ 1
\ n
_t ype
an n
ical ly
o in
u ce
à¤¤ à¤¿
à¤¦ à¥Ģ
à¤¸ à¥Ģ
à¤¾à¤ ı
à¤¿à¤· à¤¦
à®ķà¯ģà®¤ à®¿à®¯
à¯ģà®³à¯įà®³ à®¤à¯ģ.
âĢ ĵ
Ġ( 2
ĠA nd
ĠY ou
Ġan g
Ġm od
Ġt est
Ġà¤ķ à¤¹
Ġà®ĩà®°à¯ģà® ¨à¯įà®¤
1 9
[ 0
_ l
am es
an te
ang le
en e
le ase
à¤¿à¤ ľ
à¦¾à¦ ¡à¦¼
à¦¾à¦° à¦¤
à®²à¯įà®² à®¤à¯ģ
à¯Ģ à®°
à¯Ī à®¤à¯įà®¤
Ġ\ right
Ġbas ed
Ġen d
Ġf ield
Ġprodu ct
Ġr ate
Ġre al
Ġse cond
Ġt ri
Ġà¤ľ à¤¾à¤¨
Ġà¦ §
Ġà®® à¯Ĥ
1 }{
\ b
al s
ap p
ar row
id o
it ive
ri pt
à¤¶à¥įà¤ļ à¤¿à¤®
à¤¾à¤ķ à¤¿à¤¸à¥įà¤¤à¤¾à¤¨
à®® à®¾à®ķ
à®±à¯įà®± à®¾à®£à¯įà®Ł
à®Ł à®¿à®¯
ĠH ow
Ġg ot
Ġm ulti
Ġs l
Ġs um
Ġsc. parallelize
Ġà®ķà®Łà¯įà®Ł à®Ł
al se
ar ge
ction s
i or
is hed
ot e
pres sion
re n
à¤ ĥ
à¤® à¤¾à¤¨
à®¿ .
à¯ģà® ªà¯į
à¯ģà® ķà¯į
à¯įà® ķà®³à¯į
Ġ ra
Ġ2 ,
ĠE u
ĠNone :
Ġc ent
Ġd at
Ġme as
Ġs mall
Ġà¤® à¤¨
Ġà¤² à¥ĩ
Ġà¤ħ à¤°à¥įà¤¥
ac es
al ,
b ers
i as
ow (
pl ay
pl it
re ct
ros s
ur s
y ing
y n
¯ à¥
à¤Ĥ à¤ľ
à¥įà¤° à¥ĩ
à¦¦ à§ĩà¦°
à§ ¨
à§ĭ à¦ª
à®ª à¯ģà®°
Ġm ark
Ġv is
Ġà¤¨ à¤¹à¥Ģà¤Ĥ
Ġà®ħ à®²à¯įà®²à®¤à¯ģ
1 }
5 0
D ataFrame
M odel
ment e
ÂłĠ ÂłĠ
à¤¢ à¤¼
à¤« à¤¼
à¦¨ à§ĩà¦°
à¦¾à¦ ļ
Ġ #
Ġag ain
Ġcon d
Ġcon f
Ġequ ation
Ġhel p
Ġà¤ª à¤¹à¤²
Ġà¤¶ à¤¾à¤¸
Ġà¦Ĩ à¦®
Ġà®¨à¯Ĥ à®±à¯įà®±à®¾à®£à¯įà®Ł
Ġà®ļ à®®
(x )
). collect()
_ 2
ct x
er ing
l og
mathb b
park .
pl ac
à¦ª à§įà¦°
ĠP h
Ġbec ause
Ġche ck
Ġcons ider
Ġin s
Ġisinstance (
Ġm ed
Ġr ange
Ġs ample
Ġt em
Ġto tal
Ġà¤¬ à¤¹
Ġà¦¶ à¦¤
Ġà¦¹à¦¿à¦¸ à§ĩà¦¬
Ġà§§à§ ¯à§
2 2
St ream
b e
et er
or ld
our ce
à¤² à¤¾
à® ¸
Ġ )
ĠI s
Ġbe ing
Ġcont in
Ġd f.
Ġdistrib ution
Ġe as
Ġgo od
Ġl it
Ġn ow
Ġpl ay
Ġpoint s
Ġposs ible
Ġr un
Ġrepres ent
Ġs it
Ġt ak
Ġwh ile
Ġà¤ĩ à¤¨
Ġà¤Ńà¤¾à¤· à¤¾
Ġà¦¦à§įà¦¬ à§Ģà¦ª
Ġà®Ĵ à®©à¯įà®±
+ +
a im
ant s
iv es
s on
à¤° à¥ĩ
à¥Ģ à¥¤
à§ĩà¦ ĩ
à®¾à®ķà® µ
Ġ1 3
Ġ1 7
Ġcur rent
Ġp op
Ġs om
Ġà¤µ à¥ĩ
Ġà¦ª à§ĥ
Ġà¦° à¦¾à¦·à§įà¦Łà§įà¦°
Ġà¦ħà¦¬ à¦¸à§įà¦¥
Ġà®¨ à®ķà®°
ra in
t om
y th
à¥įà¤µ à¥Ģ
à¦ Ļà§įà¦Ĺ
à¦¤à¦¿à¦ ¹
à¦¾à¦ Ł
à¯įà® °
ĠI nd
Ġbe fore
Ġdon 't
Ġqu estion
Ġre st
Ġve ctor
Ġà¤ª à¤¾à¤ķà¤¿à¤¸à¥įà¤¤à¤¾à¤¨
Ġà¦ħ à¦ŀà§įà¦ļ
Ġà®ªà¯Ĭ à®°à¯ģà®
- d
K ey
f ace
mb ol
ol ution
p re
u '
Ã© e
à¤¤ à¥įà¤¯
à¤§ à¥įà¤¯
à¥ĭ à¤ª
à¦ ¯
à¦¨ à§įà¦¦
à¦¿à¦ Ł
à®ķà® ®à¯į
Ġ1 00
ĠE l
ĠW h
Ġar g
Ġm Ã¡s
Ġp ass
Ġà¤® à¥ģ
Ġà¦¬à¦¿à¦¶ à§įà¦¬
Ġà¦¸ à§įà¦¥
Ġà® ¯
Ġà®¨ à®¿à®±
$ \
5 .
at ur
at ures
b ack
class :`
he mat
he re
it ed
à¤ªà¤¨ à¤¿à¤·à¤¦
à¤¯ à¥ģ
à¦Ĺ à§ģà¦²
à§ģ à¦¦
à® Ĩ
à®¾à®© à¯į
à®¿à®²à¯į ,
Ġ Z
Ġbu ild
Ġf ound
Ġfunction s
Ġme an
Ġs ay
Ġte am
Ġà¤ħ à¤ª
Ġà¦ ĺ
Ġà¦¸ à§įà¦¬
Ġà¦ı à¦°
\ in
ab l
en sion
et work
f unc
ia ,
ial ly
à¤Ĥ à¤¤à¥įà¤°
à§ İ
à¯įà® ¨
ĠA m
ĠH e
Ġ\ left(
Ġan sw
Ġin de
Ġl imit
Ġs ince
Ġs pe
Ġse ed
Ġth ose
Ġà¤¬ à¤¡à¤¼
Ġà¤® à¤¿à¤²
Ġà¤ĩà¤¸ à¤ķà¥ĩ
Ġà¦¤ à¦¾à¦°
Ġà¦¬ à¦¾
Ġà¦ĩ à¦ī
Ġà¦Ń à¦¾à¦°à¦¤
Ġà®Ĩà®ķ à¯ģà®®à¯į.
Ġà®ļ à®¿à®±
4 ,
E n
a z
ampl es
iz ation
o ot
pon d
à¤¸ à¥įà¤¤
à¦ ł
à¦¿à¦¯à¦¼ à¦¾à¦°
à¦¿à¦¯à¦¼ à§ĩ
à§ĩà¦Ľ à§ĩà¥¤
à®¾à®ķà® ķà¯į
à®¿à®© à¯įà®©
Ġc r
Ġm ade
Ġma k
Ġpar a
Ġsp ace
Ġt yp
Ġte xt
Ġà¤¸ à¥įà¤µ
Ġà¤īà¤¨ à¥įà¤¹
Ġà® °
1 6
4 5
C l
a h
al th
c al
el if
gor ith
i um
iz ed
red ict
ri v
ri x
à¤¸ à¤Ĥ
à¥Ģ à¤µ
à®¿à®² à¯ģà®®à¯į
à®¿à®²à®¿à®°à¯ģà® ¨à¯įà®¤à¯ģ
ĠM at
Ġf ace
Ġf lo
Ġr Ã©
Ġsom eth
Ġst and
Ġà¤¦à¥įà¤µ à¤¾à¤°à¤¾
Ġà¤ī à¤¸
Ġà¤ķ à¤Ī
Ġà¥ ¨
ĠâĢ Ķ
(l ambda
3 0
A s
R DD
i ence
p oint
ver age
à¤¾à¤Ĥ à¤Ĺ
à¤¾à¤ļ à¥Ģà¤¨
à¥Ģ à¤®
à¦¤ à¦¾
à®µ à®±à¯įà®±
à¯ģà® £
âĢĻ t
ĠL e
ĠS y
Ġcal cul
Ġd own
Ġes pec
Ġex ist
Ġg reat
Ġin itial
Ġl at
Ġo wn
Ġs ingle
Ġà¤² à¥ĭà¤Ĺ
Ġà¤¸à¤Ĥ à¤¸à¥įà¤ķà¥ĥà¤¤
Ġà¤¹ à¤¿à¤¨à¥įà¤¦
Ġà¤ľ à¥Ī
Ġà¤Ń à¥Ĥ
Ġà¦ªà§ĥ à¦¥
Ġà¦¹à¦¿à¦¸à§ĩà¦¬ à§ĩ
Ġà®ªà®¯à®© à¯įà®ªà®Ł
Ġà®µ à®³
Ġà®ħà®° à®ļ
6 .
as k
d f.
im ension
in es
ist ic
re g
res sion
u est
à¤® à¥ģà¤ĸ
à¤¾à¤ §
à§ĭ à¦²
à§įà¦ ł
à®¾à® ª
à®¾à®± à¯ģ
à®¿à®¯ à®¾
ĠD ataFrame
ĠT e
Ġde velop
Ġdes c
Ġex pl
Ġo pen
Ġpres ent
Ġst ill
Ġà¤¥à¥ĩ à¥¤
Ġà¤µà¤¿à¤ Ń
Ġà¤ķà¤° à¤¨à¥ĩ
Ġà® Ł
Ġà®µà®° à®²
Ġà®ħà®® à¯Īà®¨à¯įà®¤
. t
a w
c o
ion es
is sion
or age
qu ence
t s
w ith
Â »
à¤ Ĩ
à¤¦ à¥įà¤°
à¤® à¤¨
à¥ģ à¤¤
à¦¾à¦¬ à§ĩ
à¯Ī à®¤à¯į
Ġ2 .
Ġ: class:`
ĠCom m
ĠE st
ĠJ an
Ġa round
Ġan other
Ġcond ition
Ġd oc
Ġf act
Ġgener al
Ġin formation
Ġtra in
Ġà¤²à¤¿à¤ ı
Ġà¦¤ à¦¿à¦¨
Ġà¦¬ à§ĥ
Ġà¦ķà¦° à¦¾
Ġà®īà®² à®ķ
Ġà®İ à®´
Ġà®İà®©à¯įà®± à¯ģ
. s
1 8
6 ,
_ m
_ st
ail able
al es
er c
i .
ist or
à¦ ĵ
à§ģ à¦ķà§įà¦¤
à®°à¯ģà®® à¯įà®ª
Ġ --
Ġf re
Ġpro gram
Ġà¤ª à¤¶à¥įà¤ļà¤¿à¤®
Ġà¤¸à¤Ĥ à¤Ĺ
Ġà¤Ĩ à¤¦
Ġà¦®à¦§ à§įà¦¯à§ĩ
Ġà¦®à¦¹ à¦¾à¦¦à§ĩà¦¶
Ġà¦ħ à¦°à§įà¦¥
## ##
/ 2
: :
= u'
Error ("
a ut
ab el
al k
el ta
ep s
ke y
m et
ro l
un ction
yth on
} ,
} _{
à¤ ·à¥įà¤Ł
à¦¤ à¦¿
à¦¤à¦¿à¦¹ à¦¾à¦¸
à¦¿à¦¤ à¥¤
à§ĩà¦¨ à¥¤
à§įà¦° à§Ģ
à®¿à®² à¯įà®²
à¯Ĥ à®°à¯į
Ġ( '
ĠB ut
Ġc ase
Ġe lect
Ġl og
Ġm et
Ġà¤ Ľ
Ġà¤ķ à¤¾à¤²
Ġà¦ķ à§ĭ
Ġà®ª à®Ł
- b
_ p
al ign
c ,
es c
fere nce
g g
à¤¾à¤ ¶
à§ĩà¦Ľ à§ĩ
à®° à®ļ
à®² à®®à¯į
à¯ĩ à®¯
à¯Īà® ļà¯į
ĠM ay
Ġcom b
Ġf raction
Ġf ree
Ġh and
Ġit 's
Ġloc al
Ġo p
Ġà¤¸ à¤Ń
Ġà¤ħà¤¨ à¥ģà¤¸
Ġà®ª à®°
Ġà®ª à®¾à®°
Ġà®ī à®¯à®°
Ġà®ķà®Łà¯įà®Łà®Ł à®ķà¯įà®ķà®²à¯Ī
" .
( '
- t
2 5
A T
O N
ad os
al ph
ar ly
d ata
u ed
Ã º
à¦¶ à§įà¦ļ
à¦¶à§įà¦ļ à¦¿à¦®
à¦¾ ,
à¦¾à¦¨ à§įà¦¤
à¦¾à¦¬ à§įà¦¦
à®²à¯įà® ķà®³à¯į
Ġ u
ĠM ar
Ġcl aim
Ġdes ign
Ġdet erm
Ġdire ct
Ġer ror
Ġex pect
Ġl ang
Ġnot e
Ġp ap
Ġpl ace
Ġpl us
Ġrec ent
Ġsometh ing
Ġun e
ĠÂ »
Ġà¤¦ à¥ĭ
Ġà¤¸à¥įà¤¥ à¤¿à¤¤
Ġà¤¹à¥ĭ à¤¤à¤¾
Ġà¤ħà¤¨ à¥įà¤¯
Ġà¦¸à¦¾à¦² à§ĩ
Ġà®ļ à¯Ĭ
. "
A r
d is
ff ect
ic o
im ent
ir d
ore m
r and
ra p
sqrt {
st yle
val ue
w ise
à¥ĭ à¤°
à¥ĭ à¤µ
à¥ĭ à¤ķ
à¦¾à¦ ¶
à¦¿à¦ ľ
à§ĩà¦ ·
à§ĩà¦° à¦¿à¦ķ
à®¿à® ¨à¯įà®¤
Ġ201 3
ĠP l
ĠR es
ĠW hat
Ġan t
Ġas k
Ġc u
Ġcal led
Ġch ar
Ġent re
Ġfe w
Ġh ome
Ġm en
Ġor ig
Ġp air
Ġpro cess
Ġse ason
Ġà¤²à¤¿à¤ ª
Ġà¤ħ à¤µ
Ġà¤Ń à¤¾à¤Ĺ
Ġà¦ªà§ĥà¦¥ à¦¿à¦¬
Ġà¦ĩà¦ī à¦°
Ġà®ª à®´
Ġà®µ à®´
Ġà®µ à¯Ĩ
Ġà®ķ à¯ģà®Ł
( j
+ ---
/ /
By Key
act er
as et
en se
he ad
in a
iv al
l ess
oc al
oh n
ra w
ro du
st and
ul a
um an
um e
w ay
Ã¡ n
Ã© ric
à¥ĭà¤Ĥ à¤¨à¥ĩ
à¦ķ à¦¾à¦°
à§ §à§
à§įà¦ ²
à®¾à® ķà¯įà®ķ
à®¿à® ªà¯įà®ªà®Ł
Ġ201 2
ĠD Stream
Ġb us
Ġd ans
Ġdef in
Ġim age
Ġin put
Ġm ap
Ġpar am
Ġpro ject
Ġr at
Ġrec ord
Ġà¤Ĩ à¤§
Ġà¦¦ à§ģ
Ġà¦ħ à¦§
Ġà® ľ
Ġà®Ĩ à®®à¯į
Ġà®Ĩà®ķ à®¿à®¯
Ġà®ķà¯ĭ à®ªà¯ģà®°
ŀ à¯įà®ļ
. _j
9 9
=None ):
V alue
default :
eg in
ffic ient
i Ã¨
ies ,
im al
it her
ort h
¨ à§įà¦¤
à¤² à¥Ģ
à¦§ à¦¾à¦¨
à¦¹ à¦°
à¦¿à¦ ·
à®¿à® ª
à®Ļà¯įà®ķà®³ à®¿à®²à¯į
à¯ģà®Ł à®©à¯į
Ġ\ left
Ġa ge
Ġal gorith
Ġc le
Ġcomp ut
Ġd er
Ġen erg
Ġinv est
Ġl ot
Ġle vel
Ġp ie
Ġsc.parallelize ([
Ġte chn
Ġw indow
Ġà¤¬ à¥įà¤°
Ġà¤® à¥ģà¤ĸ
Ġà¤² à¤Ĺ
Ġà¦° à¦¯à¦¼
Ġà¦Ĩà¦® à§ĩà¦°à¦¿à¦ķ
Ġà®¤ à¯ĭ
Ġà®® à¯Ģ
Ġà®ļ à¯ĩ
1 )
4 3
7 .
F or
T o
em ber
i ,
ig u
olog y
r id
à¤® à¥įà¤¬
à¤¿à¤¯ à¥ĩ
à¥ §à¥
à® ī
à®©à¯įà®± à¯ģ
à®ª à¯Ĩ
à®¾à®°à¯į .
à®¿à® ķà¯įà®ķà®ªà¯įà®ªà®Łà¯įà®Ł
à¯Īà®¯ à®¾à®©
à¯įà® £
à¯įà®ļ à¯įà®ļ
Ġall ow
Ġav ailable
Ġc irc
Ġdef ault
Ġex p
Ġimport ant
Ġpro f
Ġre ally
Ġwith out
Ġà¤ªà¥įà¤° à¤¾à¤ļà¥Ģà¤¨
Ġà¤µ à¤¹
Ġà¤ķ à¥ģà¤
Ġà¦ª à§Ĥà¦°à§įà¦¬
Ġà¦ªà§įà¦° à¦¾à¦¯à¦¼
Ġà¦¶ à¦¹à¦°
Ġà®ªà®¯à®©à¯įà®ªà®Ł à¯ģà®¤à¯įà®¤
E R
P ost
S T
ab les
as ed
b l
c ur
day ,
e ad
n es
o id
on s
our s
pend ent
ple ment
st r
un ic
à¤¯ à¥ĭà¤Ĺ
à¤¿à¤¦ à¥įà¤§
à¥įà¤ £
à¦¸ à¦Ĥ
à¦¿à¦ ¶
à¦¿à¦ ļ
à¦ĸ à§įà¦¯
à§ĩà¦ ¤
à§ĩà¦ ¯à¦¼
à®ªà¯įà®ªà®Łà¯įà®Ł à®¤à¯ģ.
à¯ģà® Ļà¯įà®ķ
Ġ ide
Ġbot tom
Ġel se
Ġhe ad
Ġl ength
Ġm ass
Ġme ans
Ġout put
Ġp a
Ġre port
Ġspec ified
Ġà¤ ¡
Ġà¤µà¤°à¥įà¤ ·
Ġà¤ħà¤¨à¥ģà¤¸ à¤¾à¤°
Ġà¦ı à¦Łà¦¿
Ġà®¤ à®©
Ġà®¤ à®²
Ġà®¤ à®¿à®°
Ġà®ħà®´ à¯Īà®
S e
U n
W ith
a )
ac he
c os
c ount
d ot
ever ,
i os
in f
ver t
ys is
{ align
¡ à¤¼
à¤° à¤¾
à¤ķ à¥įà¤°
à¤ĸ à¥įà¤¯à¤¾
à¦¾à¦ Ĥ
à¦¾à¦° à¦¾
à§ «
à§įà¦¤ à¦¾à¦¨
à®°à¯įà® ¨à¯įà®¤
à®±à¯įà®ķ à¯ģ
à®¾à®°à¯įà® ķà®³à¯į
à®¿à® ³
à¯Ģ à®©
à¯ģà®ķà®¿à®©à¯įà®± à®©.
à¯Īà® ®
Ġ ident
Ġ19 6
Ġ19 7
Ġ3 0
ĠT o
Ġadd ition
Ġch ild
Ġfin al
Ġinte rest
Ġinter n
Ġnum Partitions
Ġth ough
Ġw in
Ġà¦¬à¦¿à¦ Ń
Ġà¦® à¦¾à¦¨
Ġà¦ħà¦ŀà§įà¦ļ à¦²
Ġà®¤à¯Ĭà®Ł à®°
Ġà®® à®©
Ġà®® à®¿à®ķà®
ĠâĢ ĺ
( default:
(self. _j
= \
N ame
Tr ue
ar s
b s
iv id
s um
x ,
Ã© t
à¤ª à¥Ĥ
à¤°à¥įà¤ £
à¤¾à¤Ĺ à¤°
à¤Ń à¤¾à¤°à¤¤
à¥Ģ à¤²
à¦°à§įà¦ ľ
à¦¾à¦° à¦£
à¦¿à¦¬ à§ĩà¦¶
à§ģ à¦Ĺ
à§ģà¦° à§ģ
à¯Ĩ à®©
Ġ à¥¤
Ġ$$ \
ĠA mer
ĠA pr
ĠB l
ĠJ ul
Ġbel ow
Ġne g
Ġnon -
Ġp ack
Ġp ath
Ġp ut
Ġre ce
Ġredu ce
Ġwith in
Ġà¤¹à¥ģà¤ Ī
Ġà¦¬ à¦²
Ġà¦ħ à¦¸
Ġà®ª à®£
Ġà®® à®ķà¯įà®
- 3
_ i
em ory
i red
ic es
im est
in o
it le
on ,
p ing
r ary
row s
to _
à¤µ à¥Ģà¤Ĥ
à¤¾à¤ ĩ
à¤¾à¤ı à¤ģ
à§įà¦¯ à§ĩà¦°
à®¾à®² à¯ģà®®à¯į
à¯įà® ¯
Ġ1 :
ĠG u
Ġan n
Ġb ook
Ġc as
Ġd uring
Ġex pression
Ġf ac
Ġincl ude
Ġinter val
Ġl ess
Ġle ast
Ġmon th
Ġo cc
Ġw r
Ġà¤ Ī
Ġà¤¦ à¤¿à¤¯à¤¾
Ġà¤®à¥ģà¤ĸ à¥įà¤¯
Ġà¤ķà¤¾à¤° à¤£
Ġà¦¸ à¦¾à¦®
Ġà®ª à®Łà¯įà®Ł
Ġà®µ à®ķ
Ġà®Ĩ à®°
Ġà®ķà¯Ĥ à®±
+---- -
8 .
8 0
Al ice
L a
at ely
m ark
o ver
res pond
text {
u ck
un e
à¤¨à¥įà¤¦ à¥įà¤°
à¤° à¤£
à¤¾à¤¹ à¤¿à¤¤
à¦ ı
à¦¿à¦¤ à§ĩ
à§ģ à¦¯à¦¼
à§ĩà¦Ľ à¦¿à¦²
à®¿à®¯ à®¿à®¯à®²à¯į
à®¿à®° à¯ģà®¤
à®ļ à¯įà®ļ
à¯Ĩ à®°
âĢ ľ
Ġ( C
Ġ3 ,
Ġ5 0
ĠA b
ĠJ ohn
Ġbe h
Ġc ost
Ġen ough
Ġl arge
Ġm ight
Ġres pon
Ġà¤¸à¥įà¤¥ à¤¾à¤¨
Ġà¤¹à¥Īà¤Ĥ ,
Ġà¤ĩ à¤¤à¤¿à¤¹à¤¾à¤¸
Ġà¦¯ à¦¾
. com
7 ,
P ro
[1 ]
ab ly
as ter
im ate
in ess
it ems
ivers ity
le t
ord ing
pl oy
u j
um ents
ur ation
}{ \
à¤¶ à¤¾à¤¸
à¤¾à¤² à¤¯
à®® à¯ĩ
à®±à¯įà®± à®¿à®¯
à¯Īà®¯ à®¿à®©à¯į
à¯Īà®¯ à¯ģà®®à¯į,
Ġ( A
ĠF eb
Ġact iv
Ġmat rix
Ġo ld
Ġp ower
Ġt re
Ġà¤ªà¥įà¤° à¤®à¥ģà¤ĸ
Ġà¦ Ł
Ġà¦ª à¦¾à¦°
Ġà¦¬à§ĥ à¦¹
Ġà®ªà¯Ĩ à®±à¯įà®±
Ġà®ªà¯ĭ à®©à¯įà®±
Ġà®ħà®± à®¿à®µ
2 )
ad as
b re
c er
c u
enc y
et ing
et y
h ip
inc ip
og raph
pl ace
read y
s p
tt p
v ed
à¤¾à¤° à¥Ģ
à¥ ¨
à¥Ĥ à¤¸
à§ Ń
à®® à¯Īà®ªà¯įà®ª
à®¿à®¯ à®²
à®¿à®° à¯ģà®ķà¯įà®ķ
à¯Ĥ à®°
ĠM an
ĠO r
Ġa verage
Ġb ound
Ġd om
Ġf r
Ġs us
Ġstand ard
Ġt urn
Ġw orld
Ġà¤ªà¥įà¤° à¤§à¤¾à¤¨
Ġà¤¶ à¤¹à¤°
Ġà¤ħà¤§ à¥įà¤¯
Ġà¤ľà¥Ī à¤¸à¥ĩ
Ġà¥§à¥ ¯à¥
Ġà¦Ń à§Ĥ
Ġà®ī à®°à¯ģà®µ
Ġà®ķà¯ģà®± à®¿à®ªà¯įà®ª
Ġà®ķà¯ĭ à®¯
Ļà¯įà® ķà®³à¯į
- l
A N
a red
a u
and o
g in
i em
i od
ic an
il ar
il on
il y
ion .
m it
o res
plac ement
ust om
ut il
val u
w here
¶ à¤¨
à¤¾à¤ ĸ
à¥Ģ à¤¸
à¥Ĥ à¤²
à¥ĩ à¤¦
à¦¾ à¥¤
à¦¿à¦¸ à§įà¦¤à¦¾à¦¨
à¦¿à¦ķ à§ĩ
à¦Łà¦¿ à¦°
à§įà¦¯à¦ ¤
à®µ à¯įà®µ
à®¿à®¯ à®ķà¯į
à®¿à®°à¯ģà® ¨à¯įà®¤
à¯į ,
à¯įà® ķà®
Ġ` `
Ġb o
Ġcre ate
Ġde p
Ġele ments
Ġg raph
Ġman ag
Ġqu ant
Ġqu i
Ġrem ain
Ġs ch
Ġsaid .
Ġst ruct
Ġstud ents
Ġsu per
Ġwh y
Ġà¤ Ł
Ġà¤µ à¥Ī
Ġà¤ī à¤¦
Ġà¦¬à¦¿à¦¶à§įà¦¬ à§ĩà¦°
Ġà¦ķà¦° à§ĩà¥¤
Ġà®Ĩ à®¯
Ġà®ĩ à®¯
Ġà®ķà®° à¯ģà®¤
' re
0 5
2 1
4 0
8 ,
I N
I P
Return s
S .
] .
_ 0
_ con
a ff
ab e
am ente
an ces
ert ain
id a
ist s
p artition
p m
re l
à¤ª à¥ģà¤°
à¤¯à¥ģ à¤ķà¥įà¤¤
à¤Ĥà¤ľ à¤¾à¤¬
à§Ĥ à¦²
à§ĩà¦ Ł
à§ĭ à¦Ł
à®© à®°à¯į.
à®± à¯ģ
à®¿à®² à¯ģà®³à¯įà®³
à¯ģà®µ à®°
âĢ ¦
Ġ2 5
Ġ4 ,
ĠCol umn
ĠTr ue
Ġal ready
Ġalgorith m
Ġb ox
Ġde v
Ġes p
Ġg ame
Ġg l
Ġm us
Ġn orm
Ġne xt
Ġp ort
Ġsc he
Ġserv ice
Ġw on
Ġà¤¥ à¥Ģà¥¤
Ġà¤ªà¤¹à¤² à¥ĩ
Ġà¤°à¤¾à¤ľ à¤§à¤¾à¤¨
Ġà®¤à¯Ĭà®Łà®° à¯įà®ª
Ġà®®à¯ģà®¤ à®²
1 00
1 3
C om
DataFrame `
E l
a it
a res
ad d
av ing
c le
con om
f rom
h o
ies .
m ed
ro pe
à¤¨ à¥Ģ
à¤ľ à¤¨
à¦°à§įà¦ ¯à¦
à¦¿ ,
à¦Ĥ à¦¶
à§ ®
à§ĭ à¦¯à¦¼
à®¤à¯įà®¤ à¯Ī
à®ªà¯įà®ªà®Ł à¯ģà®ķà®¿à®±à®¤à¯ģ.
Ġ ;
ĠA t
ĠC ent
Ġanal ysis
Ġang le
Ġc ate
Ġcom e
Ġequ al
Ġf ue
Ġgr and
Ġis s
Ġl en
Ġp ot
Ġproper t
Ġst yle
Ġtr ue
Ġà¤ª à¥ģà¤°
Ġà¤® à¤§à¥įà¤¯
Ġà¤¸ à¤ķ
Ġà¤īà¤¨à¥įà¤¹ à¥ĭà¤Ĥà¤¨à¥ĩ
Ġà¦¤à¦¿à¦¨ à¦¿
Ġà¦ĩà¦īà¦° à§ĭà¦ª
Ġà®¯ à®¾à®´à¯įà®ªà¯įà®ªà®¾à®£
( ).
( X
- f
N um
O R
ar l
c us
dis play
if old
ou se
s y
th ing
ul ation
v ious
ver n
z one
ÃŃ s
à¤¶ à¤¿à¤¯à¤¾
à¤¾à¤¹à¤¿à¤¤ à¥įà¤¯
à¤¿à¤¨ à¥įà¤¨
à¤Ĥ à¤¤
à¤ľ à¤¼
à¦¾à¦ ¥
à§ģ à¦¨
à® ¸à¯į
à¯ģà® ´
Ġ â
Ġ$ {
Ġ( S
ĠL et
Ġ\ c
Ġcan not
Ġch ang
Ġcl os
Ġd ri
Ġen g
Ġenerg y
Ġf ull
Ġg e
Ġlook ing
Ġm ill
Ġmeas ure
Ġmulti ple
Ġn ull
Ġob j
Ġp ick
Ġpartic ular
Ġprov ide
Ġresult s
Ġver sion
Ġw ord
Ġyear s
Ġà¤Ĩà¤¦ à¤¿
Ġà¤ĩà¤¸ à¤ķà¤¾
Ġà¤ķà¥ģà¤ Ľ
Ġà¤Ĺà¤¯ à¤¾à¥¤
Ġà¦¥ à¦¾à¦ķ
Ġà¦ª à¦¶à§įà¦ļà¦¿à¦®
Ġà¦¸ à¦°à§įà¦¬
Ġà¦¸ à¦¾à¦¹
Ġà¦Ĩ à¦«
Ġà®®à®© à®¿à®¤
Ġà®®à¯ģà® ©à¯įà®©
Ġà®®à¯Ĭà®´ à®¿à®¯
Ġà®ħà®® à¯Īà®ªà¯įà®ª
Ļà¯įà® ķà®³
Łà¯įà®Ł à®¿à®Ł
( n
3 }
9 ,
F ile
a f
d o
er s,
fere n
h or
i )
ight s
in ary
lo ad
ma x
row n
sql _
the ta
w are
à¤ª à¤¾à¤²
à¤¿à¤ Ł
à¤¿à¤¤ à¥įà¤°
à¤ķ à¤¿
à¦ Ĩ
à¦¿à¦ ª
à§ ¬
à§įà¦¯à¦ ¬
à® ŀà¯įà®ļ
à®²à¯į ,
à®µ à¯Ī
à®¾à®Łà¯įà®Ł à¯ģ
à®¿à® ķà¯įà®ķà®
à¯ģà® ķà¯įà®
à¯ģà®® à¯įà®ª
à¯ĩ à®µ
Ġ2 4
ĠO n
ĠS p
ĠS u
Ġass oci
Ġb atch
Ġb est
Ġcontain s
Ġder iv
Ġe ither
Ġf our
Ġh im
Ġinclud ing
Ġit .
Ġp our
Ġpr im
Ġprob ability
Ġse par
Ġsu re
Ġto day
Ġun it
Ġunder stand
Ġà¤¥ à¤¾
Ġà¤¯ à¥Ĥà¤°
Ġà¤¸ à¥Ĥ
Ġà¤¹à¥ģà¤ ı
Ġà¤ħ à¤²
Ġà¤ķ à¥įà¤°
Ġà¦ª à¦°à§įà¦¯à¦
Ġà® ¹
Ġà®ħ à®²
Ġà®İà®© à¯įà®©
! !
( it
2 3
C ol
P oint
_ to_
a j
e qu
i ol
i res
ivid ual
mathbb {
on es
ou th
our se
r ation
r ist
sql_ ctx
t imes
v es
à¤¸ à¤¾
à¤Ĥ à¤¦
à¥¦ à¥¦
à¥įà¤° à¥Ģ
à¦¤ à¦®
à¦¤ à§įà¦¬
à¦¾à¦ ĵ
à§ĩà¦ ĵ
à®© à¯įà®®
à®²à¯įà® µ
à¯ģà® ķà®
à¯ģà®ķà¯įà®ķ à®¿à®¯
Ġ( "
Ġ1 )
ĠA ll
ĠB e
ĠS o
Ġare a
Ġg ive
Ġgo ing
Ġim plement
Ġke ep
Ġknow n
Ġlit tle
Ġm il
Ġm om
Ġm ot
Ġs elf
Ġà¤¬à¤¹ à¥ģà¤¤
Ġà¤® à¥ĩ
Ġà¤°à¤¾à¤ľà¤§à¤¾à¤¨ à¥Ģ
Ġà¤² à¤¿à¤¯à¥ĩ
Ġà¤¸ à¤¾à¤®
Ġà¤ķà¤¾à¤° à¥įà¤¯
Ġà¤ľ à¥Ģà¤µ
Ġà¦¸ à¦¬
Ġà®ª à®¤
Ġà®ªà¯Ĭà®°à¯ģà® ³
Ġà®ħ à®©
Ġà®ķà®Łà¯įà®Łà®¿à®Ł à®ķà¯įà®ķà®²
Ġà®ļ à®¿à®²
() )
+----- +
1 4
6 0
= 0
\ pi
a is
am ent
ap ter
display style
ear ch
eps ilon
f in
g round
ge b
ia .
if y
il led
it al
m p
on d
res h
s erv
t }
us e
v ir
à¤¯ à¤¨
à¤° à¤®
à¤° à¥įà¤¤
à¤¿à¤ §
à¦¤ à¦¿à¦ķ
à¦°à§įà¦¤ à¦®à¦¾à¦¨
à¦¸à¦Ĥ à¦ĸà§įà¦¯
à§ģ à¦·
à§įà¦ ®
à® ľ
à®¤à¯ģ ,
à®ªà¯įà®ªà®Ł à¯ģà®®à¯į
à®¾à®µ à®¿à®²à¯į
à®ķ à¯ĭ
à®ķà® ¤à¯įà®¤
à¯ģà®³ à¯į
à¯ģà®³à¯įà®³ à®©.
à¯Īà® ķà¯įà®ķà®
Ġ$ p
ĠA p
ĠC an
ĠE ng
ĠS c
ĠT ype
Ġad v
Ġap pe
Ġch o
Ġev ent
Ġexample ,
Ġf it
Ġintegr al
Ġl ow
Ġm er
Ġreg ular
Ġsim ple
Ġthe ory
Ġà¤ Ĳ
Ġà¤ ĵ
Ġà¤¨ à¤¿à¤°
Ġà¤¸à¤® à¤¯
Ġà¤ķ à¤®
Ġà¦¬ à§ĩà¦¶
Ġà®¤ à¯Ĭà®´
Ġà®ª à®ķà¯ģà®¤à®¿à®¯
=None ,
[0 ]
al f
b ar
c s
ent ial
er al
f ile
id es
m ost
par se
ret ty
st ream
à¤¾à¤¤ à¥įà¤®
à¤¾à¤¬ à¥įà¤¦
à¤¾à¤¯ à¤¾
à¤¿à¤ ª
à¤¿à¤¤ à¤¾
à¤ľ à¥Ģ
à¥įà¤ Ń
à¦¤à§įà¦¤ à¦®
à¦¿à¦¨ à§įà¦¨
à¦ľ à¦¨
à¦Ń à¦¾à¦¬à§ĩ
à§ĥ à¦·
à§įà¦ Ľ
à® Ĭ
à® İ
à®¯ à®°à¯į
à®°à¯įà® µ
à¯Ģ à®´
à¯ģà®Ł à¯Īà®¯
Ġ$ n
ĠAn g
ĠC or
ĠI' m
ĠM ed
ĠThe re
ĠV alue
Ġagain st
Ġb ig
Ġc are
Ġcomple x
Ġcor respond
Ġdat aset
Ġele ment
Ġf ore
Ġh ab
Ġh uman
Ġit er
Ġn etwork
Ġp rom
Ġp ublic
Ġp ur
Ġph ys
Ġse ver
Ġself. map
Ġser ies
Ġw rit
Ġà¤¦à¥ĩ à¤µ
Ġà¤²à¤¿à¤ª à¤¿
Ġà¤µ à¤¿à¤ķ
Ġà¤µà¤¿à¤ ¦
Ġà¤ľ à¤¿à¤¨
Ġà¦¬à¦¾à¦Ĥà¦² à¦¾à¦¦à§ĩà¦¶
Ġà¦¯ à¦¾à¦¯à¦¼
Ġà¦Ĩ à¦¬
Ġà®¨à®¿à®± à¯ģà®µ
Ġà®¨à®Ł à®©
Ġà®ª à®¿à®©à¯įà®©
Ġà®µà®¿à®³ à¯Īà®¯
Ġà®Ĩ à®Ł
: 5
A S
A nd
D elta
[ ÃĹ
a ction
al t
ank s
end ing
er s.
le ction
m ary
od y
om en
op t
p ed
r am
red uce
z ,
¨ à®ķà®°
à¤ ī
à¤¨ à¥įà¤§
à¤¾à¤¤ à¤¾
à¤¾à¤Ĥ à¤¤
à¤¿à¤ ı
à¥ ¬
à¥ĥ à¤·à¥įà¤Ł
à¥ĩ à¤·
à¥ĩ à¤Ł
à¦¾à¦¦ à§ĩà¦°
à§įà¦ ľ
à®¾à®°à¯įà®ķà®³à¯į .
à®¾à®µ à®¿à®©à¯į
à®ķà¯įà®ķà® °
Ġ q
Ġb re
Ġb ro
Ġd imension
Ġnum bers
Ġper iod
Ġres pect
Ġself. _
Ġsh ip
Ġsit u
Ġspec ific
Ġtr ad
Ġà¤µà¥įà¤¯ à¤µ
Ġà¤ħà¤ª à¤¨à¥ĩ
Ġà¦¬ à§įà¦°
Ġà¦ħ à¦Ĥà¦¶
Ġà®µ à®¨à¯įà®¤
Ġà®īà®³à¯įà®³ à®¤à¯ģ.
( p
- in
4 )
Cl ass
I I
R ow(
_ 1
a e
at her
b ox
c or
col s
e xt
if e
if ier
it or
l am
og n
p ose
qu are
ri er
ric t
se c
st ract
t ain
u ary
un ity
un k
v ari
} $$
à¥ģ à¤ª
à¥įà¤¤à¥įà¤° à¥Ģ
à¦¬ à§įà¦¦
à¦°à§įà¦ £
à¦°à§įà¦ Ĺ
à¦¾à¦ £
à¦Ľ à¦°
à®¤ à®±à¯įà®ķ
à®° à¯ĭ
à®¿à®© à®¾à®²à¯į
à®Ļà¯įà®ķ à®¿à®¯
Ġ }
Ġ201 0
Ġ:class:` DataFrame`
ĠA ug
ĠC he
ĠM on
ĠP re
Ġansw er
Ġc ustom
Ġcomm on
Ġd en
Ġh ig
Ġhe alth
Ġim pro
Ġl' A
Ġn om
Ġoper ator
Ġperform ance
Ġself. sql_ctx
Ġsever al
Ġsu cc
Ġvari able
Ġx :
Ġà¤ª à¤Ĥà¤ľà¤¾à¤¬
Ġà¤®à¤¾à¤¨ à¤µ
Ġà¤² à¥ĭà¤ķ
Ġà¤ķà¤¹ à¤¾
Ġà¤Ĺ à¤£
Ġà¦ ¡
Ġà¦¬à§ĥà¦¹ à¦¤à§įà¦¤à¦®
Ġà®ªà¯Ĩ à®°à¯ģà®®à¯įà®ª
Ġà®ªà¯Ĭ à®¤
Ġà®µà®°à®² à®¾à®±à¯įà®±
Ġà®ħ à®³à®µ
Ġà®ĩà®¤ à®©à¯į
Ġà®İà®©à¯įà®© à¯ģà®®à¯į
Ġà®ķà®Łà¯įà®Łà®¿à®Ł à®®à¯į
Ĥ ¬
( m
: 3
= 1
A R
A p
E M
H ow
a pe
abe led
at iv
che d
ft y
id ed
il ities
n n
od es
re en
u ff
à¤ªà¤¨à¤¿à¤·à¤¦ à¥į
à¤¸ à¥įà¤Ł
à¤¾à¤¨ à¥ĩ
à¤¾à¤ª à¥įà¤¤
à¤¿à¤¯ à¤¾à¤ģ
à¤Ń à¤Ĺ
à¥Ĥ à¤¨
à¦ª à§Ĥà¦°à§įà¦¬
à¦° à¦£
à¦¸ à¦®
à¦¾à¦ ģ
à¦¾à¦Ĥ à¦¶
à§ĩ ,
à®¿à®¯ à¯ĩ
à®¿à®± à¯įà®ķ
à®¿à®ķà® ´
à¯Īà® ŀ
à¯Īà®¯ à®¾à®³
Ġ$ f
ĠA d
ĠC ar
ĠF l
ĠJan uary
ĠP M
ĠR ep
ĠSch ool
ĠTh at
ĠUn iversity
Ġc and
Ġcate gor
Ġind ust
Ġj ob
Ġk ind
Ġle t
Ġlo ad
Ġp ast
Ġp redict
Ġph ot
Ġpos itive
Ġsch ool
Ġstud ent
Ġthe orem
Ġtr ying
Ġà¤¬ à¤¾à¤°
Ġà¤¯ à¥ģ
Ġà¤° à¤ĸ
Ġà¤µà¤¿à¤ ·
Ġà¤¹à¥ĭ à¤¨à¥ĩ
Ġà¦ªà§ĥà¦¥à¦¿à¦¬ à§Ģà¦°
Ġà¦¹ à¦²
Ġà¦ĩ à¦¤à¦¿à¦¹à¦¾à¦¸
Ġà®¤ à®¿à®Łà¯įà®Ł
Ġà®® à®°
Ġà®®à¯ģà® ©
Ġà®µ à¯Ĩà®³
Ġà®ĩà®ļ à¯Ī
2 00
4 8
9 .
9 8
A C
A I
I ter
W hen
ac ional
ag n
ar c
ar ning
are nt
enc ia
f o
ie ve
ig ma
ile d
iqu es
j oin
ly ,
m ber
ment .
ob j
oc ial
or g
p .
ys park.
Ã© ner
à¤¾à¤ Ł
à¤¿à¤ ¹
à¤Ĺ à¤¢à¤¼
à¥ «
à¥ĭ à¤Ł
à¦¨à§įà¦¤ à§įà¦°
à¦¿à¦ Ĥ
à§ §
à§ĭ à¦Ĺ
à®²à¯įà®² à¯Ĥà®°à¯į
à®¾à®¯ à¯į
à®¾à®ķà® ªà¯į
à®¿à®´ à®ķà¯įà®ķ
à®ĩ à®¨à¯įà®¤
à¯ģà® ķà¯įà®ķà®
à¯ģà®¤ à®¿à®¯
à¯ģà®¤ à¯į
à¯Īà® ª
Ġ1 ),
ĠA nt
ĠE d
ĠSt ate
ĠU s
Ġ\right )
Ġchar acter
Ġcor rect
Ġd f
Ġe ffect
Ġf low
Ġfamil ia
Ġfe el
Ġfre qu
Ġh o
Ġit erator
Ġl ight
Ġlang u
Ġle arn
Ġle ft
Ġp at
Ġpre m
Ġso ft
Ġsort ed
Ġt ax
Ġth ing
Ġto o
Ġv iew
Ġv ol
Ġwe ight
Ġz ero
Ġà¤¶ à¤¤
Ġà¤¸ à¤°
Ġà¦¸à¦® à¦¯à¦¼
Ġà¦ħà¦¸ à§įà¦Łà§įà¦°
Ġà¦Ĺ à¦ł
Ġà¦Ĺ à§įà¦°
Ġà¦ľà¦¨ à¦¸à¦Ĥà¦ĸà§įà¦¯
Ġà® ĵ
Ġà®ªà®¿à®° à®¤
Ġà®® à¯ģà®ķà¯įà®ķà®¿à®¯
Ġà®ĩà®² à®ķà¯įà®ķà®¿à®¯
Ġà®īà®²à®ķ à®¿à®©à¯į
Ġà®ķ à®¿à®°
' '
( rdd
, "
- y
. )
6 4
= 2
D E
L A
Y ou
alph a
ap s
ation :
b it
c )
de x
et ic
f ield
f l
ic ial
id ence
ig ure
imest amp
iv ing
le v
p o
pl an
ri e
ri end
se lect
us ed
w h
w w
}^{ 2}
ÃĹ C
à¤® à¤Ĥà¤¤à¥įà¤°
à¤°à¥įà¤ Ĺ
à¤ķà¥įà¤¤ à¤¿
à¥ģà¤ ľ
à¥įà¤µà¥Ģ à¤ª
à¦¥ à¦®
à¦ļ à§įà¦ļ
à§ ©
à§ ª
à®¾à®µ à®¤à¯ģ
ĠC al
ĠO ct
ĠSt ud
Ġac ross
Ġar t
Ġbet ter
Ġcomp any
Ġconver g
Ġd ict
Ġf ut
Ġfl u
Ġfun d
Ġg ra
Ġmem ory
Ġob serv
Ġor d
Ġp ued
Ġpl ant
Ġpr incip
Ġpro pos
Ġprovid ed
Ġrad i
Ġs em
Ġsim ilar
Ġt er
Ġwhe ther
Ġà¤¤ à¥ĭ
Ġà¤¦ à¥Ĥà¤¸
Ġà¤¨ à¤Ĺà¤°
Ġà¤¯à¥Ĥà¤° à¥ĭà¤ª
Ġà¤µà¤¿à¤ ľ
Ġà¤¸ à¤¾à¤¹à¤¿à¤¤à¥įà¤¯
Ġà¤ĩà¤¸ à¥ĩ
Ġà¤ķà¤¿à¤¯à¤¾ à¥¤
Ġà¦¬ à¦Ľà¦°
Ġà¦¶ à¦¬à§įà¦¦
Ġà¦¸ à§ģ
Ġà¦Ĩ à¦²
Ġà¦ı à¦¶
Ġà®¤ à¯ģà®±
Ġà®ª à®¾à®Ł
Ġà®µà®¿à® £
Ġà®ħà®® à¯Ģà®°
Ġà®ĩ à®±
$ -
' )
(self ):
0 )
F alse
Q u
S ize
[ Row(
ab or
am ma
b y
e. g.
ir t
it Ã©
iv ed
k s
m l
pr int
r at
t il
w ays
x im
} )
¤ à¯į
¸ à¯įà®¤
à¤¨ à¥ĭà¤Ĥ
à¤°à¥įà¤ ¶à¤¨
à¤¾à¤ ·à¥įà¤Łà¥įà¤°
à¤¿à¤ķ à¥įà¤·
à¤ķ à¥ĭ
à¦¿à¦· à§įà¦Ł
à§ĩà¦¯à¦¼ à§ĩ
à®¿à®® à¯ģ
à®ķà¯įà®ķà® ®à¯į
à¯Ģ à®Ł
à¯Īà® ªà¯įà®ªà®Ł
à¯Īà®¯ à¯ĩ
Ġ util
Ġ( E
Ġ( P
ĠEu rope
ĠG roup
ĠM e
ĠN ational
Ġ\left (x
Ġab s
Ġc ard
Ġch ange
Ġdoes n't
Ġgener ate
Ġinst ead
Ġrespon se
Ġreturn s
Ġspec ial
Ġt imes
Ġtrans form
Ġà¤¬ à¤Ĥà¤Ĺ
Ġà¤²à¤¿à¤ ĸ
Ġà¦ªà¦° à¦¿à¦ļ
Ġà¦ªà¦°à§įà¦¯à¦ ¨à§įà¦¤
Ġà¦¬ à¦°à§įà¦¤à¦®à¦¾à¦¨
Ġà¦¸ à¦°
Ġà¦¸ à¦¾à¦Ĺà¦°
Ġà¦¸à¦® à§įà¦ª
Ġà¦ħà¦¨ à§ģ
Ġà¦Ĩ à¦°
Ġà¦ĸ à§įà¦°
Ġà®® à®²
Ġà®ħà®´à¯Īà® ķà¯įà®ķà®ªà¯įà®ªà®Ł
Ġà®ĩà®° à®£à¯įà®Ł
Ġà®ķà®° à¯ģà®¤à¯įà®¤
Ġà®ļ à®¾à®°à¯įà®
ļ à¯įà®ļ
' :
( 0,
. S.
. à®Ĭ
.à®Ĭ .
6 8
I '
W hat
\ left(
\in fty
\right )$
ad em
amb i
ch o
et a
geb ra
ib rary
ore d
our n
ph i
ter s
u ple
w ord
y m
Ã ¢
à¤¬ à¤°
à¤¾à¤¦ à¥Ģ
à¤¾à¤¨ à¥Ģ
à¤Ĺ à¥ĭà¤²
à¦¬ à§ĩ
à¦¾à¦¨ à§ĩ
à¦¾à¦ķ à§ĩ
à¦¿à¦ ¦
à¦ŀ à§įà¦ľ
à§ĩà¦ ¸
à§įà¦ Ń
à®¯ à®¾à®´à¯įà®ªà¯įà®ªà®¾à®£
à®µ à¯ĩ
à®¾à®¤ à¯įà®¤
à®¾à®µ à®Łà¯įà®Ł
à®ļ à¯į
à¯ģà® ¨
à¯ģà® ©
à¯ĭ à®ķà¯įà®ķ
âĢ Ķ
ä »
Ġ2 2
ĠAs s
ĠC ont
ĠInd ia
ĠP r
Ġab ove
Ġacc ess
Ġap p
Ġap plic
Ġchild ren
Ġd ou
Ġde g
Ġfun c
Ġind ividual
Ġl arg
Ġl âĢĻ
Ġm ov
Ġne ver
Ġnote ::
Ġs in
Ġs ite
Ġs ource
Ġse quence
Ġself. _s
Ġsolution s
Ġsome one
Ġstud y
Ġà¤ ĳ
Ġà¤¨ à¤®
Ġà¤²à¤Ĺ à¤Ńà¤Ĺ
Ġà¤µà¤¾à¤² à¥ĩ
Ġà¤¶à¤¤ à¤¾à¤¬à¥įà¤¦
Ġà¤ħ à¤®
Ġà¤ħ à¤Ĥà¤Ĺ
Ġà¤ī à¤¤
Ġà¤ı à¤¶à¤¿à¤¯à¤¾
Ġà¤ľà¤¿à¤¸ à¤®à¥ĩà¤Ĥ
Ġà¦¨à¦¾à¦® à§ĩ
Ġà¦¬ à¦¸
Ġà¦ĸà§ĩà¦² à§ĭà¦¯à¦¼
Ġà¦ľ à¦¾à¦¤
Ġà® Ī
Ġà®¨ à®¾à®Łà¯įà®Ł
Ġà®ªà¯Ĩ à®¯à®°
Ġà®®à¯ģà®¤ à®²à¯į
Ġà®µ à®¾à®´
Ġà®ĩ à®£
Ġà®ķ à®¾à®£
Ġà®ķà®£ à¯įà®Ł
-------- --------
L et
S p
The re
W h
\ sqrt{
_ F
a ",
abeled Point
ac hed
as es
ch an
ect or
g roup
he s
i j
is ed
it ude
l er
le g
op y
or n
ord in
r b
ru ction
s ub
st it
t op
t ype
th ,
tic le
ver s
vir on
à¤ ĺ
à¤° à¤¾à¤¤
à¤¸ à¥įà¤¯
à¤¾à¤¨ à¤¾
à¤¾à¤¨ à¥įà¤¤
à¤¾à¤° à¤£
à¤ķ à¤¾à¤²
à¤ķ à¤¾à¤¶
à¤ļ à¥įà¤ļ
à¥ģ à¤®
à¦¨ à¦¾
à¦¯à¦¼ à¦¾
à¦¾à¦° à§įà¦ķ
à¦ķ à§ĥà¦¤
à¦Ĺ à§įà¦°
à§Ĥ à¦ª
à§ĩà¦ ®
à§ĩà¦¨ à§įà¦¦
à®¤ à®¿à®¯
à®ª à¯Ĭ
à®°à¯į ,
à®¿à®² à¯ģà®®à¯į,
à¯Ĩà®³ à®¿
à¯ĩà®¯ à¯ĩ
à¯įà® ¸à¯į
ĠC 3
ĠG e
ĠQ u
ĠR ow(
ĠS un
Ġam ount
Ġap pl
Ġass um
Ġb all
Ġcons um
Ġest e
Ġfe atures
Ġfil es
Ġform at
Ġit ems
Ġline ar
Ġp ay
Ġpol ic
Ġsign ific
Ġspe ed
Ġt ien
Ġà¤¦à¥ĩ à¤ĸ
Ġà¤¯à¤¹ à¤¾à¤ģ
Ġà¤°à¤¾à¤·à¥įà¤Łà¥įà¤° à¥Ģà¤¯
Ġà¤¸ à¤¹
Ġà¤¸ à¥Ģà¤®
Ġà¤¸à¤Ĥ à¤¯à¥ģà¤ķà¥įà¤¤
Ġà¤¸à¤Ĥà¤Ĺ à¥Ģà¤¤
Ġà¤ĩà¤¸ à¤ķà¥Ģ
Ġà¦ªà§įà¦° à¦§à¦¾à¦¨
Ġà¦ªà§įà¦° à¦¶
Ġà¦ı à¦ĸ
Ġà¦ĸà§ĩà¦²à§ĭà¦¯à¦¼ à¦¾à¦¡à¦¼
Ġà¦ľ à¦²
Ġà®ª à®©
Ġà®ª à®ķà¯ģà®¤
Ġà®® à¯ģà®Ł
Ġà®®à¯ĩ à®²
Ġà®ħà®® à¯Ĩà®°
Ġà®Ĩà®¯ à¯įà®µ
Ġà®ĩà®µ à¯įà®µ
Ġà®ļà¯Ĩà®¯ à¯įà®¯
( k
: return
D e
L '
Le vel
S S
c ast
che s
ci ence
d ate
en n
er os
g ers
i -
i pe
ic as
is k
it ect
ol a
part ial
re c
ript ion
sh ow
u el
ut es
µ à¯ģà®®à¯į
Âł Âł
Ã©ric a
à¤¤ à¤¿à¤ķ
à¤° à¤¬
à¤¸à¤Ĥ à¤ĸà¥įà¤¯à¤¾
à¤¿à¤ķ à¤¾
à¤Ĥ à¤¥
à¥ĩ à¤°
à¦° à§ĩ
à¦¾à¦ļ à§Ģà¦¨
à¦¿à¦Ł à¦¾à¦°
à®£ à¯įà®®
à®¨à¯įà®¤ à®¿à®°
à®® à®¾à®ķà¯ģà®®à¯į.
à®¿à®¯ à¯Ĥ
à¯ģà® ļà¯į
Ġ( M
Ġ0 ,
ĠIn te
ĠIn tern
ĠL abeledPoint
ĠM in
Ġ\ \
Ġ\ in
Ġact ually
Ġag uj
Ġal g
Ġap ply
Ġdesc rib
Ġg row
Ġh ard
Ġim p
Ġinvest ig
Ġm or
Ġm ove
Ġn ames
Ġp ubl
Ġpos ition
Ġse g
Ġself.sql_ctx )
Ġstr ong
Ġt ell
Ġtem per
Ġtime zone
Ġun ique
Ġà¤° à¤ļ
Ġà¤¹ à¤¿à¤Ĥ
Ġà¤¹à¤¿à¤¨à¥įà¤¦ à¥Ģ
Ġà¤ľà¤¿à¤¸ à¤ķà¤¾
Ġà¦¨ à¦¿à¦¯à¦¼à§ĩ
Ġà¦ªà§įà¦° à¦¥à¦®
Ġà¦¬ à§įà¦¯à¦¬
Ġà¦¬à¦¾à¦Ĥà¦² à¦¾
Ġà¦Ĩ à¦Ĺ
Ġà¦ķ à§įà¦·
Ġà¦Ľà¦¿à¦² à¥¤
Ġà®¨à®¾à®Ł à¯ģà®ķà®³
Ġà®ª à®¾à®°à¯įà®
Ġà®ª à¯ĩà®°
Ġà®ħà®µ à®±à¯įà®±
Ġà®ħà®Ł à®¿à®ªà¯įà®ªà®Ł
Ġà®ļà®¾à®°à¯įà® ¨à¯įà®¤
* *
. âĢĿ
1 +
3 )
3 5
6 )
: 2
A P
B ob
E E
O m
P ar
P h
S c
am ed
ambi Ã©n
art ment
at s
ation s,
b atch
cept ion
es erializer
et .
f ect
g en
il es
in ,
ion ,
ip s
ity ,
l ambda
le vel
le x
le y
lo at
o es
orage Level
ri ed
ri p
ric es
u le
x )
{align *
à¤°à¥įà¤ ·
à¤¾à¤¤ à¥įà¤°
à¤¾à¤Ĥà¤Ĺ à¥įà¤²
à¥ĩ à¤ĸ
à¥į âĢ
à¥įà¤¤ à¤°
à¦¨ à¦¿à¦¬à§ĩà¦¶
à¦¨ à§Ī
à¦° à¦¾
à¦°à§įà¦ ķ
à¦°à§įà¦¤ à§Ģ
à¦¾à¦¤ à§įà¦°
à¦¾à¦¥ à§ĩ
à§Ģ à¦¤
à®£ à¯įà®£
à®¤ à®¿à®°
à®Ĩ à®®à¯į
à¯ģà®± à¯įà®±
à¯Ĩ à®¯
à¯Ĩ à®Ł
ç ļ
çļ Ħ
Ġ il
Ġ19 8
Ġ2 )
Ġ2 7
ĠP ost
ĠS te
ĠThe se
ĠThe y
ĠValue Error("
Ġa Ã±
Ġbus iness
Ġc aus
Ġc ell
Ġc ourse
Ġcont rol
Ġd ate
Ġdo ing
ĠdÃ© part
Ġe valu
Ġexper ience
Ġg en
Ġg Ã©ner
Ġinclud es
Ġincre ase
Ġinte ger
Ġit em
Ġla w
Ġm ole
Ġmak es
Ġmat hemat
Ġn atur
Ġo t
Ġo u
Ġor gan
Ġpre c
Ġre se
Ġs pect
Ġself._j df.
Ġterm s
Ġv ia
Ġà¤« à¤¼
Ġà¤¬à¤¡à¤¼ à¤¾
Ġà¤¶à¤¤à¤¾à¤¬à¥įà¤¦ à¥Ģ
Ġà¤¹à¥ģà¤Ĩ à¥¤
Ġà¤ķà¤° à¤¤à¥ĩ
Ġà¤ľà¤¨ à¤¸à¤Ĥà¤ĸà¥įà¤¯à¤¾
Ġà¤ľà¤¨ à¥įà¤®
Ġà¦ĺ à¦Ł
Ġà§ ©
Ġà®ĩà®°à¯ģà® ¨à¯įà®¤à¯ģ
Ġà®İà®©à¯įà®ª à®¤
(d t
(it erator
. map
0, 000
7 6
: 0
: 4
D F
M L
O r
] ]
a Ã±
age .
ay ,
b ut
ber t
e q
end ed
est ions
g ant
ist em
j or
o ined
om m
one y
or ,
s [
s igma
u is
u y
un ch
ur a
v ing
v o
Ã ī
Ã© l
à¤ Ľ
à¤ Ŀ
à¤² à¥ĩ
à¤¸à¥įà¤¥ à¤¾à¤¨
à¤ķ à¤¿à¤¨
à¤ľ à¥įà¤ŀà¤¾à¤¨
à¥ ©
à¥Ģ à¤Ł
à¥ĥ à¤¥
à¦£ à§įà¦¡
à¦¨ à§ĩ
à¦¨à§Ī à¦¤à¦¿à¦ķ
à¦ª à¦°
à¦¾à¦ķ à¦¾
à¦ķ à§ĩà¦°
à¦ľ à¦¾à¦¤
à§¦à§¦ à§¦
à§įà¦¯à¦ ķ
à®© à®¾à®²à¯į
à®°à¯ģà® ķ
à®¾à® ľ
à®¾à®² à®¤à¯įà®¤à®¿à®²à¯į
à®¾à®ķà® °
à®¿à®¯ à®¿à®©à¯į
à¯Ģ à®ļ
à¯ģà®ķà¯įà®ķ à¯ģà®®à¯į
à¯Īà® ¨à®ķà®°
à¯ĭ à®°
Ġ$ X
Ġ200 8
ĠA M
ĠA P
ĠCh rist
ĠD ec
ĠMat hemat
ĠN um
ĠO ur
ĠR o
Ġab le
Ġact ual
Ġbuild ing
Ġc ertain
Ġcap t
Ġcl ose
Ġd ue
Ġex act
Ġf oc
Ġh alf
Ġh aving
Ġind ic
Ġl abel
Ġm ar
Ġmak ing
Ġp lease
Ġp retty
Ġp yspark.
Ġpap er
Ġre d
Ġre f
Ġs ide
Ġs k
Ġsa f
Ġst ep
Ġt able
Ġth ings
Ġwork ing
ĠÃ© t
Ġà¤¨à¤® à¤ĥ
Ġà¤ª à¤¾à¤°
Ġà¤¯ à¥ĭà¤Ĺ
Ġà¤µà¤¿à¤Ń à¤¿à¤¨à¥įà¤¨
Ġà¤¸ à¤¨
Ġà¤¸ à¤¿à¤Ĥ
Ġà¤ľ à¤¬
Ġà¤ľà¤¾à¤¨ à¥ĩ
Ġà¤ľà¥Ģà¤µ à¤¨
Ġà¦¸ à¦¾à¦¥à§ĩ
Ġà¦¸à¦¬ à¦ļ
Ġà¦ħà¦¨ à§ĩà¦ķ
Ġà¦Ĩ à¦¯à¦¼
Ġà®¨à®¿à®² à¯Īà®¯
Ġà®ª à®±à¯įà®±à®¿à®¯
Ġà®µ à®¿à®Ł
Ġà®ķ à®¿.
$$ ,
(x ,
) à¥¤
- \
- à¤ħ
-1 }
9 0
= 0.
B ut
D ata
I G
Om eg
Re placement
` .
at al
du ct
e fficient
e red
er ies
in ation
le ge
ma ke
omet ry
or te
ot h
ot s
ruct Type
s ample
tern al
u red
um b
v m.
ver ter
ÂłĠÂłĠ ÂłĠÂłĠ
à¤®à¤Ĥà¤¤à¥įà¤° à¥Ģ
à¤µ à¤¾à¤¨
à¤¾à¤µ à¥įà¤¯
à¤Ĥ à¤§
à¥ §
à¥ Ń
à¥įà¤ Ĺ
à¦¾à¦¸ à¦¨
à§ĩà¦ ¦
à§ĩà¦¨à§įà¦¦ à§įà¦°
à§įà¦¯ à¦¾à¦°
à§įà¦¯à¦¾à¦¨ à§įà¦Ł
à®© à¯Ī,
à®¾ ,
à®¾à®ķà®µ à¯ģà®®à¯į
à®¿à®¯ à®®à¯į
à®ķà¯įà®ķà® ¤à¯įà®¤
à¯Ī .
à¯Īà® ķà¯įà®ķà®ªà¯įà®ªà®Łà¯įà®Ł
Ġ ?
Ġ$ (
Ġ( e.g.
Ġ2 3
Ġ4 0
ĠB ob
ĠB y
ĠThe n
ĠU .S.
ĠW hen
Ġac cept
Ġanal y
Ġar ray
Ġb ase
Ġb ill
Ġcon n
Ġdep th
Ġeng ine
Ġequ ations
Ġequ ival
Ġex c
Ġf ive
Ġfamil y
Ġform ula
Ġh app
Ġinv ol
Ġl ove
Ġmem ber
Ġmom ent
Ġneed s
Ġpres erv
Ġproblem s
Ġproper ty
Ġs at
Ġsol ve
Ġsucc ess
Ġsy mbol
Ġtak en
Ġto ol
Ġtrain ing
Ġtyp es
Ġy _{
Ġà¤ Ŀ
Ġà¤® à¥Ĥà¤²
Ġà¤®à¤¾à¤¨ à¤¾
Ġà¤¸ à¤¦
Ġà¤¸ à¤¿à¤¦à¥įà¤§
Ġà¤ħ à¤¨à¥ĩ
Ġà¤ħà¤§à¥įà¤¯ à¤¯à¤¨
Ġà¤Ĩ à¤ľ
Ġà¤ĸ à¥ĩà¤²
Ġà¤Ĺ à¤ı
Ġà¦¤ à¦¬à§ĩ
Ġà¦¯ à¦¾à¦°
Ġà¦¯ à§ģà¦Ĺ
Ġà¦¶ à§ģà¦°à§ģ
Ġà¦¶à¦¤ à¦¾à¦¬à§įà¦¦
Ġà¦¸ à§Ģ
Ġà¦¸à¦¬à¦ļ à§ĩà¦¯à¦¼à§ĩ
Ġà¦Ĩ à¦¸
Ġà¦ľà¦¨ à§įà¦¯
Ġà® ²
Ġà®¨ à®¿à®ķà®´
Ġà®¨à®¿à®±à¯ģà®µ à®©
Ġà®ª à¯Ĥ
Ġà®µ à®¾à®©
Ġà®ĩà®° à®¾à®ķà®
Ļà¯įà® ķà®
( b
- 5
- B
5 %
: //
: 00
:return :
=u' Bob
S C
\frac{ \
_ c
_m emory
an ,
and s
ast ic
av id
func :`
ide o
ific ation
in ct
in itial
is on
ist ics
it er
it i
m es
m u
math rm
mathbb{ R
med i
n âĢĻt
ne y
omb re
r .
r as
ra k
re es
ry ,
s elf
t in
t z
ttp ://
ur al
ver se
} ]
Ã¡ ce
à¤¥ à¤®
à¤« à¤²
à¤° à¤²
à¤¹ à¤¾à¤°
à¤¾à¤¦ à¥įà¤µà¥Ģà¤ª
à¤¾à¤¯ à¤ķ
à¤Ĺ à¤£
à¤Ł à¤¨
à¥ ª
à¥Ģ à¤°
à¦¬ à¦°à§įà¦¤à§Ģ
à¦¸ à§įà¦ķ
à¦¿à¦ Ľ
à¦ķ à¦¾à¦²
à§ģà¦¦ à§įà¦§
à§ĥà¦¤ à¦¿à¦ķ
à§ĭ à¦¸
à§įà¦¬ à§Ģà¦ª
à®² à¯Ī
à®¾à® Ļà¯įà®ķ
à®¾à®Ł à®ķ
à®¿à®¯ à®©à¯į
à®ķà¯įà®ķ à¯ĭ
à®Ļà¯įà®ķà® ®à¯į
à¯ģà®® à®¾à®©
à¯ģà®ķ à®¿à®±
à¯Ĭ à®°à¯ģà®
à¯ĭ à®ª
à¯įà® ¨à¯įà®¤
à¯įà®Ł à¯į
Ġ ÂłĠ
Ġ Ã¡
Ġ Î
Ġ(2 00
Ġ+ =
ĠD ep
ĠH ar
ĠL os
ĠM ark
Ġa x
Ġacc ording
Ġadd ed
Ġass ign
Ġb ene
Ġbec ome
Ġbeh av
Ġcol lect
Ġd ays
Ġdist ance
Ġen viron
Ġest Ã¡
Ġexpect ed
Ġexpl ain
Ġf ix
Ġf riend
Ġfor ma
Ġh un
Ġin form
Ġm ic
Ġm ode
Ġof ten
Ġp ract
Ġpre vious
Ġpro p
Ġre ason
Ġreg ard
Ġro ck
Ġs ell
Ġse lect
Ġsh ort
Ġst re
Ġstyle ="
Ġtime .
Ġwho le
Ġà¤¦à¥ĩà¤¶ à¥ĭà¤Ĥ
Ġà¤ªà¤° à¤¿à¤µ
Ġà¤¬ à¤¾à¤Ĥà¤Ĺà¥įà¤²
Ġà¤¬à¤Ĥà¤Ĺ à¤¾à¤²
Ġà¤²à¥ĩ à¤ķà¤¿à¤¨
Ġà¤¶ à¤¿à¤ķà¥įà¤·
Ġà¤ħà¤¨à¥ĩ à¤ķ
Ġà¤ľà¤¾à¤¤ à¥Ģ
Ġà¦¦à§įà¦¬ à¦¾à¦°à¦¾
Ġà¦®à¦¾à¦¨ à§ģà¦·
Ġà¦ħ à¦Ń
Ġà¦Ĩà¦« à§įà¦°à¦¿à¦ķ
Ġà¦ķà¦° à§ĩà¦¨
Ġà®¨ à¯Ģ
Ġà®ªà¯Ĩ à®±
Ġà®® à®¾à®
Ġà®®à®ķà¯įà® ķà®³à¯į
Ġà®ĩà®² à®Ļà¯įà®ķ
Ġà®īà®³à¯įà®³ à®©.
(d ata
+ 1
++ ++
- st
2 4
D uration
E N
E X
] ).
ail s
ance ,
ar on
ari o
at ter
ator s
ator y
b on
ens ive
est ring
get her
h ow
ic os
id ate
ir m
j ava
l t
ly .
m and
name ,
rdd _d
sql .
st ron
t ime
ur b
ve ctor
y d
{align* }
} }{
Ã¨ s
à¤¸ à¤Ń
à¤¿à¤ ĸ
à¤¿à¤ Ń
à¤¿à¤ķ à¤¾à¤°
à¤¿à¤ľ à¥įà¤ŀà¤¾à¤¨
à¥Ģ à¤ļ
à¥ģà¤ľ à¤°à¤¾à¤¤
à¦¡à¦¼ à§ĩ
à¦ª à§ģ
à¦¾à¦§ à§Ģà¦¨
à¦¾à¦° à§įà¦¬
à¦¿ à¦°à§įà¦
à§Ģ à¦¬
à§ģà¦¦ à§įà¦°
à§įà¦¯à¦ ®
à®¤à¯įà®¤ à¯ģ
à®© à¯Ī
à¯ģà®¤à¯įà®¤ à¯ģ
à¯ĭ à®³
â Ĥ¬
Ġ$ 2
Ġ$ R
Ġ& =
Ġ2 |
Ġ4 .
ĠC ur
ĠI âĢĻ
ĠP e
ĠP res
ĠTr ans
Ġ\c dot
Ġarg ument
Ġbe gin
Ġc amp
Ġcl as
Ġco ordin
Ġcomp act
Ġcre ated
Ġd' A
Ġde mon
Ġde pend
Ġdis cus
Ġdoc ument
Ġen c
Ġespec ies
Ġflo at
Ġget ting
Ġh istor
Ġhe ight
Ġinde pendent
Ġint rodu
Ġinter view
Ġle g
Ġm ind
Ġma jor
Ġman ifold
Ġn ight
Ġro t
Ġs ave
Ġs ix
Ġs quare
Ġse ction
Ġse ems
Ġself.map Partitions
Ġth ird
Ġto gether
Ġwork s
Ġ{ \
Ġà¤ Ĭ
Ġà¤¤ à¥Ģà¤¨
Ġà¤¨à¥ĩ à¤ªà¤¾à¤²
Ġà¤ª à¥ĥà¤¥
Ġà¤ªà¥įà¤° à¤ķà¤¾à¤°
Ġà¤µà¤¿à¤ľ à¥įà¤ŀà¤¾à¤¨
Ġà¤¸à¥įà¤¥ à¤¾à¤ª
Ġà¤ħ à¤Ĥà¤¤
Ġà¤Ĩà¤§ à¤¾à¤°
Ġà¤ķ à¤µ
Ġà¤ķà¥ĩ à¤¨à¥įà¤¦à¥įà¤°
Ġà¤ļ à¥ģà¤¨
Ġà¤ľ à¤¾
Ġà¦ªà§įà¦° à¦¤à¦¿à¦
Ġà¦¬à¦¿à¦Ń à¦¿à¦¨à§įà¦¨
Ġà¦¯ à§ĩ
Ġà¦ħà¦¬à¦¸à§įà¦¥ à¦¿à¦¤à¥¤
Ġà®¤ à®°
Ġà®¤ à¯ĩà®µ
Ġà®ª à¯ģà®²
Ġà®ª à¯ģà®µ
Ġà®Ĩà®£à¯įà®Ł à¯ģà®ķà®³
Ġà®ī à®±
Ġà®ī à®Ł
Ġà®ķ à®¿à®´à®ķà¯įà®ķ
Ġà®ķ à®¿à®Ł
Ġà®ķ à¯Ģà®´
Ġà®ķà®Łà¯įà®Ł à®ªà¯įà®ªà®Łà¯įà®Ł
Ġà®ķà¯ģà®±à®¿à®ªà¯įà®ª à®¿à®Ł
Ġà®ļà¯Ĭ à®²à¯įà®²
- 0
- c
- de
- to
. p
1 7
7 0
C h
D ep
H ere
N ow
O n
S E
S o
S ub
\ c
_d at
ac iones
ag er
ampl ing
ap pend
art h
art s
ber g
ed eral
em pt
he st
id d
id th
iv ely
l ing
o ire
om ial
ook ing
pl es
pos ed
r ad
ru g
s el
show ()
us s
y cl
{ x
}{ 2}
¨ à®¿à®²
Ã §
à¤ª à¤°
à¤· à¥įà¤£
à¤¾à¤¦ à¥ĩà¤¶
à¤ĩ à¤¤à¤¿à¤¹à¤¾à¤¸
à¥ĥà¤¤ à¥įà¤¯
à¥ĥà¤·à¥įà¤Ł à¤¿
à¥ĩ à¥¤
à¥įà¤¯ à¤¤à¤¾
à¥įâĢ į
à¦¸ à§įà¦¤
à¦¾à¦¤ à§ĩ
à¦¾à¦¹ à§Ģ
à§Ĥ à¦°à§įà¦£
à§ĭ à¦°
à®°à¯ģà® ķà¯įà®ķ
à®°à¯įà®ķà®³ à®¿à®©à¯į
à®µ à®°à¯į
à®µà®° à¯įà®¤à¯įà®¤
à®¾à® ķà¯įà®ķà®
à®Ļà¯įà®ķ à®¿à®²
à®Ļà¯įà®ķ à¯ģ
à®Ļà¯įà®ķà®³à¯į ,
à¯Ĥ à®Łà®¿à®¯
à¯Ĭà®´ à¯ģà®¤
à¯ĭ à®¤à¯ģ
à¯ĭ à®Ł
Ġ$ a
Ġ201 1
ĠA dd
ĠAmer ican
ĠD es
ĠI l
ĠI nt
ĠI r
ĠK e
ĠM c
ĠN ot
ĠP er
ĠType Error("
Ġa way
Ġal ways
Ġb it
Ġc e
Ġc ual
Ġc ult
Ġcomp an
Ġconst ant
Ġd i
Ġd ig
Ġd one
Ġdiv is
ĠdÃ©part ement
Ġe conom
Ġelect ron
Ġest im
Ġet c.
Ġf a
Ġf ar
Ġfut ure
Ġh om
Ġh ours
Ġl ink
Ġl ower
Ġm ath
Ġmat erial
Ġmin imum
Ġn ational
Ġnorm al
Ġob tain
Ġp ays
Ġparam eter
Ġpol it
Ġprof ess
Ġre view
Ġrequ ire
Ġs plit
Ġs w
Ġt ambiÃ©n
Ġvari ables
Ġà¤¦ à¤¿à¤¨
Ġà¤¬ à¥ĭà¤²
Ġà¤® à¤²
Ġà¤¯ à¥ĩ
Ġà¤µà¤¾à¤² à¥Ģ
Ġà¤¸ à¤°à¥įà¤µ
Ġà¤¹à¥ĭ à¤¤à¥ĩ
Ġà¤īà¤¨ à¤ķà¥ĩ
Ġà¤Ĺà¥įà¤° à¤Ĥà¤¥
Ġà¦¬ à§įà¦¯
Ġà¦¬à¦¿à¦ ļ
Ġà¦®à¦¹à¦¾à¦¸à¦¾à¦Ĺà¦° à§ĩà¦°
Ġà¦¸à¦° à¦ķà¦¾à¦°
Ġà¦¸à¦¾à¦² à§ĩà¦°
Ġà¦¸à¦¾à¦¹ à¦¿à¦¤
Ġà¦ħà¦¬à¦¸à§įà¦¥ à¦¿à¦¤
Ġà¦ħà¦¸à§įà¦Łà§įà¦° à§ĩà¦²
Ġà®¤ à¯Ģ
Ġà®¤à®®à®¿à®´ à¯į
Ġà®ªà¯Ĭ à®±
Ġà®® à®¾à®µà®Łà¯įà®Ł
Ġà®ħà®¤ à®¿à®ķ
Ġà®ħà®®à¯Ĩà®° à®¿à®ķà¯įà®ķ
Ġà®ĩ à®ķà¯į
Ġà®Ĳ à®ķà¯įà®ķà®¿à®¯
( z
2 8
A L
Post ed
R eg
\b egin
_ ver
ak er
arg in
b egin
cur ity
d .
d oc
d t
i Ã³
if orm
if t
ist ance
iv ity
iÃ¨ re
l ib
l ist
mathrm {
mer g
num Partitions
o z
ran ge
red it
ri eg
s ure
ur ther
y _{
Ã© c
Ã© es
à¤¤ à¤¾à¤ĵà¤Ĥ
à¤² à¥įà¤²
à¤µ à¥įà¤¯
à¤¸ à¤®
à¤¸à¥įà¤¥ à¤¾
à¥Ģ à¤ª
à¥ģà¤¨ à¤¿à¤¯à¤¾
à¥ĭ à¤¡à¤¼
à¥ĭ à¤¹
à¥įà¤¯ à¥Ĥ
à¦¦ à§įà¦§
à¦¾à¦ Ń
à¦¿à¦¯à¦¼ à¦¾à¦¨
à¦¿à¦Ľ à§ģ
à§įà¦ ¸
à®²à¯įà® ķà®³
à®µ à®¤à¯ģ
à®¾à®² à¯ģà®®à¯į,
à®¾à®ķà® ¤à¯į
à®¾à®Ł à¯ģà®ķà®³à¯į
à®¿à® ªà¯į
à®¿à® ķà¯įà®ķà®ªà¯įà®ªà®Ł
à®¿à®¯à®²à¯į ,
à®¿à®ķà®³ à¯Ī
à®ķà¯įà®ķà®° à®µà®°à¯įà®¤à¯įà®¤
à¯ģà®Ļà¯įà®ķ à¯ģ
à¯Ĩ à®±à¯įà®±
à¯įà® ¸
Ġ row
Ġ$ x
Ġ( c
Ġ( s
Ġ10 .
Ġ18 9
Ġ5 ,
ĠE IP
ĠO b
ĠO ne
ĠS pec
ĠW ith
Ġ\ times
Ġa ction
Ġal ong
Ġar ch
Ġc ou
Ġclaim s
Ġcolumn s
Ġcon ve
Ġconver t
Ġd ia
Ġde ux
Ġdid n't
Ġem ploy
Ġg ives
Ġg rieg
Ġgener ated
Ġgo vern
Ġide a
Ġis ,
Ġl ik
Ġm ain
Ġmat ter
Ġme chan
Ġmus ic
Ġn ode
Ġnew s
Ġoff ers
Ġper cent
Ġpr ice
Ġpr int
Ġpro ve
Ġpropert ies
Ġprovid es
Ġquant um
Ġrat io
Ġre ct
Ġs ound
Ġse c
Ġse en
Ġsub set
Ġsy m
Ġt alk
Ġt ree
Ġt uple
Ġto ward
Ġtop ic
Ġus er
Ġwr ong
ĠÃ ī
Ġà¤¤ à¤°
Ġà¤¨ à¤¿à¤¯
Ġà¤®à¤¨ à¥ĭà¤µ
Ġà¤®à¥ĩà¤Ĥ ,
Ġà¤²à¥ĭà¤Ĺ à¥ĭà¤Ĥ
Ġà¤µà¤°à¥įà¤ Ĺ
Ġà¤¹ à¤°
Ġà¤¹à¤¿à¤Ĥ à¤¦
Ġà¤ħà¤² à¤Ĺ
Ġà¤ĵ à¤°
Ġà¤ķ à¤²à¤¾
Ġà¤ķà¤° à¤¤à¤¾
Ġà¤Ĺ à¤Ĥà¤Ĺ
Ġà¦® à§ĭà¦Ł
Ġà¦°à¦¯à¦¼ à§ĩà¦Ľà§ĩà¥¤
Ġà¦¹à¦¯à¦¼ à§ĩ
Ġà¦Ĩà¦¯à¦¼ à¦¤
Ġà® ¸
Ġà®¤ à®ª
Ġà®¤à®² à¯Īà®¨à®ķà®°
Ġà®¤à¯Ĭà®´ à®¿à®²
Ġà®¨ à®¿à®°
Ġà®ªà¯Ĩ à®°à®¿à®¯
Ġà®® à®¾à®±à¯įà®±
Ġà®µà®³ à®°
Ġà®ī à®¯
Ġà®ķà¯Ĭ à®Ł
Ġà®ļ à¯ģà®±à¯įà®±
3 7
3 8
=u' Alice
Col umn
E D
I C
Omeg a
\sqrt{ 1+
a ',
ac ed
age ,
age =
as c
c il
d frac{
ed uce
f ort
f rak
feren ces
fic ult
for d
id s
in ter
is ing
it es
j as
lo od
math frak
n o
or gan
or ial
pres s
pro x
rdd_d eserializer
ro ll
up port
us h
yn am
z a
z e
Ã¡ tic
Ã© r
ÃŃ cul
à¤¦ à¥įà¤¯
à¤¨ à¥Ģà¤¤
à¤¨ à¥įà¤¤
à¤ªà¤¨ à¥Ģ
à¤°à¥įà¤ Ń
à¤¸à¥įà¤¥ à¤¿à¤¤
à¤¾à¤¤à¥įà¤® à¤ķ
à¤¾à¤° à¤ĸ
à¤¾à¤ľ à¥įà¤¯
à¤ķ à¥ĭà¤Ĥ
à¥ģ à¤ķ
à¥ĩ à¤¨
à¥ĩ à¤µ
à¥ĭ à¤ªà¤¨à¤¿à¤·à¤¦à¥į
à¦¤ à§įà¦°
à¦¨ à§ĭ
à¦¨ à§įà¦¨
à§ĭ à¦®
à§įà¦ ŀ
à§įà¦°à¦¿à¦ķ à§ĩà¦Ł
à® ¹
à®¤ à®¿
à®¤à¯įà®¤ à®¿à®¯
à®¤à¯įà®¤ à¯ģà®ķà¯įà®ķà¯ģ
à®¾à®³ à¯į
à®¿à® £
à®¿à®¯ à®¾à®ķ
à®ķà® Łà¯įà®Łà®¿à®Ł
à¯Ĥ à®Ł
à¯Ĭ à®©à¯įà®±
à¯Ĭ à®°à¯ģ
à¯įà®ļ à®¿
ä ¸
Ġ @
Ġ ir
Ġ( F
Ġ( x,
Ġ(2 01
Ġ3 .
Ġ5 00
Ġ8 0
ĠAb stract
ĠAug ust
ĠC ount
ĠF irst
ĠM a
ĠPh il
ĠRDD .
Ġa ch
Ġaddition al
Ġbre ak
Ġcan 't
Ġcomple t
Ġcomple te
Ġd est
Ġd rop
Ġd âĢĻ
Ġdiffere nce
Ġf igure
Ġf ood
Ġfil ter
Ġfr ont
Ġh ouse
Ġimpro ve
Ġinde x
Ġk m
Ġl ater
Ġm erg
Ġmat ch
Ġmem bers
Ġmethod s
Ġoff er
Ġopt im
Ġp as
Ġpart s
Ġperson al
Ġrec ogn
Ġrese arch
Ġresult ing
Ġst ory
Ġst ra
Ġt ant
Ġthere fore
Ġtime ,
Ġun til
Ġyou ng
Ġà¤¦ à¥ģà¤¨à¤¿à¤¯à¤¾
Ġà¤ªà¥įà¤° à¤¤à¤¿à¤
Ġà¤ªà¥įà¤° à¤¾à¤ªà¥įà¤¤
Ġà¤°à¤¹ à¤¾
Ġà¤°à¤¾à¤ ®
Ġà¤¶ à¤¾à¤®
Ġà¤¹ à¤¿à¤¸
Ġà¤ħ à¤°à¤¬
Ġà¤ħ à¤Ń
Ġà¤ħà¤Ĥà¤Ĺ à¥įà¤°à¥ĩ
Ġà¤īà¤¨ à¤ķà¤¾
Ġà¤Ńà¥Ĥ à¤®
Ġà¦¦ à¦¾à¦¬
Ġà¦¦à§ģ à¦ĩ
Ġà¦ªà§įà¦° à¦¾à¦ļà§Ģà¦¨
Ġà¦¬à¦¾à¦ ¹
Ġà¦® à§ģ
Ġà¦°à¦¯à¦¼ à§ĩà¦Ľà§ĩ
Ġà¦¸à§įà¦¬ à¦¾à¦§à§Ģà¦¨
Ġà¦ħà¦¨ à§įà¦¯à¦¤
Ġà¦ī à§İ
Ġà¦īà¦ª à¦¨à¦¿à¦¬à§ĩà¦¶
Ġà¦Ĺ à¦£
Ġà¦Ńà¦¾à¦· à¦¾à¦¯à¦¼
Ġà®¨ à®¾à®ķà®°
Ġà®ªà®¾à®°à¯įà® ķà¯įà®ķà®
Ġà®ħà®± à®¿à®¯
Ġà®ĩà®ļ à¯ģà®²
Ġà®İ à®²à¯įà®²
Ġà®ķ à®¾à®Ł
Ġà®ķà® ±
( col
) ;
+---- --
, \
- m
0. 0
4 }
6 6
8 5
: #
; "
= False
= True
A ll
AI L
I T
L E
L as
The ta
V al
V ector
\ theta
al .
ally ,
am a
anc ed
ann el
arg s
ate g
b all
b ur
back ground
background :#
c ome
che ma
cre ate
e e
en ,
esc ription
et erm
g l
g o
h ib
i ra
ib ility
ie f
l ight
le .
m as
ment ,
ne w
om at
ou d
p ,
ra ft
se ction
u it
um p
ust er
Ã¡ ct
à¤¬ à¤Ĥà¤§
à¤® à¤¹
à¤µ à¤°à¥Ģ
à¤¶à¤¾à¤¸ à¥įà¤¤à¥įà¤°
à¤¸ à¤¿à¤¦à¥įà¤§
à¤¾à¤° à¥ĭà¤Ĥ
à¤¿à¤Ĥ à¤Ĺ
à¥ °
à¥ĭ à¤ľ
à¥įà¤¹ à¥ĩà¤Ĥ
à¦ ħ
à¦¦ à§įà¦¬à§Ģà¦ª
à¦¨ à§Ģ
à¦ªà§ģ à¦ŀà§įà¦ľ
à¦² à§ĩà¦°
à¦¿à¦ķ à¦¾
à®¾à®Ł à¯ģ
à®¿à® ¸
à®¿à®² à¯ĩà®¯à¯ĩ
à®ķ à®¿à®®à¯ģ
à®ķà® ®
à®Ļà¯įà®ķà®³ à¯Ī
à¯ģà® ©à¯įà®©
à¯ģà® ¯
à¯ģà®µ à®¤à¯ģ
à¯ĩ à®±à¯ģ
à¯Īà®¯ à¯Ī
à¯Ĭ à®£à¯įà®Ł
à¯ĭ à®²
ð Ł
Ġ( I
Ġ2 8
ĠApr il
ĠAr t
ĠG ener
ĠP ar
ĠR eg
ĠS et
ĠS im
ĠU S
ĠW ork
Ġ\frac{ 1}{
Ġ_ make
Ġa ff
Ġaguj ero
Ġal tern
Ġappro ach
Ġassoci ated
Ġbas ic
Ġbu ck
Ġbu y
Ġcategor ical
Ġcom par
Ġcomm and
Ġconst it
Ġde part
Ġdemon str
Ġdes de
Ġes c
Ġevery thing
Ġexper iment
Ġf all
Ġf av
Ġfe ature
Ġh on
Ġi .
Ġm ess
Ġm oney
Ġmark et
Ġn ice
Ġo c
Ġor ient
Ġorig inal
Ġp al
Ġpart ial
Ġplant as
Ġs il
Ġsche ma
Ġtak es
Ġtemper ature
Ġto ok
Ġw ater
Ġyear .
Ġà¤¦ à¤°à¥įà¤¶à¤¨
Ġà¤ª à¤¡à¤¼
Ġà¤¬à¥įà¤° à¤¿à¤Ł
Ġà¤µà¤¿à¤ µ
Ġà¤µà¤¿à¤ķ à¤¾à¤¸
Ġà¤¶à¤¬à¥įà¤¦ à¥ĭà¤Ĥ
Ġà¤¶à¤¾à¤® à¤¿à¤²
Ġà¤¸à¤° à¤ķà¤¾à¤°
Ġà¤¸à¤ķ à¤¤à¤¾
Ġà¤Ĩ à¤¯
Ġà¤īà¤¨ à¤ķà¥Ģ
Ġà¤ļ à¤¿à¤¤à¥įà¤°
Ġà¤ļ à¥ģ
Ġà¤Ń à¤Ĺ
Ġà¦ ¯à¦
Ġà¦¤ à¦¾à¦¦à§ĩà¦°
Ġà¦¦à§įà¦¬à§Ģà¦ª à¦ªà§ģà¦ŀà§įà¦ľ
Ġà¦¨ à¦¿à¦°à§įà¦
Ġà¦ªà§įà¦° à¦¾à¦ķ
Ġà¦¬à¦¾à¦Ĥà¦²à¦¾à¦¦à§ĩà¦¶ à§ĩà¦°
Ġà¦¯ à§ģà¦ķà§įà¦¤
Ġà¦¸à§įà¦¥ à¦¾à¦¨
Ġà¦ħà¦§ à¦¿à¦ķ
Ġà¦ķ à¦¿à¦Ľà§ģ
Ġà¦Ń à¦¾à¦Ĺ
Ġà®¤à¯Ĩ à®©à¯įà®©
Ġà®ªà®¿à®©à¯įà®© à®°à¯į
Ġà®ªà®¿à®° à®¿à®µ
Ġà®ªà¯Ĭà®¤ à¯ģà®µ
Ġà®İ à®Ł
' ll
( ):
(d f.
, à§¦à§¦à§¦
- n
- p
- à¤ª
. _
. w
= j
C omb
Comb in
D is
I ON
L oc
M e
S erializer
W indow
\ end
\ gant
ad es
an e
an o
and as
ap pen
ard s
at tr
d x
er a
ess ion
et te
f it
f ix
id ing
ide red
if f
im port
ist er
ist ory
k in
l in
lo pe
m y
ol l
om in
omet ric
org /
r ite
ran k
re m
ri or
rid ge
ru ary
s "
stron om
sy mbol
t es
ut ed
v est
Î ±
à¤¤ à¤ĥ
à¤¨ à¥įà¤¥
à¤°à¥įà¤ ķ
à¤°à¥įà¤¤ à¤®à¤¾à¤¨
à¤µ à¥ĩ
à¤¸ à¥įà¤µ
à¤¸à¤Ń à¤¾
à¤¾à¤·à¥įà¤Łà¥įà¤° à¥Ģà¤¯
à¤¾à¤ķ à¥ĥà¤¤
à¤¿à¤ Ĺ
à¤Ĥ à¤ķ
à¤Ĥ à¤ļ
à¤Ń à¤¾à¤µ
à¥ģà¤ £
à¥Ī à¤Ĥà¤¡
à¦¤ à§įà¦¯
à¦¾à¦§ à§įà¦¯à¦®
à¦¾à¦¯à¦¼ à§Ģ
à¦¾à¦° à§ĩ
à¦¾à¦ĵ à¦¯à¦¼à¦¾
à¦¾à¦ķ à¦¿à¦¸à§įà¦¤à¦¾à¦¨
à¦Ń à¦¾à¦Ĺ
à§ ¯
à§Ģ à¦¤à§ĩ
à§ĩà¦ ª
à§ĩà¦ ľ
à§ĩà¦¨ à§įà¦Ł
à§įà¦¯ à¦¾à¦¯à¦¼
à® Ĵ
à®¨ à®¿à®²
à®¨à¯įà®¤ à¯ģ
à®®à¯į .
à®¾à® ¸à¯įà®¤
à®¿à®¤ à¯į
à®ķ à®¾à®²
à®Łà¯įà®Ł à®°à¯į
à¯ģà®ķà®³à¯į ,
à¯Īà® ļ
à¯įà®ļà¯įà®ļ à®¿
å ı
ï ¼
Ġ ),
Ġ Âł
Ġ( B
Ġ( and
Ġ( n
Ġ( or
Ġ19 5
Ġ2 9
Ġ3 2
Ġ5 |
ĠA .
ĠA ct
ĠCl ass
ĠD is
ĠF alse
ĠH igh
ĠJ ava
ĠJ une
ĠL as
ĠP art
ĠPh ys
ĠS a
ĠS cience
ĠS on
ĠSe pt
Ġ\ to
Ġ\left(x \right)
Ġag o
Ġaut hor
Ġc it
Ġch arg
Ġco efficient
Ġconn ect
Ġcontin u
Ġcorrespond ing
Ġd ent
Ġd raw
Ġde b
Ġf ail
Ġfoc us
Ġh our
Ġhab it
Ġiss ue
Ġl ate
Ġl lam
Ġmer ge
Ġmil it
Ġn ombre
Ġne cess
Ġpartition s
Ġpie ce
Ġpol ice
Ġqu estions
Ġrecent ly
Ġrepres ents
Ġsh are
Ġsim ply
Ġsl ide
Ġstyle=" background:#
Ġto ld
Ġtr ou
Ġv iol
Ġval u
Ġvari ous
Ġve ces
Ġwr ite
Ġà¤¦ à¥Įà¤°
Ġà¤¬ à¤¨à¤¾
Ġà¤¶ à¥ģà¤°
Ġà¤¶à¤¿à¤ķà¥įà¤· à¤¾
Ġà¤¸ à¤¾à¤Ĺà¤°
Ġà¤īà¤¤ à¥įà¤ª
Ġà¤ķà¤¹ à¤¤à¥ĩ
Ġà¤ľà¤¾à¤¨ à¤¾
Ġà¦ªà¦° à§įà¦¬
Ġà¦¬ à¦°
Ġà¦® à¦¾à¦§à§įà¦¯à¦®
Ġà¦Ĩ à¦Ľ
Ġà¦ī à¦¦
Ġà¦ķ à¦¾à¦
Ġà§ ª
Ġà§§à§ ®
Ġà® Ĭ
Ġà®ª à¯ģà®³à¯įà®³
Ġà®ªà¯Ĭà®°à¯ģà® Ł
Ġà®® à®Łà¯įà®Ł
Ġà®®à¯ģà® ´
Ġà®µ à®¿à®°
Ġà®µà®° à¯Ī
Ġà®ĩ à®©
Ġà®ĩà®¤ à¯ģà®µ
Ġà®ĩà®° à®¾à®ļ
Ġà®ĩà®ļà¯ģà®² à®¾à®®à¯į
Ġà®īà®¯à®° à®®à®¾à®©
Ġà®İà®´ à¯ģà®¤
Ġà®Ĵ à®´
Ġà®ķà®¾à®² à®¤à¯įà®¤à®¿à®²à¯į
Ġà®ķà®Łà¯įà®Łà®¿à®Ł à®Ļà¯įà®ķà®³à¯į
Ġà®ļ à¯ģà®°
' )]
- à¤Ĩ
3 2
5 00
@ param
C C
N ote
\ \
\ r
a i
a ul
a ux
able ,
ace ae
as ing
ast a
ation s.
b ",
cc dd
ccdd ff
ccddff ;"
ch ild
el le
ent ion
igh b
il t
in a,
it te
ition .
l im
l ish
l u
m ore
min ist
ol es
old symbol
olog ical
olog ÃŃa
pre c
re place
re qu
s ?
se q
se quence
te x
ut ive
ve c
ven ue
w ar
}$ .
à¤¤ à¤¨
à¤¦ à¤¾à¤¨
à¤ªà¥Ĥ à¤°à¥įà¤£
à¤° à¥įà¤¯
à¤µ à¤¿à¤¦
à¤¾à¤® à¤¿
à¤¾à¤Ĥà¤Ĺ à¥įà¤°à¥ĩ
à¤¿ ,
à¤¿à¤¸ à¥Ģ
à¤ķà¤° à¤£
à¤ľà¥įà¤ŀà¤¾à¤¨ à¤¿à¤ķ
à¤Ńà¤¾à¤°à¤¤ à¥Ģà¤¯
à¥ ®
à¥ Ĳ
à¥ģà¤ ¡à¤¼
à¥įà¤Ł à¥Ģ
à¦¶ à¦¾à¦¹à§Ģ
à¦· à§įà¦ł
à¦¾à¦ľ à¦¾à¦°
à¦¿à¦¯à¦¼à¦¾ ,
à¦¿à¦¸ à§įà¦Ł
à®¤à¯įà®¤ à¯ģà®ķà¯įà®ķ
à®°à¯įà® ®
à®± à¯ģà®ª
à®¿à® ¨
à®¿à®¤à¯įà®¤ à¯ģà®µ
à®¿à®© à¯ģà®®à¯į,
à®¿à®ªà¯įà®ª à¯ģ
à®¿à®Ł à®ªà¯įà®ªà®Łà¯įà®Ł
à®¿à®Ł à®®à¯į
à®Łà¯įà®Ł à¯ģ
à¯ģà®ķà®³ à¯Ī
à¯ĭ à®©
à¯įà®ļ à®¾à®°
â ĭ
â Ķ
âĭ Ĭ
âĭĬ S
Ġ ill
Ġ$ 1
Ġ' 12
Ġ( U
ĠA c
ĠA ut
ĠCh apter
ĠEurope an
ĠHow ever,
ĠN orth
ĠRep ublic
ĠS he
Ġ\ int
Ġa f
Ġacc ount
Ġar que
Ġbas estring
Ġbl ack
Ġco ol
Ġcom ing
Ġcomm unity
Ġcon c
Ġdef ined
Ġdif ficult
Ġdri ver
Ġeas ier
Ġel l
Ġequ ip
Ġequival ent
Ġf ederal
Ġf rame
Ġf ran
Ġfil m
Ġh appen
Ġh old
Ġim medi
Ġit âĢĻs
Ġk ,
Ġl and
Ġl ive
Ġmax imum
Ġmodel s
Ġneed ed
Ġp .
Ġpack age
Ġphys ical
Ġpro port
Ġpro te
Ġpur ch
Ġrece ived
Ġs ent
Ġs istem
Ġs ocial
Ġsa w
Ġshow n
Ġsignific ant
Ġsim pl
Ġsp aces
Ġstyle="background:# ccddff;"
Ġtr y
Ġy et
Ġà¤¦ à¤¿à¤²
Ġà¤¦à¥ĭ à¤¨à¥ĭà¤Ĥ
Ġà¤¦à¥Įà¤° à¤¾à¤¨
Ġà¤ª à¤°à¥įà¤µ
Ġà¤ªà¥ĥà¤¥ à¥įà¤µà¥Ģ
Ġà¤ªà¥įà¤°à¤§à¤¾à¤¨ à¤®à¤Ĥà¤¤à¥įà¤°à¥Ģ
Ġà¤¬ à¥Ģà¤ļ
Ġà¤°à¤¾à¤ľà¥įà¤¯ à¥ĭà¤Ĥ
Ġà¤¸à¤® à¤Ŀ
Ġà¤¸à¤Ĥ à¤¸
Ġà¤¹à¥ĭ à¤¤à¥Ģ
Ġà¤ħ à¤ķ
Ġà¤Ĩ à¤¬
Ġà¤ī à¤ªà¤¨à¤¿à¤·à¤¦
Ġà¤īà¤¸ à¤ķà¥ĩ
Ġà¤ķ à¤¾à¤Ĥà¤Ĺà¥įà¤°à¥ĩ
Ġà¤ķà¥ĭ à¤Ī
Ġà¤Ĺà¤Ĥà¤Ĺ à¤¾
Ġà¤ļ à¤²
Ġà¤ļ à¥Ģà¤¨
Ġà¤ļà¥ģà¤¨ à¤¾à¤µ
Ġà¦ ¢
Ġà¦¨ à¦¿à¦¯à¦¼
Ġà¦ªà¦°à¦¿à¦ļ à¦¿à¦¤
Ġà¦¬à§įà¦¯à¦¬ à¦¹
Ġà¦¸à§Ģ à¦®à¦¾à¦¨
Ġà¦ħà¦¨à§įà¦¯à¦¤ à¦®
Ġà¦ı à¦¸
Ġà¦ķ à§įà¦°à¦¿à¦ķà§ĩà¦Ł
Ġà¦ĸà§ĩà¦² à¦¾
Ġà¦Ńà¦¾à¦· à¦¾
Ġà®¨ à¯ĭ
Ġà®ª à®¿à®±
Ġà®ª à¯ĩà®ļ
Ġà®ªà®° à®¿à®ļ
Ġà®ªà¯ĩà®° à®°à®ļ
Ġà®® à®¿à®ķ
Ġà®®à®ķà¯įà® ķà®³
Ġà®®à¯Ĭà®´ à®¿à®ķà®³
Ġà®Ĩà®° à®®à¯įà®ª
Ġà®ĩ à®²à¯įà®²
Ġà®ī à®£
Ġà®ķà® ¤
Ġà®ķà¯Ĭà®£à¯įà®Ł à¯ģ
Ġà®ļ à®ķà¯įà®ķà®°à®µà®°à¯įà®¤à¯įà®¤
Ġà®ļà¯ĩ à®°à¯įà®¨à¯įà®¤
ĠâĢ ¦
" :
""" Returns
)$ ,
+ \
- of
-y ear
. ,
1 :
1 ]
2 01
4 4
5 )
9 5
= \frac{
Con text
F ield
M an
N ew
P ython
Partition s,
R E
R educe
Th at
Type (
Val ues
^ n
_ im
_ k
_ path
_{ n
a -
ad ata
ad or
an a
ar ante
ar ray
arg et
arl ier
b ',
cho ose
d -
e atures
ed s
el ine
end o
ers ist
et ers
h t
id os
ie ,
im b
in os
is ,
iz ing
j df
ly ing
m ission
mer ge
ol ve
om p
omet imes
os s
oun cil
path .
pl ies
r ant
ra q
re w
resh old
ri es
ri que
s ort
th ough
ur ation,
à¤¤ à¤®
à¤¤ à¤°
à¤§ à¥Ģ
à¤ªà¥Ĥ à¤°à¥įà¤µ
à¤µ à¤¾
à¤µ à¤¾à¤¦
à¤µ à¥Ģ
à¤¾à¤² à¥Ģ
à¤¾à¤ģ à¤ļ
à¥įà¤ ł
à¦ ¡
à¦¸ à¦²
à¦¿à¦¤ à§įà¦°
à¦¿à¦¨ à§įà¦¦
à¦Ń à§Ĥ
à§Ĥ à¦¹
à§ĩà¦Ľà¦¿à¦² à¥¤
à§įà¦° à¦¾à¦ľ
à® Ĳ
à®¨ à¯įà®¨
à®® à¯įà®®
à®µà®° à®²
à®¾à®© à¯įà®ķ
à®¾à®° à®£
à®¾à®²à¯į ,
à®¿à®©à¯įà®± à®©.
à®¿à®ķà® °
à®¿à®ķà¯įà®ķ à¯ģà®®à¯į
à®ķ à¯Ī
à®ķà® ²
à¯ Į
à¯ģà®¨ à®¾à®Łà®ķ
à¯ģà®ķà¯įà® ķà®³
Ġ$ G
Ġ( i.
Ġ0 :
Ġ201 4
Ġ3 5
Ġ6 0
ĠB o
ĠB r
ĠC {
ĠCom p
ĠD ate
ĠEng ine
ĠFeb ruary
ĠH ere
ĠLabeledPoint (
ĠM odel
ĠM ore
ĠN etwork
ĠN ow
ĠS park
ĠSu per
ĠTh anks
ĠTrue )
Ġ\ choose
Ġag g
Ġal t
Ġb r
Ġb ring
Ġc ame
Ġc iv
Ġc ub
Ġcent ral
Ġclass es
Ġcle ar
Ġcom es
Ġcont ent
Ġcount ry
Ġd os
Ġd r
Ġdata ,
Ġdes ar
Ġdeterm ine
Ġdevelop ment
Ġdire ction
Ġfact or
Ġhere .
Ġhig her
Ġhow ever,
Ġi. e.
Ġinte gers
Ġm iss
Ġm ult
Ġmanag ement
Ġmay or
Ġnull |
Ġp an
Ġpair s
Ġpl ot
Ġqu ite
Ġrel ations
Ġrel ative
Ġse arch
Ġse curity
Ġself. ctx
Ġsol id
Ġst aff
Ġt imestamp
Ġt ip
Ġth read
Ġthough t
Ġtr ack
Ġvis ual
Ġw ar
Ġw ent
Ġà¤¨ à¤¦à¥Ģ
Ġà¤ª à¥ģ
Ġà¤ªà¤° à¤®
Ġà¤¬à¤¾à¤Ĥà¤Ĺà¥įà¤² à¤¾à¤¦à¥ĩà¤¶
Ġà¤°à¤¾à¤ľ à¤¸à¥įà¤¥à¤¾à¤¨
Ġà¤² à¤¿à¤¯à¤¾
Ġà¤µà¤¿à¤¶ à¥ĩà¤·
Ġà¤µà¤¿à¤Ń à¤¾à¤ľ
Ġà¤¶à¤¾à¤¸ à¥įà¤¤à¥įà¤°
Ġà¤¸à¤¦ à¤¸à¥įà¤¯
Ġà¤¸à¤® à¥įà¤¬
Ġà¤¸à¤Ĥ à¤ĺ
Ġà¤¸à¤Ń à¥Ģ
Ġà¤¸à¥Ģà¤® à¤¾
Ġà¤ħ à¤ªà¤¨à¥Ģ
Ġà¤ħà¤¨ à¥ģ
Ġà¤Ĩ à¤µ
Ġà¤ĩà¤¸ à¥Ģ
Ġà¤ķà¤¾à¤Ĥà¤Ĺà¥įà¤°à¥ĩ à¤¸
Ġà¤Ĺ à¤ł
Ġà¤Ĺ à¥Ģà¤¤
Ġà¤Ĺ à¥ģà¤ľà¤°à¤¾à¤¤
Ġà¤Ń à¥Į
Ġà¤Ńà¤¾à¤· à¤¾à¤ĵà¤Ĥ
Ġà¥¨ à¥¦
Ġà¦¦ à§ĩà¦ĸ
Ġà¦¬ à§Ī
Ġà¦¬à§ĩà¦¶ à¦¿
Ġà¦® à¦¾à¦²
Ġà¦¸à§įà¦¥ à¦¾à¦ª
Ġà¦īà¦ª à¦ķ
Ġà¦ı à¦²
Ġà¦ķ à¦²
Ġà¦ķà¦° à§ĩà¦¨à¥¤
Ġà§ §
Ġà§¨ à§¦
Ġà®¤ à®±à¯įà®ª
Ġà®¤ à®¿à®±
Ġà®¤ à¯ģà®£
Ġà®¤à¯ĭ à®©à¯įà®±
Ġà®¨à®¾à®Ł à¯ģà®ķà®³à¯į
Ġà®µ à®°à¯ģà®ķ
Ġà®µà®°à®² à®¾à®±à¯ģ
Ġà®İà®©à¯įà®± à¯ģà®®à¯į
Ġà®ķà¯ĭ à®²à®®à¯į
Ġà®ķà¯ĭà®¯ à®¿à®²
Ġà®ļ à¯ĭ
ĥ à®ª
(d f
(f unc
(self._j df.
- h
.. ..
01 1
2 }$
A ,
B C
C E
G iven
In dex
M ax
P r
S D
St ring
\ ,
\ }
^ 0
a ur
ab a
ac her
ag ing
anc ial
arrow _type
at t
c ing
c ular
cl ose
doc ument
e ction
em p
end s
er ical
ering ue
et ime
f ol
h aps
he ight
i ers
ic s,
le ,
m ing
ma il
now n
o ff
ob al
oc ol
ord er
our ces
ove mber
port s
pt ion
r andom
r ho
ra b
rit ical
s u
st em
u f
used _memory
{ b
Ã ª
Ã ´
à ª
à¤¤ à¥įà¤®
à¤¤ à¥įà¤µ
à¤¤à¥įà¤¤ à¥Ģà¤¸
à¤¦ à¤¾à¤¸
à¤¦ à¤¿à¤ķ
à¤® à¥ģ
à¤¯ à¤¾à¤®à¤¿
à¤µ à¤¾à¤°
à¤¹ à¥įà¤®
à¤¿à¤¹ à¤¾à¤°
à¤¿à¤Ń à¤¾à¤·
à¤Ĺ à¤¾à¤¨
à¤ľ à¥įà¤ŀ
à¥ĩ à¤ķ
à¥įà¤¯ à¤¾à¤²à¤¯
à¦¨ à¥¤
à¦® à¦¨
à¦¿à¦ ĸ
à¦¿à¦ Ĺ
à¦¿à¦² à§ĭà¦®
à¦¿à¦²à§ĭà¦® à¦¿à¦Łà¦¾à¦°
à§ĩà¦¨ à¦¿à¦¸
à§Į à¦°
à§įà¦¯à¦¾à¦¨ à§įà¦¡
à§įà¦¯à¦¾à¦¨ à§įà¦¯
à®¨ à®²à¯įà®²à¯Ĥà®°à¯į
à®ª à¯ģ
à®® à¯Ĭà®´
à®¾à® ªà¯įà®ª
à®¾à®ķ ,
à®¾à®ļ à¯įà®ļà®¾à®°
à®¿à®¯ à®¤
à®ķà® £
à®ķà¯įà®ķà® £
à¯ģà® ¨à¯įà®¤
à¯ģà®¤ à®²
à¯ģà®® à¯ĩ
à¯Īà® ķ
à¯Ĭ à®Ł
à¯įà®ļ à¯įà®ļà®¿à®¯
âĢĻ re
Ġ !
Ġ( in
Ġ1 2,
Ġ1. 0
Ġ2 ),
Ġ2 6
Ġ200 6
Ġ4 00
Ġ8 ,
Ġ: =
Ġ: func:`
ĠA g
ĠA re
ĠC o
ĠD iv
ĠH el
ĠI raq
ĠI' ve
ĠIn stit
ĠM ath
ĠM ic
ĠN a
ĠN ovember
ĠO pen
ĠO ther
ĠR el
ĠS ur
ĠV al
ĠY ork
Ġa ir
Ġa vec
Ġadd ress
Ġal .
Ġam ong
Ġar ticle
Ġass ess
Ġb lood
Ġbl ock
Ġbu ilt
Ġc ity
Ġc os
Ġcap ital
Ġche m
Ġcol l
Ġcomp os
Ġcomp ute
Ġcon cept
Ġcons idered
Ġcons ist
Ġconst ruct
Ġcont act
Ġed uc
Ġest a
Ġex cl
Ġf ire
Ġf oot
Ġfunction .
Ġh asta
Ġins ur
Ġl ines
Ġlong er
Ġlos s
Ġmill ion
Ġmin utes
Ġn acional
Ġn odes
Ġname ,
Ġno vel
Ġo dd
Ġo s.
Ġoff icial
Ġp ob
Ġpa ÃŃs
Ġpop ulation
Ġpot ential
Ġpro t
Ġpued e
Ġs ampling
Ġs ens
Ġs i
Ġs ou
Ġse em
Ġsoft ware
Ġstra ight
Ġstruct ure
Ġsu gg
Ġsy nt
Ġt im
Ġt ou
Ġt reat
Ġter rit
Ġtien e
Ġtr ade
Ġà¤¥à¥ĩ ,
Ġà¤ªà¥įà¤° à¤¥à¤®
Ġà¤ªà¥įà¤° à¤¯
Ġà¤¬à¥įà¤°à¤¿à¤Ł à¤¿à¤¶
Ġà¤¯à¥ģ à¤¦à¥įà¤§
Ġà¤µà¤¿à¤ §
Ġà¤µà¤¿à¤ ¨
Ġà¤µà¥įà¤¯à¤µ à¤¹à¤¾à¤°
Ġà¤¶à¤¾à¤¸ à¤¨
Ġà¤¸à¤® à¥įà¤®
Ġà¤ķ à¤¿à¤¸à¥Ģ
Ġà¤ķà¥įà¤·à¥ĩà¤¤à¥įà¤° à¤«à¤²
Ġà¤ļ à¤¾à¤°
Ġà¤ľ à¤¼
Ġà¤ľ à¥įà¤¯
Ġà¤ľà¤¿à¤¸ à¥ĩ
Ġà¤Ńà¤Ĺ à¤µà¤¾à¤¨
Ġà¦¥à¦¾à¦ķ à§ĩà¥¤
Ġà¦ªà§įà¦°à¦¶ à¦¾à¦¨à§įà¦¤
Ġà¦® à¦¾à¦
Ġà¦® à§Ĥà¦²
Ġà¦¯à¦¾à¦¯à¦¼ à¥¤
Ġà¦°à¦¾à¦ľ à¦§à¦¾à¦¨
Ġà¦¹ à¦¤à§ĩ
Ġà¦Ĩ à¦¨à§įà¦¤
Ġà¦ķ à¦¾à¦°à¦£
Ġà¦ľ à§Ģà¦¬
Ġà§ ¬
Ġà§ Ń
Ġà®¨à¯Ĥ à®²à¯įà®ķà®³à¯į
Ġà®ªà®´ à¯Īà®¯
Ġà®ªà¯Ĩ à®°à¯ģà®
Ġà®ªà¯Ĩ à®°à¯ģà®®
Ġà®ħà®¤ à®©à¯į
Ġà®ħà®®à¯Īà®¨à¯įà®¤ à¯ģà®³à¯įà®³à®¤à¯ģ.
Ġà®Ĩ à®¤
Ġà®īà®°à¯ģà®µ à®¾à®ķà¯įà®ķ
Ġà®ļ à®¿à®
Ġà®ļ à¯Ģà®©
Ġà®ļà®® à®¯
$$ .
' est
' ve
( 2
( path
)) )
+--- +-----+
+---- ---
- 8
- S
1. 0,
6 3
A M
C an
C ode
Con verter
F A
I S
I s
I' m
Num ber
O U
R ight
St orageLevel
Type ()
^ p
^{ 2}
_l ocal
a ire
a Ã
ado op
am s
ar ing
ar rier
at ched
at ype
av en
c her
c ia
c iÃ³n
c ode
cc ording
col or
de red
df ,
em ploy
er y
f unction
fr ame
ge q
ic iÃ³n
ig a
ine ar
is f
it ch
iz es
j ed
math cal
n ,
o pe
oined :
ot a
oun ter
our t
ourn al
ruct Field
s er
s: //
se ud
st art
st ring
t ical
ter m
ttp s://
u er
ul as
ul es
us ion
with Replacement
y ield
{ n
Ã¨ re
Ã© mat
Ã³ m
Ãº n
à¤¤à¥įà¤¤à¥Ģà¤¸ à¤Ĺà¤¢à¤¼
à¤¨ à¤¿à¤ķ
à¤¨ à¥įà¤¨
à¤®à¥įà¤¬ à¤°
à¤µ à¤²
à¤¾à¤ ¡à¤¼
à¤¿à¤¯ à¤¾à¤Ī
à¤Ĥ à¤¬
à¤Ĥ à¤Ń
à¥ģà¤ Ł
à¥ģà¤ Ń
à¥ģà¤¨ à¤¿à¤ķ
à¥Ī à¤²
à¥ĭ à¤®
à¥ĭ à¤°à¥įà¤
à¦¥ à¦¾
à¦° à¦¾à¦·à§įà¦Łà§įà¦°
à¦°à§įà¦ ®
à¦¾à¦ ĸ
à¦¾à¦°à§įà¦ķ à¦Ł
à¦¾à¦¸ à§Ģ
à¦¿à¦ ¡
à¦Ĺ à¦¾à¦¨
à¦ľ à§ĩà¦°
à¦Ł à¦²
à§ĥà¦· à§įà¦Ł
à® ķà®³
à®¤ à¯ģà®°
à®©à¯į ,
à®ª à®¿à®°
à®® à¯ģ.
à®® à¯ģà®®à¯į
à®° à®ªà¯įà®ª
à®° à¯ĩ
à®µ à®¿à®¯
à®¾à®³ à®°à¯įà®ķà®³à¯į
à®¿à®²à®¿à®°à¯ģà® ¨à¯įà®¤
à®¿à®²à¯įà®² à¯Ī.
à®¿à®µ à¯ģ
à®ķà® µ
à®ķà® ķà¯į
à¯ģà®ķà¯įà® ķà®³à¯į
à¯ģà®Ł à¯įà®ª
à¯Īà®¯ à®¾à®ķ
à¯Ĭ à®²
à¯įà®¤ à®²
æ ľ
ï¼ Į
Ġ rows
Ġ( )
Ġ( G
Ġ( R
Ġ( à¤¸
Ġ(' b',
Ġ(i. e.
Ġ... ,
Ġ0. 0
Ġ2 1
ĠAm Ã©rica
ĠB rown
ĠBob |
ĠCom put
ĠD ata
ĠDep artment
ĠF r
ĠL ast
ĠN ov
ĠP ol
ĠP ython
ĠS olution
ĠSt ructType
ĠV ol
Ġ\ pm
Ġal ias
Ġal most
Ġb ir
Ġb rand
Ġb rows
Ġbeh ind
Ġbel ieve
Ġch ance
Ġcom pl
Ġcont rib
Ġcor rel
Ġd riv
Ġdefin ition
Ġe arlier
Ġe arly
Ġeas y
Ġent ry
Ġest abl
Ġex ec
Ġf ast
Ġfix ed
Ġfor ces
Ġg al
Ġgr up
Ġh or
Ġh ttp://
Ġindust ry
Ġit ,
Ġl ife
Ġm agn
Ġmod ern
Ġn ation
Ġo il
Ġocc ur
Ġon ce
Ġord en
Ġp y
Ġper o
Ġpolic y
Ġpop ular
Ġpreserv es
Ġr ank
Ġr ational
Ġrad ical
Ġre ference
Ġre v
Ġregard ing
Ġrem ove
Ġrepresent ation
Ġrequ ired
Ġro b
ĠrÃ© g
Ġs m
Ġsat isf
Ġshow s
Ġsol d
Ġspe ak
Ġst op
Ġsur face
Ġt ask
Ġtrans l
Ġwrit ten
Ġyou 're
Ġà¤¥ à¥Ģà¤Ĥ
Ġà¤¨ à¤µ
Ġà¤¨ à¤¿à¤ķ
Ġà¤ªà¤°à¤¿à¤µ à¤¾à¤°
Ġà¤ªà¤°à¥įà¤µ à¤¤
Ġà¤® à¤¤
Ġà¤® à¤Ī
Ġà¤µà¤°à¥įà¤ £
Ġà¤µà¤¿à¤· à¤¯
Ġà¤µà¥įà¤¯ à¤¾à¤ª
Ġà¤¸ à¤¦à¥Ģ
Ġà¤¸à¤Ĥ à¤ĸà¥įà¤¯à¤¾
Ġà¤¹ à¤¿à¤®
Ġà¤¹à¤¿à¤¸ à¥įà¤¸
Ġà¤Ĩà¤¬ à¤¾à¤¦à¥Ģ
Ġà¤ķ à¤²
Ġà¤ķ à¤¿à¤²
Ġà¤ķ à¥ĥ
Ġà¤ľ à¤¯
Ġà¤ľ à¤¹
Ġà¤Ŀ à¤¾à¤°à¤ĸ
Ġà¦¤ à§ģà¦²
Ġà¦¨ à¦¿à¦°
Ġà¦ª à¦¾à¦ĵà¦¯à¦¼à¦¾
Ġà¦¬à¦¿à¦ ª
Ġà¦¬à§įà¦° à¦¿à¦Ł
Ġà¦® à¦¤
Ġà¦¸ à§įà¦ª
Ġà¦ħà¦¨ à§įà¦¯à¦¾à¦¨à§įà¦¯
Ġà¦Ĩ à¦¦
Ġà¦ĩ à¦Ĥ
Ġà¦ķ à§ĩà¦¨à§įà¦¦à§įà¦°
Ġà¦ĸà§įà¦° à¦¿à¦¸à§įà¦Ł
Ġà¦ľà¦¨à¦¸à¦Ĥà¦ĸà§įà¦¯ à¦¾à¦°
Ġà¦Ńà§Ĥ à¦®
Ġà®¤à¯ĭ à®±à¯įà®±
Ġà®¨à®¾à®ķà®° à®¿à®ķà®
Ġà®ªà®¿à®°à®¤ à¯ĩà®ļ
Ġà®ªà¯Ĭ .à®Ĭ.
Ġà®®à¯ĩ à®±à¯įà®ķ
Ġà®µà®Łà®¿à®µ à®®à¯Īà®ªà¯įà®ª
Ġà®ĩ à®ķà¯įà®ķà®
Ġà®ĩà®°à¯ģà® ªà¯įà®ª
Ġà®ĩà®µ à®±à¯įà®±
Ġà®ī à®¤
Ġà®īà®± à¯ģà®ªà¯įà®ª
Ġà®ı à®´
Ġà®Ĵ à®²
Ġà®ķà® µ
Ġà®ķà®Łà¯įà®Łà®¿à®Łà®ķà¯įà®ķà®² à¯Īà®ŀ
Ġà®ļà¯Ĩ à®²
( at
( cl
( num
(z )
+---- +
- g
- w
. d
1 \
2 9
3 9
3 ],
4 9
By tes
D A
E _
F rom
F unction
I R
J ava
M ap
P l
S ,
S et
T rain
With Index
[0 ],
\r angle
_d ata
_d ir
_l oc
able d
amil ton
arn ess
at tle
ate ,
b ound
col umn
com b
cu ent
en .
en ior
equ iv
er re
f il
fic ie
g n
i }
ient e
in ant
ine ,
is ation
ist oire
itte e
j oy
le q
lo res
n ov
om or
op h
or ing
os p
p ir
p ret
qu es
rodu ction
ry st
s /
s ]
st ruct
sub set
ty p
un que
us ,
v is
val ues
x ^2
y_{ t
ªà¯įà®ªà®Ł à¯įà®Ł
Â» ,
Ã ł
Ã¡ce as
Ã³ g
ÃŃ tic
à¤¤à¤¿à¤ķ à¥Ģ
à¤¤à¥įà¤¤ à¤¿
à¤¦ à¤¾
à¤²à¥įà¤² à¥ĩà¤ĸ
à¤¾à¤¦ à¤¿
à¤¾à¤Ĺ à¤°à¥Ģ
à¤ĩ à¤¸
à¤ķ à¤²
à¥ĩà¤Ĥ à¤¦à¥įà¤°
à¥ĭ à¤·
à¥įà¤¯ à¤¾à¤¯
à¦ ģ
à¦ ĺ
à¦® à¦¹
à¦° à¦¾à¦ľ
à¦°à§įà¦ Ł
à¦¸ à§įà¦¯
à¦¾à¦ĩ à¦¨
à¦¿à¦ Ń
à¦Ĺà§ģà¦² à¦¿
à¦ļ à§įà¦Ľ
à§ĩà¦¦ à§ĩà¦°
à§įà¦° à¦®
à® ·
à®¤ à¯Ĩ
à®¤à¯įà®¤ à®¿à®±à¯įà®ķ
à®ª à®©
à®®à¯ĩ à®±à¯įà®ķ
à®° à®¿
à®´ à®Ļà¯įà®ķ
à®µ à®¿à®²à¯į
à®µà®°à®² à®¾à®±à¯ģ
à®¾à®®à¯į .
à®¾à®ķà® ļà¯į
à®¿à®¨à¯įà®¤ à®¿à®¯
à®¿à®¯ à®¿à®²à¯į
à®ķà¯įà®ķ à¯Ĥà®Łà®¿à®¯
à¯ģà®£ à¯įà®Ł
à¯Īà®¯à®¿à®²à¯į ,
Ġ$ S
Ġ$ V
Ġ$ k
Ġ( N
Ġ( T
Ġ( the
Ġ1 000
Ġ3 6
Ġ6 ,
Ġ7 ,
Ġ> =
ĠAn n
ĠB ay
ĠE qu
ĠF R
ĠF ind
ĠF rom
ĠG o
ĠI m
ĠM y
ĠN o
ĠNew s
ĠO ff
ĠO pt
ĠR oy
ĠRes earch
ĠS ince
ĠS outh
ĠSept ember
ĠT est
ĠW ed
ĠW est
ĠW orld
Ġ\ {
Ġat om
Ġbro ad
Ġc redit
Ġcand idate
Ġcomb in
Ġcomm e
Ġcomm unic
Ġcomp et
Ġcomp on
Ġcomp uest
Ġcomplet ely
Ġcon text
Ġcondition s
Ġcontin ue
Ġcurrent ly
Ġd ens
Ġd ynam
Ġde ath
Ġderiv ative
Ġdesign ed
Ġdist inct
Ġem b
Ġent er
Ġenviron ment
Ġespec ially
Ġexact ly
Ġfin ite
Ġflu id
Ġfor ce
Ġfor ward
Ġg ain
Ġg reen
Ġgovern ment
Ġgra v
Ġgrieg o
Ġin cor
Ġin equ
Ġl abor
Ġnatur al
Ġon line
Ġpob l
Ġpreserves Partition
Ġprincip al
Ġpubl ished
Ġqu ality
Ġrdd .
Ġre pe
Ġre venue
Ġrec omm
Ġro om
Ġs lope
Ġs low
Ġship ping
Ġst ates
Ġst ream
Ġstart ed
Ġstat ement
Ġstre ng
Ġsyst ems
Ġt itle
Ġtrans fer
Ġtri ed
Ġtyp es.
Ġun employ
Ġv ict
Ġvari ety
Ġw av
Ġw or
Ġà¤¤ à¤Ł
Ġà¤¦ à¤¿à¤¶
Ġà¤ªà¤¶à¥įà¤ļà¤¿à¤® à¥Ģ
Ġà¤® à¤¾à¤¤
Ġà¤® à¥Ī
Ġà¤®à¤¨à¥ĭà¤µ à¤¿à¤ľà¥įà¤ŀà¤¾à¤¨
Ġà¤¸à¤® à¥įà¤ª
Ġà¤¸à¤®à¥įà¤¬ à¤¨à¥įà¤§
Ġà¤¹à¤¿à¤Ĥà¤¦ à¥Ĥ
Ġà¤īà¤¦ à¥įà¤¯
Ġà¤īà¤¨à¥įà¤¹ à¥ĩà¤Ĥ
Ġà¤īà¤ª à¤¯à¥ĭà¤Ĺ
Ġà¤ķà¥ĩ à¤µà¤²
Ġà¤Ĺ à¤Ī
Ġà¦¦ à¦¿à¦¯à¦¼à§ĩ
Ġà¦¦à§ĩà¦¶ à¦Łà¦¿à¦°
Ġà¦¨ à¦¿à¦ľ
Ġà¦ª à¦¾à¦ķà¦¿à¦¸à§įà¦¤à¦¾à¦¨
Ġà¦ªà¦° à¦¬à¦°à§įà¦¤à§Ģ
Ġà¦ªà§įà¦° à¦ľà¦¾à¦¤
Ġà¦®à¦¹à¦¾à¦¦à§ĩà¦¶ à§ĩà¦°
Ġà¦®à¦¾à¦§à§įà¦¯à¦® à§ĩ
Ġà¦°à¦¾à¦·à§įà¦Łà§įà¦° à¥¤
Ġà¦°à¦¾à¦ľ à¦¶à¦¾à¦¹à§Ģ
Ġà¦¸ à¦¹
Ġà¦¸ à¦Ń
Ġà¦¸à¦Ĥ à¦¸à§įà¦ķ
Ġà¦ħà¦¨ à§įà¦¤
Ġà¦Ĩ à¦ĩ
Ġà¦Ĩà¦®à§ĩà¦°à¦¿à¦ķ à¦¾à¦°
Ġà¦ıà¦ķ à¦ľà¦¨
Ġà¦ķà¦° à¦¾à¦°
Ġà¦Ĺ à§ĭà¦²
Ġà§ «
Ġà®¤ à®¿à®°à¯ģà®
Ġà®¤à¯Ĩ à®±à¯įà®ķ
Ġà®¨ à®¾à®©à¯įà®ķ
Ġà®¨ à¯ĩà®°
Ġà®ª à®²à¯įà®µ
Ġà®ª à®¿à®©
Ġà®ªà®£ à¯įà®ª
Ġà®®à®² à¯Īà®¯à®¾à®³
Ġà®®à®¿à®ķà® µà¯ģà®®à¯į
Ġà®®à¯Ĥ à®²à®®à¯į
Ġà®µà®¿à®£ à¯įà®µ
Ġà®µà¯Ĩà®³ à®¿à®¯
Ġà®ħà®®à¯Īà®¨à¯įà®¤ à¯ģà®³à¯įà®³
Ġà®Ĩà®£à¯įà®Ł à¯ģ
Ġà®ĩà®°à¯ģà® ķà¯įà®ķ
Ġà®ķ à®¾à®Łà¯įà®Ł
Ġà®ķà®¾à®² à®®à¯į
Ġà®ķà®¿à®° à¯ĩ
Ġà®ļ à¯Ĥ
" ])
' ),
( 2,
(' a',
(f ield
(iterator ):
)$ .
+ 1)
- M
._j vm.
1 -
2 7
2 :
2 ]
8 9
A b
A da
A dd
A m
Alice |
J oined:
L ,
M y
O H
O ur
Ph one
S h
T ime
T op
Type :
V iew
\ left
\begin {
\frac{ 1}{
_ h
_con vert
ab ilities
al y
ant es
art er
as ure
aus s
c all
con tin
em pl
ent al
erm an
g ,
i am
i ar
ient ific
ig on
ish ing
ite .
ition al
nd er
ob re
ole an
on a
or g.
ou ter
ough t
p y
pect ed
pl ot
pos ition
r im
r Ã³
rdd .
reg ate
ro t
s ide
s k
se e
t able
t re
w indow
y )
Â ¶
Ã¨ bre
ÃĹC 9
à¤ Ĭ
à¤®à¤¾à¤¨ à¤¸
à¤®à¥įà¤¬ à¤Ī
à¤° ,
à¤°à¤® à¥įà¤Ń
à¤°à¥Ģ ,
à¤°à¥įà¤Ĺ à¤¤
à¤² à¥ĭà¤Ĥ
à¤¸ à¥įà¤ª
à¤¹ à¤¿à¤¨à¥įà¤¦
à¤¾à¤ ł
à¤¾à¤ª à¤¾à¤¨
à¤¾à¤° à¥ĩ
à¤¿à¤ ļ
à¤Ĥ à¤¶
à¤ĸ à¤¨
à¤Ĺ à¤²
à¤Ĺ à¥įà¤°
à¤Ń à¥Ģ
à¤Ń à¥Ĥ
à¥ģ à¤¦à¥įà¤°
à¥ģ à¤Ĺ
à¥Ĥà¤° à¥įà¤¯
à¥ĭ à¤¤
à¥ĭ à¤§
à¥įà¤ ľ
à¥įà¤¯ à¥ĭà¤Ĥ
à¦¤ à§ģ
à¦® à§įà¦¬
à¦¯ à§ĭà¦Ĺ
à¦¾à¦ ¡
à¦¾à¦ «
à¦¾à¦¨ à§įà¦Ł
à¦¾à¦° à§ĩà¦°
à¦¿à¦ ĵ
à¦Ľ à¦¾à¦¡à¦¼
à§§à§ ¯à§
à®¤ à®®à®¿à®´
à®¤ à®¾à®©
à®© à®¿à®©à¯į
à®ªà¯Ĩ à®°à¯ģà®®à¯įà®ª
à®ªà¯Ĩà®°à¯ģà®®à¯įà®ª à®¾à®²à¯ģà®®à¯į
à®ªà¯įà®ªà®Ł à¯ģà®ķà®¿à®©à¯įà®±
à®° à®¿à®©à¯į
à®° à¯ģà®®à¯į
à®µ à®°à¯įà®ķà®³
à®µ à¯Ģà®©
à®µ à¯ģà®®à¯į
à®¾à® ¸à¯į
à®¾à®© à®¿à®¯
à®¾à®ķà®µ à¯ĩ
à®¿à®¯ à®°à®ļ
à¯ģà® ļ
à¯ģà®©à¯įà®© à®¿
à¯Īà®ķà®³ à®¿à®²à¯į
à¯Īà®ķà¯įà®ķ à¯ģ
à¯ĭ à®¤
Ġ( 0,
Ġ( L
Ġ( b
Ġ( f
Ġ( y,
Ġ1 1,
Ġ201 6
Ġ3 )
Ġ3 ),
Ġ3 1
Ġ< =
ĠA ward
ĠAn y
ĠCent er
ĠChrist mas
ĠCol lege
ĠDStream .
ĠG od
ĠJ .
ĠLa w
ĠM art
ĠNum ber
ĠPro blem
ĠR ec
ĠS E
ĠS am
ĠS atur
ĠS er
ĠSt at
ĠTe chn
ĠWed nes
Ġ_ parse
Ġa ffect
Ġa ward
Ġabs or
Ġacc ur
Ġad minist
Ġalg un
Ġam b
Ġappe ar
Ġappro xim
Ġatt ack
Ġav oid
Ġchang es
Ġcol or
Ġcomp are
Ġcon cent
Ġcon j
Ġconverg ence
Ġd rug
Ġd ur
Ġdec ision
Ġdef ine
Ġdev ice
Ġdom ain
Ġdou ble
Ġe p
Ġeas ily
Ġelect ric
Ġflo res
Ġg round
Ġgr ad
Ġhe ld
Ġhig hest
Ġimmedi ately
Ġimp act
Ġinter action
Ġl ambda
Ġl ib
Ġle arning
Ġm as
Ġmax imal
Ġn ord
Ġneg ative
Ġneg ro
Ġoper ation
Ġover head
Ġp age
Ġp arent
Ġp seud
Ġpartic ip
ĠpreservesPartition ing
Ġpro ces
Ġpro g
Ġpro of
Ġproduct s
Ġreturn ed
Ġs ays
Ġs es
Ġs ous
Ġst ock
Ġst orage
Ġsuper ficie
Ġtre nd
Ġtype (dt
Ġun iform
Ġup date
Ġus ually
Ġv ot
Ġw idth
Ġw omen
Ġw orth
Ġwe b
Ġweek end
Ġà¤ªà¤¾à¤° à¥įà¤Łà¥Ģ
Ġà¤ªà¥Ĥà¤°à¥įà¤µ à¥Ģ
Ġà¤¬à¤¡à¤¼ à¥ĩ
Ġà¤¬à¥įà¤° à¤¹à¥įà¤®
Ġà¤®à¤¹ à¤¾à¤¦à¥įà¤µà¥Ģà¤ª
Ġà¤¶ à¥įà¤°
Ġà¤¸à¤Ĥà¤¸à¥įà¤ķà¥ĥà¤¤ à¤¿
Ġà¤¸à¥Ĥ à¤¤à¥įà¤°
Ġà¤¹à¤¿à¤¨à¥įà¤¦ à¥Ĥ
Ġà¤ħà¤¨à¥ģà¤¸à¤¾à¤° ,
Ġà¤Ĩ à¤ª
Ġà¤Ĩà¤§ à¥ģà¤¨à¤¿à¤ķ
Ġà¤ī à¤²à¥įà¤²à¥ĩà¤ĸ
Ġà¤ķ à¤¿à¤¨
Ġà¤ķ à¤¿à¤ı
Ġà¤ķà¥Ģ à¥¤
Ġà¤Ĺà¥įà¤° à¤¨à¥įà¤¥
Ġà¤Ĺà¥įà¤° à¤¹
Ġà¤Ľ à¥ĭà¤Ł
Ġà¤ľ à¥įà¤ŀà¤¾à¤¨
Ġà¥¨ à¥¦à¥¦
Ġà¦ªà¦° à¦¿à¦¬à§ĩà¦¶
Ġà¦¬ à¦²à§ĩ
Ġà¦¬ à¦¾à¦¸
Ġà¦¬à§įà¦°à¦¿à¦Ł à¦¿à¦¶
Ġà¦° à§Ĥà¦ª
Ġà¦² à§ĭ
Ġà¦¸à¦¾à¦® à§įà¦°à¦¾à¦ľ
Ġà¦¹à¦² à§ĭ
Ġà¦ħ à§įà¦¯
Ġà¦Ĩ à¦¨
Ġà¦Ĩà¦®à§ĩà¦°à¦¿à¦ķ à¦¾
Ġà¦ĩà¦īà¦°à§ĭà¦ª à§Ģà¦¯à¦¼
Ġà®¤ à®³
Ġà®¤à¯Ĩ à®²
Ġà®¨ à®²à¯įà®²
Ġà®¨à¯Ĥ à®²
Ġà®ª à®¾à®¤
Ġà®ªà®¯à®© à¯įà®ª
Ġà®ªà®ķà¯ģà®¤ à®¿à®ķà®³
Ġà®ªà®Łà¯įà®Ł à®¿à®¯à®²à¯į
Ġà®ªà¯Ĭà®°à¯ģà®³ à¯į
Ġà®®à®¾à® ¨à®¿à®²
Ġà®®à¯ģà®± à¯Īà®®
Ġà®®à¯Ĥ à®²
Ġà®®à¯Ĭà®´ à®¿
Ġà®µ à®¾à®¯
Ġà®µà®° à¯Īà®¯
Ġà®ħà®´à¯Īà® ķà¯įà®ķà®ªà¯įà®ªà®Łà¯įà®Ł
Ġà®ħà®µà®±à¯įà®± à®¿à®©à¯į
Ġà®Ĩ à®°à®¿à®¯
Ġà®ĩ à®¤à¯įà®¤
Ġà®ĩà®°à¯ģà®¨à¯įà®¤ à®¤à¯ģ.
Ġà®İà®´ à¯ģà®¤à¯įà®¤
Ġà®ı à®±
Ġà®ķà® ©
Ġà®ķà®Łà¯įà®Łà®¿à®Ł à®Ļà¯įà®ķà®³
Ġà®ķà¯Ĥ à®Łà®¿à®¯
Ġà®ķà¯Ĭ à®²
Ġà®ķà¯ĭ à®²
Ġà®ķà¯ĭà®ªà¯ģà®° à®®à¯į
Ġà®ķà¯ĭà®¯ à®¿à®²à¯į
Ģ Ĥ
" ):
( other
( range
(" a",
). show()
+--- +------
- X
- à¦ªà§Ĥà¦°à§įà¦¬
-d imension
-to -
3 6
5 6
=False ):
Bytes Sp
BytesSp illed
C he
D _{
D uration,
Ex ample
H e
It 's
L os
Le ft
N A
P C
P S
T e
[ "
[ 1,
[ÃĹ 3],
\ {
] ),
] {
_ face
_dat atype
_loc ations
ab ol
adem ic
age :
ant a
ap ache
as ic
at ic
b ook
ch unk
com es
con f
d elta
d os
d rop
e in
el er
end er
epsilon _F
eq }
ere n
ex p
g ent
g es
h ÃŃ
ht ml
ic a.
ic ian
ic o,
ich a
ient o
ient s
if ts
if ying
ig en
il ing
in ner
ire ct
ist an
ist ry
j o
k ,
l imit
le b
ll ib
m llib
m odel
n ull
o o
ock et
og ram
ograph ic
ol id
on .
on y
or ies
or ra
org. apache
p G
p ubl
por ary
prec ated
pt y
ra f
s ider
s park
u z
ut h
vent ion
}^{ \infty
©à¯įà®© à®Ł
² à¯į
Ã© d
ÃŃ fic
Ï ģ
à¤° à¤¤
à¤°à¥įà¤ ¦
à¤¶ à¤²
à¤¾à¤ļ à¤²
à¤ķà¥įà¤· à¤£
à¤ķà¥įà¤· à¤¾
à¤Ĺà¤° à¤¾
à¤ļ à¥Ģ
à¤ľ à¤¾à¤¤
à¤Ń à¤¾à¤Ĺ
à¥ģ à¤¦à¥įà¤§
à¥įà¤² à¥Ģ
à¦¨à§įà¦¤ à§įà¦°à§Ģ
à¦° à¦¿à¦ķ
à¦°à§įà¦ľ à§ĩà¦¨à§įà¦Ł
à¦°à§įà¦ľà§ĩà¦¨à§įà¦Ł à¦¿à¦¨
à¦¶ à§ĩà¦¨
à¦· à§įà¦Ł
à¦¸à¦® à§Ĥà¦¹
à¦¾à¦ Ļà§įà¦Ĺ
à¦¾à¦¨à§įà¦Ł à¦¿à¦ķ
à¦Łà¦² à¦¾à¦¨à§įà¦Łà¦¿à¦ķ
à¦Ńà§Ĥ à¦®
à§ĩà¦¤ à§įà¦°
à§ĩà¦° à§ģ
à§ĭ à¦§
à®¤à¯įà®¤ à®¿à®²à®¿à®°à¯ģà®¨à¯įà®¤à¯ģ
à®ª à®²
à®° à®¾à®ļ
à®°à¯įà® ¨à¯įà®¤à¯ģ
à®¾à®µ à®¿à®Ł
à®Ĳ à®ķà¯įà®ķà®¿à®¯
à®Ł à¯ģà®ª
à¯ģà® ļà¯įà®ļ
à¯ģà®µà®¤ à®±à¯įà®ķ
à¯Ĩ à®±
à¯ĩ à®Ł
à¯Ĭ à®³à¯įà®³
à¯Ĭà®°à¯ģà® ³
à¯ĭ ,
à¯įà®ķà®³ à®¿à®©à¯į
ã ĢĤ
å Ń
æ Ĥ
æ ĸ
æĤ ¨
Ġ$ A
Ġ$ O
Ġ$ P
Ġ% s"
Ġ( H
Ġ( J
Ġ( a
Ġ- 1
Ġ1 /
Ġ2 7.
Ġ20 21
Ġ200 5
Ġ9 ,
ĠA ust
ĠAn sw
ĠAr ch
ĠB ack
ĠB ook
ĠB ow
ĠD en
ĠD ist
ĠF rid
ĠG M
ĠG old
ĠG r
ĠI R
ĠL '
ĠL em
ĠM arch
ĠN e
ĠO f
ĠP lease
ĠP ublic
ĠR .
ĠRe view
ĠRow( name
ĠS earch
ĠSe e
ĠSt .
ĠT im
Ġ\ sqrt{
Ġal c
Ġapp el
Ġapplic ations
Ġapply ing
Ġas c
Ġatt empt
Ġb ody
Ġbehav ior
Ġby :
Ġc ross
Ġc ut
Ġch annel
Ġcheck point
Ġclas ific
Ġclos ed
Ġcon cl
Ġconf idence
Ġcontain ing
Ġconve x
Ġd og
Ġde cl
Ġdet ail
Ġdeterm ined
Ġdire ctor
Ġdis play
Ġesp ac
Ġf irm
Ġf urther
Ġfrequ ency
Ġg ames
Ġgreat er
Ġh a
Ġheight =
Ġho pe
Ġin iti
Ġinf in
Ġinter face
Ġis n't
Ġisinstance( col
Ġits elf
Ġj oin
Ġl ibrary
Ġlangu ages
Ġlead er
Ġlead ing
Ġlit er
Ġm und
Ġm ut
Ġmed ia
Ġmilit ary
Ġmor ning
Ġn orte
Ġobject s
Ġop port
Ġorig in
Ġot ros
Ġpart ie
Ġph one
Ġpl aced
Ġplan et
Ġpol yn
Ġpract ice
Ġpre fix
Ġpres s
Ġprofess ional
Ġqu ad
Ġr isk
Ġrat her
Ġreg ression
Ġreport ed
Ġres id
Ġrun ning
ĠrÃ©g ion
Ġs ense
Ġsc ale
Ġse qu
Ġsh ap
Ġsmall er
Ġstart ing
Ġthem .
Ġturn s
Ġtype(dt )
Ġunemploy ment
Ġus ers
Ġw ait
Ġwe bs
Ġwh ose
Ġyear ,
Ġz ip
ĠÃ º
Ġà¤¥ à¤¾à¤Ī
Ġà¤¦ à¤¶
Ġà¤¦ à¥Ģ
Ġà¤ª à¤¦
Ġà¤ª à¤¾à¤ģà¤ļ
Ġà¤ªà¥Ĥ à¤ľ
Ġà¤ªà¥įà¤° à¤¯à¥ĭà¤Ĺ
Ġà¤ªà¥įà¤° à¤¾à¤ķà¥ĥà¤¤
Ġà¤ªà¥įà¤° à¤ķà¤¾à¤¶
Ġà¤ªà¥įà¤° à¤Ńà¤¾à¤µ
Ġà¤« à¤¿à¤°
Ġà¤¬ à¤¦
Ġà¤¬ à¥Ī
Ġà¤® à¥Į
Ġà¤®à¤¹ à¤¾à¤¸
Ġà¤µà¤¿à¤ ¸
Ġà¤µà¤¿à¤¨ à¤¾à¤¯à¤ķ
Ġà¤¸à¤¿à¤¦à¥įà¤§ à¤¿
Ġà¤¸à¤Ĥ à¤¬à¤Ĥà¤§
Ġà¤ħ à¤«à¤¼
Ġà¤ĩà¤¸ à¤®à¥ĩà¤Ĥ
Ġà¤ī à¤ļà¥įà¤ļ
Ġà¤ķ à¤¾à¤µà¥įà¤¯
Ġà¤Ĺ à¤¾à¤Ĥ
Ġà¤Ĺ à¥ĭà¤µ
Ġà¤ľ à¥ģà¤¡à¤¼
Ġà¤ľà¤¿à¤¸ à¤ķà¥ĩ
Ġà¥§à¥ «
Ġà¦¢ à¦¾à¦ķà¦¾
Ġà¦ªà¦¶à§įà¦ļà¦¿à¦® à§ĩ
Ġà¦ªà§Ĥà¦°à§įà¦¬ à§ĩ
Ġà¦« à¦²à§ĩ
Ġà¦¬ à¦¿à¦°
Ġà¦°à¦¾à¦ľà¦§à¦¾à¦¨ à§Ģ
Ġà¦¶ à¦¾à¦¸à¦¨
Ġà¦¸à¦®à§įà¦ª à¦°à§įà¦ķ
Ġà¦¹à¦¿à¦¸ à¦¾à¦¬à§ĩ
Ġà¦ħà¦ŀà§įà¦ļ à¦²à§ĩ
Ġà¦Ĩà¦² à¦ľà§ĩà¦°
Ġà¦ī à¦ļà§įà¦ļ
Ġà¦ķ à¦¾à¦°
Ġà¦ķà¦° à¦¤
Ġà¦ĸà§ĩà¦² à¦¾à¦°
Ġà¦Ĺà¦ł à¦¿à¦¤
Ġà§§à§ Ń
Ġà®¤ à¯ģà®ª
Ġà®¨à®Łà®© à®®à¯į
Ġà®ª à®±à¯įà®±
Ġà®ª à¯ģà®¤à®¿à®¯
Ġà®ªà®²à¯įà®µ à¯ĩà®±à¯ģ
Ġà®ªà¯Ĩà®°à¯ģà®®à¯įà®ª à®¾à®²à¯ģà®®à¯į
Ġà®® à®¤
Ġà®®à¯Ģ à®Łà¯įà®Łà®°à¯į
Ġà®®à¯ģà®¤ à®©à¯įà®®
Ġà®®à¯ĩà®² à¯ģà®®à¯į
Ġà®µ à®¿à®°à¯ģà®¤
Ġà®µà®¿à®³ à®Ļà¯įà®ķ
Ġà®µà®Łà®¿à®µ à®®
Ġà®µà¯ĩ à®±à¯ģà®ª
Ġà®ħ à®¨à¯įà®¤
Ġà®ĩà®¨à¯įà®¤à®¿à®¯ à®¾
Ġà®ĩà®°à®£à¯įà®Ł à¯ģ
Ġà®ĩà®²à®ķà¯įà®ķà®¿à®¯ à®®à¯į
Ġà®ĩà®ļà¯ģà®²à®¾à®®à¯į )
Ġà®Ĵ à®µà¯įà®µ
Ġà®ķà¯ģà®Ł à®¿à®¯à®°à®ļ
Ġà®ķà¯Ĥ à®Ł
Ġà®ļà¯Ĩà®¯ à¯įà®¤
Ġà®ļà¯Ĩà®² à¯ģà®¤à¯įà®¤
Ļ à¯į
( P
( a,
(1 )
(j df,
) $$
).collect() )
-l ike
. g.
/ m
0. 0,
1 ),
1 0.
7 )
7 5
< /
=u'Bob ',
A ccording
A gg
F ind
F orm
L ast
N ot
O ct
O p
P re
Partitions ()
Post s:
St r
Type (),
Type ,
[ Theta
[ \
\b oldsymbol
\gant t
\gantt bar
\n "
_ as
_to_ vector
_{ \
`` ,
ab ase
ac ro
ac y
al ias
an z
ar ry
at .
at aset
av y
ce mber
com p
d raw
ed ia
el s
em ents
erc ise
est ,
est ed
f low
f rique
g ing
h ood
i ance
i o,
ic on
in n
ine .
it ely
l g
le ment
m ic
m od
m s
ma z
min imum
o ad
o e
ob ile
ob ject
obj ,
og le
op en
os en
p ill
plan ation:
r is
re ate
re nce
re z
sh ip
st ances
st ra
u k
uf act
ur y
v i
ww w
y cle
y l
{\ frac
{align }
}$ ,
}^{ 3}
® à®¾à®©
®à¯į ,
· à§įà¦ł
Ã ¶
Ã© tic
Ã³ d
à¤¦ à¥ĩà¤µ
à¤¨ à¤¾à¤Ĺà¤°à¥Ģ
à¤¨à¥Ģà¤¤ à¤¿
à¤®à¤¨ à¥įà¤¤à¥įà¤°à¥Ģ
à¤°à¥įà¤ ª
à¤°à¥įà¤ ľ
à¤°à¥įà¤¥ à¤¿à¤ķ
à¤² à¥Īà¤Ĥà¤¡
à¤¸à¥įà¤Ł à¥įà¤°
à¤¾à¤ Ń
à¤¿à¤µ à¤¾à¤¸
à¤ľà¤¨ à¥įà¤®
à¤Ł à¥įà¤°
à¥ģà¤ ·
à¥ĩà¤¶ à¤¿à¤¯à¤¾
à¥ĭ à¤¸
à¥įà¤¤ à¥ģ
à¦¤ à¦¾à¦°
à¦¦ à§ĩà¦¶
à¦¨ à§įà¦§
à¦° à§ĩà¦ľ
à¦¾à¦§ à¦¾à¦°à¦£
à¦¾à¦Ĺ à§ģà¦¯à¦¼
à¦¾à¦ľ à¦¿à¦²
à¦¿ à¥¤
à¦¿à¦ķ à¦Ńà¦¾à¦¬à§ĩ
à¦ķ à¦²
à§Ģ à¦ķà§ĥà¦¤
à§ģ à¦¡à¦¼à§ĩ
à§ģ à¦Ł
à§ĩà¦· à§įà¦Ł
à§įà¦¯à¦¾à¦¨à§įà¦Ł à¦¾à¦°à§įà¦ķà¦Ł
à®¤ à¯Ĩà®©
à®¤à¯įà®¤ à¯Īà®ļà¯į
à®© à®¿
à®© à¯Īà®¯
à®®à¯ĩà®±à¯įà®ķ à¯ĭà®³
à®µ à¯Ĩà®³à®¿
à®¾à® ¨à¯įà®¤
à®¾à®° à®®à¯į
à®¾à®³ à®°à¯įà®ķà®³
à®¾à®Ł à¯ģà®ķà®³
à®¿à® ļà¯į
à®¿à®© à¯ģà®®à¯į
à®¿à®¯à®¾ ,
à®¿à®°à¯ģà®ķà¯įà®ķ à¯ģà®®à¯į
à®¿à®ķà®³ à¯Īà®ķà¯į
à®ĩ à®²
à®ķà® Ļà¯įà®ķà®³
à®ķà® Łà¯įà®Ł
à®ļ à®¿à®¯
à®ļ à¯ģ
à¯ģà®ª à¯ĭà®ķà¯įà®ķ
à¯ģà®ķà® ´
à¯Īà®ķà®³à¯į ,
à¯Ĭ à®Ļà¯įà®ķ
à¯Ĭà®´à¯ģà®¤ à¯ģà®ªà¯ĭà®ķà¯įà®ķ
ðŁ Ķ
Ġ$X $
Ġ$\ frac{
Ġ$p $
Ġ( t
Ġ( z,
Ġ( à¤ľ
Ġ( à®ªà¯Ĩà®°à¯ģà®®à¯įà®ªà®¾à®²à¯ģà®®à¯į
Ġ0 $
Ġ2 $
Ġ2 0,
Ġ200 1
Ġ201 8
Ġ3 00
Ġ7 0
ĠA lex
ĠAss oci
ĠB rit
ĠB u
ĠBl ack
ĠBl ue
ĠC 6
ĠC H
ĠC ouncil
ĠCount y
ĠD avid
ĠDataFrame (jdf,
ĠDataFrame (self._jdf.
ĠE ast
ĠE s
ĠEx per
ĠG reat
ĠInte gr
ĠJul y
ĠNone )
ĠPres ident
ĠS ome
ĠS ud
ĠSh ow
ĠW indow
ĠWe b
ĠWh y
Ġ\ equiv
Ġ\ rho
Ġ\frac{ \
Ġa ,
Ġal ign
Ġal ph
Ġany one
Ġany thing
Ġarch itect
Ġatt rib
Ġau x
Ġb ad
Ġb inary
Ġb ool
Ġbasestring ):
Ġbl ind
Ġc ast
Ġc i
Ġc opy
Ġc ryst
Ġcar act
Ġcle an
Ġcol lection
Ġcomp ression
Ġcon oc
Ġcon v
Ġconf ig
Ġconst ruction
Ġd ont
Ġde al
Ġde mand
Ġdescrib ed
Ġdifferent ial
Ġdon de
Ġdon âĢĻt
ĠdÃ© c
Ġe merg
Ġe ver
Ġed it
Ġem pty
Ġevalu ate
Ġf ill
Ġf ÃŃs
Ġfore cast
Ġg Ã©n
Ġget _
Ġgo al
Ġgrup o
Ġgu arante
Ġh ac
Ġh ost
Ġho jas
Ġinclud ed
Ġintern ational
Ġiss ues
Ġlarg er
Ġloc ated
Ġlook s
Ġm es
Ġma int
Ġme et
Ġn amed
Ġname |
Ġoper ating
Ġp rior
Ġp riv
Ġpass ed
Ġplan ets
Ġpolyn omial
Ġposs ib
Ġprim er
Ġprovid ing
Ġr ule
Ġrad io
Ġre lease
Ġre plac
Ġread y
Ġreg ion
Ġrel ig
Ġrelations hip
Ġrequ ires
Ġs al
Ġs amples
Ġs ing
Ġs obre
Ġsc al
Ġsc ore
Ġsc.parallelize([ 1,
Ġslide Duration
Ġsol o
Ġsub t
Ġsum mary
Ġsupport ed
Ġt en
Ġt w
Ġt Ã©
Ġtak ing
Ġthat ,
Ġto o.
Ġunderstand ing
Ġv ideo
Ġve z
Ġvis it
Ġw alk
Ġyear s,
Ġà¤ ĭ
Ġà¤¥ à¤¾,
Ġà¤¦ à¥ĥà¤·à¥įà¤Łà¤¿
Ġà¤¨ à¥ĥà¤¤à¥įà¤¯
Ġà¤ª à¤¹
Ġà¤ªà¤° à¥įà¤¯
Ġà¤ªà¥įà¤°à¤§à¤¾à¤¨ à¤®à¤¨à¥įà¤¤à¥įà¤°à¥Ģ
Ġà¤¬ à¤¿à¤¹à¤¾à¤°
Ġà¤¬ à¥Į
Ġà¤® à¤¾à¤°
Ġà¤® à¥Ģà¤²
Ġà¤²à¥ĩ à¤ķà¤°
Ġà¤µà¤¿à¤¨à¤¾à¤¯à¤ķ à¤¾à¤¯
Ġà¤µà¤¿à¤· à¥įà¤£
Ġà¤µà¥Ī à¤¦à¤¿à¤ķ
Ġà¤¸ à¤¾à¤Ĥ
Ġà¤¸ à¥Ģ
Ġà¤¸ à¥įà¤ª
Ġà¤¸à¤® à¥ģà¤¦à¥įà¤°
Ġà¤¸à¤Ń à¥įà¤¯à¤¤à¤¾
Ġà¤¹ à¤®
Ġà¤ħ à¤«
Ġà¤ħà¤¨ à¥įà¤¤à¤°
Ġà¤Ĩ à¤°à¤®à¥įà¤Ń
Ġà¤Ĩ à¤°à¥įà¤¥à¤¿à¤ķ
Ġà¤Ī à¤¸à¤¾
Ġà¤ķà¥ĩ à¤°à¤²
Ġà¤Ĺà¤¯ à¥ĩ
Ġà¤ĺ à¤Łà¤¨
Ġà¤ļ à¤¾à¤¹
Ġà¤ļ à¥Į
Ġà¤ľà¤¨ à¤µà¤°à¥Ģ
Ġà¦¦ à¦¿à¦ķà§ĩ
Ġà¦¬à¦° à¦«
Ġà¦¬à¦¿à¦ ¸
Ġà¦¬à§įà¦° à¦¾à¦ľà¦¿à¦²
Ġà¦¸à¦® à§ģà¦¦à§įà¦°
Ġà¦¸à¦Ĥà¦¸à§įà¦ķ à§ĥà¦¤
Ġà¦Ĩ à¦Łà¦²à¦¾à¦¨à§įà¦Łà¦¿à¦ķ
Ġà¦Ĩà¦« à¦Ĺà¦¾à¦¨
Ġà¦ī à¦²
Ġà¦īà§İ à¦ª
Ġà¦ı à¦Ľà¦¾à¦¡à¦¼
Ġà¦ķ à¦®
Ġà¦ķ à¦¿à¦²à§ĭà¦®à¦¿à¦Łà¦¾à¦°
Ġà¦ľà¦¨à¦¸à¦Ĥà¦ĸà§įà¦¯ à¦¾
Ġà§ ®
Ġà®¤ à®µ
Ġà®¤ à¯Ĥ
Ġà®¤ à¯ĩà®ļ
Ġà®¤à¯Ĩ à®©à¯į
Ġà®¨ à®²à¯įà®²à¯Ĥà®°à¯į
Ġà®¨à¯Ĥà®±à¯įà®±à®¾à®£à¯įà®Ł à¯ģ
Ġà®ª à®¿à®³
Ġà®ª à¯ĩ
Ġà®ªà®°à®¿à®ļ à¯ģ
Ġà®ªà¯Ĥ à®®
Ġà®ªà¯Ĩ à®¯à®°à¯į
Ġà®ªà¯Ĭà®°à¯ģà®Ł à¯įà®ķà®³à¯į
Ġà®ªà¯ĭ à®ķà¯įà®ķ
Ġà®® à®£
Ġà®® à®©à¯įà®©
Ġà®®à¯ģà®¤à®² à®¿à®¯
Ġà®° à¯ĭ
Ġà®µà®¿à®³à¯Īà®¯ à®¾à®Łà¯įà®Ł
Ġà®µà®¿à®³à¯Īà®¯ à®¾à®Łà¯įà®Łà¯ģ
Ġà®µà¯ĩ à®²
Ġà®ħ à®ķà¯įà®ķ
Ġà®Ĩ à®Ļà¯įà®ķà®¿à®²
Ġà®Ĩà®£à¯įà®Łà¯ģà®ķà®³ à¯ģà®ķà¯įà®ķà¯ģ
Ġà®Ĩà®ķà®¿à®¯ à®µà®±à¯įà®±
Ġà®ĩ à®ªà¯įà®ª
Ġà®ĩ à®²à¯į
Ġà®ĩà®£ à¯Īà®ªà¯įà®ª
Ġà®ī à®ļà¯įà®ļ
Ġà®ķ à®¾à®±à¯įà®±
Ġà®ķ à¯Īà®ªà¯įà®ª
Ġà®ķà®°à¯ģà®¤ à®ªà¯įà®ªà®Łà¯ģà®ķà®¿à®±à®¤à¯ģ.
Ġà®ķà®² à®¾à®ļà¯įà®ļà®¾à®°
Ġà®ķà®Ł à®²à¯į
Ġà®ķà¯ģà®± à®¿à®ķà¯įà®ķ
( im
(1 +
) ):
+ 1}
- con
- old
- à®Ĩà®®à¯į
---- --
-b ased
-t ime
2 6
2. 0
4 6
7 8
9 3
= 3
A .
A t
An y
Ap prox
C )
F eatures
G M
In f
In te
L .
L Y
O M
O ne
O ut
P .
P U
P er
P os
R andom
St ructField
T rees
The n
U s
[Row( age=
\ \n
^ 3
_ level
_i $
_type _ver
_type_ver ifier
_{ 0
a iled
ace a
ad as,
ag s
ag ue
ak ing
ane ous
ant ic
ap an
ar b
ar ily
ar se
bit rary
cc iÃ³n
count ()
de hÃŃ
el come
el oc
el y,
en ge
es ian
f s
g Ã¨bre
i ans
i ber
ict ure
id as
ier ra
ik i
il er
im in
ing ton
initial Model
is _
is her
is Ã©
ist e
it ation
ite ,
l a
le arn
mathbb{R }
n .
n et
om an
on as
ot al
ou rier
p data
per t
plic ation
plic it
r v
rdd_deserializer )
ri ve
rough t
s ign
se qu
st ro
t at
t ry
th at
tr ans
u ch
ud o
ure ,
v a
vari ance
w args
yp es
{ y
|| ---
}\ ,
£ à¦¿à¦ľ
° à¯ģà®µ
¶ à¦¨
Ã ¹
Ã¡ l
Ã¢ âĤ¬
Ï ĥ
à¤¡ à¥Ģ
à¤¤ à¥ģ
à¤¤à¥įà¤¤ à¤¾
à¤ª à¤¤à¤¿
à¤¯ à¥Ģ
à¤µà¤¿à¤¦ à¥įà¤¯à¤¾à¤²à¤¯
à¤¶ à¥įà¤¯
à¤¸à¥įà¤Łà¥įà¤° à¥ĩà¤²
à¤¾à¤¤ à¤¨
à¤¾à¤° à¤¸à¥Ģ
à¤¾à¤ķ à¥įà¤·
à¤¿à¤¯ à¤¨
à¤¿à¤² à¥ĩ
à¤¿à¤µ à¥ĩà¤¶
à¤ļ à¤¾à¤°
à¥Ģà¤Ł à¤°
à¥Ĥ à¤¦
à¥įà¤° à¤¾à¤ľà¥įà¤¯
à¦ªà§Ĥà¦°à§įà¦¬ à¦¾à¦¬à§įà¦¦
à¦°à§įà¦ ĺ
à¦°à§įà¦ Ń
à¦°à§įà¦ľ à¦¾à¦¤
à¦°à§įà¦ľà¦¾à¦¤ à¦¿à¦ķ
à¦¾à¦ ¯
à¦¾à¦¯à¦¼ à§ģ
à¦¾à¦² à§Ģ
à¦¿à¦ ¹
à¦¿à¦ ī
à¦¿à¦¤ à§įà¦¬
à¦¿à¦¨ à¦¿
à¦¿à¦¨à§įà¦¦ à§ģ
à¦Ĺà§ģà¦² à¦¿à¦°
à¦ľ à§įà¦ŀ
à¦Ł à¦¿à¦ķà§ĩ
à¦Ń à¦¾à¦¬
à§Ĥ à¦°
à§ĭ à¦Ń
à§įà¦¯ à¦¾à¦¤
à§įà¦¯à¦ ¸
à§įà¦¯à¦¾à¦° à¦¾à¦Ĺà§ģà¦¯à¦¼
à§įà¦² à§ĩà¦ĸ
à®£ à®®à¯į
à®¤à¯įà®¤ à¯ģà®µ
à®ªà¯Ĭ .à®Ĭ.
à®ªà¯įà®ªà®Ł à¯ģà®ķà®¿à®©à¯įà®±à®©.
à®¯ à®®à¯į
à®° à¯Ī
à®°à¯ģà® Ł
à®¾à®ķà®µ à¯ģà®®à¯į,
à®ķà®° à¯įà®¤à¯įà®¤
à®ķà¯ĭ à®²
à®ķà¯įà®ķà® ®
à®ļ à¯Ģ
à®ŀà¯įà®ļ à®²
à¯ģà®± à¯Ī
à¯ģà®ķà¯įà®ķ à®¾à®©
à¯Ĩ à®´
à¯Ĭ à®©à¯įà®±à¯ģ
à¯įà®¨ à¯ģà®Łà¯įà®ª
âĶ Ģ
åŃ ¦
Ġ ^
Ġ ice
Ġ id
Ġ ign
Ġ urn
Ġ! =
Ġ$ i
Ġ$\ sigma
Ġ( D
Ġ( p
Ġ(" b",
Ġ- >
Ġ0. 5
Ġ14 ,
Ġ200 0
Ġ6 4
Ġ< -
ĠAust ral
ĠChe ck
ĠComm ission
ĠCor por
ĠD oes
ĠDiv ision
ĠE arth
ĠE very
ĠF ran
ĠF ried
ĠH all
ĠH amilton
ĠH aw
ĠH er
ĠJanuary ,
ĠL ord
ĠP al
ĠP ubl
ĠQu estion
ĠS erv
ĠTh urs
ĠUn ited
ĠUs ing
ĠW ill
Ġ[ ]
Ġ\ geq
Ġ_make _type_verifier
Ġa .
Ġa stronom
Ġa w
Ġach ieve
Ġar b
Ġask ed
ĠaÃ± os
Ġbl og
Ġc art
Ġc at
Ġc ps
Ġch all
Ġcirc uit
Ġcompan ies
Ġcomplex ity
Ġd ied
Ġdata .
Ġdepart ment
Ġdia gram
Ġdif f
Ġdiv ided
Ġdriv ing
Ġe u
Ġent ire
Ġex am
Ġex amples
Ġext ra
Ġf aces
Ġf ul
Ġfav or
Ġform er
Ġfund ament
Ġg ave
Ġg ran
Ġgrand e
Ġgu ys
ĠgÃ©ner o
Ġim ag
Ġin du
Ġin j
Ġinsur ance
Ġinterest ing
Ġl im
Ġlangu age
Ġlat est
Ġloc ations
Ġm ad
Ġm o
Ġmin or
Ġmole cular
Ġmu y
Ġn ose
Ġoff ic
Ġp ool
Ġpartition Func
Ġper fect
Ġpobl aciÃ³n
Ġpolit ical
Ġprodu ction
Ġqu ick
Ġr ound
Ġre le
Ġrece ive
Ġrecomm end
Ġrespon s
Ġro ll
Ġro ot
Ġs ides
Ġs oci
Ġs un
Ġsche du
Ġse a
Ġserv ic
Ġset s
Ġsl ight
Ġstring ,
Ġsu ite
Ġt al
Ġt ang
Ġt arget
Ġt ick
Ġthan ks
Ġthis ,
Ġtra vel
Ġup d
Ġused .
Ġutil iz
Ġv irt
Ġà¤¡ à¥ī
Ġà¤¤à¤° à¤¹
Ġà¤¨à¤¿à¤° à¥įà¤®
Ġà¤ª à¤¿à¤¤à¤¾
Ġà¤ª à¥Ģ
Ġà¤ª à¥Ī
Ġà¤ªà¤¹à¤² à¥Ģ
Ġà¤ªà¥įà¤° à¤¤à¥įà¤¯
Ġà¤ªà¥įà¤° à¤µ
Ġà¤ªà¥įà¤° à¤¸à¤¿à¤¦à¥įà¤§
Ġà¤®à¤¹ à¤¾à¤¨
Ġà¤°à¤¹ à¥ĩà¥¤
Ġà¤°à¤¾à¤ľ à¤¾
Ġà¤µ à¤°à¥įà¤¤à¤®à¤¾à¤¨
Ġà¤µ à¤¾à¤¦
Ġà¤µà¤¾à¤² à¤¾
Ġà¤µà¤¿à¤¶à¥įà¤µ à¤µà¤¿à¤¦à¥įà¤¯à¤¾à¤²à¤¯
Ġà¤¶à¤¾à¤¸ à¥įà¤¤à¥įà¤°à¥Ģ
Ġà¤¸ à¥Ĥà¤°à¥įà¤¯
Ġà¤¸à¤¨ à¥į
Ġà¤¸à¥įà¤¥à¤¾à¤ª à¤¨à¤¾
Ġà¤¹à¤¿à¤¸à¥įà¤¸ à¤¾
Ġà¤¹à¥ģà¤Ī à¥¤
Ġà¤ħ à¤¤à¥įà¤¯
Ġà¤ħ à¤¬
Ġà¤ħà¤¨ à¥įà¤¤
Ġà¤ĩ à¤Ĥà¤¡
Ġà¤īà¤¤à¥įà¤¤ à¤°à¥Ģ
Ġà¤ķ à¥ĩà¤Ĥà¤¦à¥įà¤°
Ġà¤ķ à¥Į
Ġà¤ľ à¥Ģ
Ġà¤Ŀà¤¾à¤°à¤ĸ à¤£à¥įà¤¡
Ġà¥¨à¥¦ à¥§à¥
Ġà¦ Ĳ
Ġà¦¦à¦ķà§įà¦·à¦¿à¦£ à§ĩ
Ġà¦¬ à¦°à§įà¦Ĺ
Ġà¦¬à¦¸ à¦¤à¦¿
Ġà¦¬à¦¾à¦ £à¦¿à¦ľ
Ġà¦¬à¦¿à¦ ·
Ġà¦¬à¦¿à¦¸ à§įà¦¤
Ġà¦®à¦§ à§įà¦¯
Ġà¦®à§Ĥà¦² à¦¤
Ġà¦°à¦¾à¦ľ à¦¨à§Īà¦¤à¦¿à¦ķ
Ġà¦² à¦ķà§įà¦·
Ġà¦¶ à¦ķà§įà¦¤
Ġà¦¸ à§įà¦¤
Ġà¦¸à¦Ń à§įà¦¯à¦¤
Ġà¦¸à§Ģà¦®à¦¾à¦¨ à§įà¦¤
Ġà¦¸à§įà¦¥à¦¾à¦ª à¦¨
Ġà¦¹ à¦¾à¦ľà¦¾à¦°
Ġà¦Ĩà¦¨à§įà¦¤ à¦°à§įà¦ľà¦¾à¦¤à¦¿à¦ķ
Ġà¦ĩà¦Ĥ à¦°à§ĩà¦ľ
Ġà¦īà¦¤à§įà¦¤à¦° à§ĩ
Ġà¦īà¦ªà¦ķ à§Ĥà¦²
Ġà¦ıà¦¶ à¦¿à¦¯à¦¼à¦¾à¦°
Ġà¦ıà¦ĸ à¦¾à¦¨à§ĩ
Ġà¦ľ à§ģà¦¡à¦¼à§ĩ
Ġà¦Ł à§ĩà¦¨à¦¿à¦¸
Ġà¦Ńà¦¾à¦°à¦¤ à§Ģà¦¯à¦¼
Ġà¦Ńà¦¾à¦°à¦¤ à§ĩà¦°
Ġà§§à§ «
Ġà§¨ à§¦à§¦
Ġà®¤ à®±à¯įà®ķ
Ġà®¤à®ª à®¾à®²
Ġà®¤à®±à¯įà®ª à¯ĭà®¤à¯ģ
Ġà®¤à¯Ĭà®Ł à®Ļà¯įà®ķ
Ġà®¤à¯Ĭà®Ł à®Ļà¯įà®ķà®¿à®¯
Ġà®¨ à®¿à®¯à¯Ĥ
Ġà®¨à®Ł à¯Īà®ª
Ġà®ª à®¾à®£
Ġà®ª à¯ģà®ķà®´
Ġà®ªà®ķà¯ģà®¤à®¿à®¯ à®¿à®²à¯į
Ġà®ªà¯Ĩ à®¯
Ġà®ªà¯ĭ à®²
Ġà®®à¯Ĥ à®©à¯įà®±à¯ģ
Ġà®®à¯ĩ à®³
Ġà®µ à®¾à®°
Ġà®ħà®® à¯įà®ļ
Ġà®ħà®®à¯Ģà®° à®ķà®¤à¯įà®¤
Ġà®ħà®° à®ªà¯ģ
Ġà®ħà®±à®¿à®µ à®¿à®¯à®²à¯į
Ġà®ĩ à®¨à¯įà®¨
Ġà®ĩà®°à®¾à®ļ à¯įà®ļà®¿à®¯
Ġà®ĩà®² à®£à¯įà®Ł
Ġà®ī à®£à¯įà®Ł
Ġà®īà®±à¯ģà®ªà¯įà®ª à®¿à®©
Ġà®İà®©à¯įà®ª à®©
Ġà®ı à®±à¯įà®±
Ġà®ķ à®¿à®±
Ġà®ķà®£ à®ķà¯įà®ķ
Ġà®ķà®Łà¯įà®Ł à¯ģà®®à®¾à®©
Ġà®ķà®Łà¯įà®Łà®¿à®Ł à®®à¯į,
Ġà®ļ à®¿à®©à¯įà®©
Ġà®ļ à¯ģà®©à¯įà®©à®¿
Ġà®ļà¯Ĩà®¯ à®²
Ġà®ļà¯ĭ à®´
Ġà®Ł à¯Ĩ
Ġâ Ī
( row
(at ):
(cl s,
(f ace
) =
- ch
- à¤¸
- à¦ı
-1 3
-dimension al
.p redict
.t ree
00 ,
2 ),
9 )
9 7
= {
? ),
C T
Com put
G e
I D
I V
Iter ations
L U
Max imum
S P
S ample
V M
[ 0,
[Row( name
\b ar
^2 x
_ 1,
_ inf
_2 $
_local ize
_s pill
_st ring
ab et
able .
ack age
ail y
ak es
am ps
amp ions
ar ,
ar mon
ar qu
at ives
at re
at ro
cre te
cs i
d own
d stream
e ur
ec ause
el ,
el ength
en ces
en ing
enc ies
er k
erc ial
est er
ex cept
f ill
f loat
f un
fin ition
g al
he l
he tic
i i
i us
ic ious
ic s.
ick le
ier t
il le
ip art
ir al
is .
ity .
iÃ¨ me
jed rez
l Ã©
lores c
m ,
not e
o ber
o pl
od ay
on ym
ot tom
our c
ov ed
per ty
plit ude
pon ent
pos it
publ ique
r ig
re ,
res ,
s ize
se ct
se ed
sec utive
uc le
uest ions
un ities
un t
unic ip
ur as
ust r
ver sion
wh ile
wise ,
x .
ÃŃ a,
ÃŃ o
Î ¿
à¤¤à¥įà¤¤ à¤°
à¤¤à¥įà¤¤ à¥įà¤µ
à¤¤à¥įà¤¯ à¤¾à¤¦à¤¿
à¤ªà¥ģà¤° ,
à¤® à¥įà¤®
à¤¯ à¤¾
à¤° à¤¾à¤·à¥įà¤Łà¥įà¤°à¥Ģà¤¯
à¤µ à¥ĩà¤¦
à¤¸ à¥Ĥ
à¤¸à¥Ĥ à¤¤à¥įà¤°
à¤¾à¤¹ à¥Įà¤°
à¤¾à¤ı à¤Ĥ
à¤¿à¤ ¬
à¤ĩ à¤¨
à¤ķà¥ĭ à¤¶
à¤ĸà¤¨ à¤Ĭ
à¤Ĺà¤£ à¤¨à¤¾
à¥ĥ à¤¦à¥įà¤§
à¦¤ à¦¨à§įà¦¤à§įà¦°
à¦¤ à§ģà¦¨
à¦¦ à§Ģ
à¦ª à¦¶à§įà¦ļà¦¿à¦®
à¦¯ à¦¾à¦¯à¦¼à§Ģ
à¦¯ à§ģà¦ķà§įà¦¤
à¦¹ à¦£
à¦¾à¦°à§įà¦¬ à¦¾à¦¡
à¦¾à¦Ł à¦¿
à¦Ĺà§ģà¦² à§ĭ
à§ĩà¦® à¦¨
à§ĭ à¦¨
à®¤ à®©à¯į
à®¤à¯įà®¤ à®ķà¯įà®ķ
à®© à¯ĩ
à®® à¯ģà®®à¯į,
à®® à¯įà®ļ
à®°à¯ĭ à®ªà¯įà®ª
à®°à¯įà® ķà¯įà®ķ
à®± à¯įà®ķà®
à®³à®µ à¯ģ
à®µ à®Ł
à®¾à®® à¯įà®ª
à®¾à®² à®¾à®©
à®¾à®Ļà¯įà®ķ à¯ģà®´
à®¿à®© .
à®¿à®¯ à®¤à¯ģ.
à®¿à®°à¯ģà® ªà¯įà®ª
à®ķà¯įà®ķà® µ
à®ļ à¯Ĭ
à®Ł à¯įà®ļ
à¯Ģ à®©à¯į
à¯ģà®µ à®²
à¯ģà®ķà®³ à®¿à®²à¯į
à¯Īà® ¨à¯įà®¤à¯ģ
à¯Īà®ķà¯įà®ķà® °à¯ģà®µ
à¯Ĭ à®¤à¯įà®¤
à¯ĭ à®¤à¯ģ,
à¯įà®² à®¾à®Ļà¯įà®ķà¯ģà®´
à¯įà®ķ à®¾à®²
á ¼
ä ½
ä» ¥
Ġ """
Ġ ~
Ġ' 11
Ġ( d
Ġ( à¤ª
Ġ( à¤ľà¤¨à¥įà¤®
Ġ0 )
Ġ1 $
Ġ1 01
Ġ1 5,
Ġ19 ,
Ġ19 4
Ġ2 5,
Ġ2 :
Ġ200 4
Ġ200 7
Ġ201 1.
Ġ201 2,
Ġ3 4
Ġ4 8
ĠA u
ĠAc adem
ĠAl gebra
ĠAm iga
ĠAng el
ĠCl imate
ĠCur rent
ĠDe cember
ĠE nt
ĠEng lish
ĠEu rop
ĠF ood
ĠHe alth
ĠI I
ĠI ll
ĠInstit ute
ĠIntern et
ĠIâĢĻ m
ĠJ es
ĠL ibrary
ĠM ex
ĠM od
ĠM us
ĠNew ton
ĠO S
ĠO h
ĠO ut
ĠOb ama
ĠP DF
ĠPhys ics
ĠR E
ĠR uss
ĠS Q
ĠS an
ĠT H
ĠT op
ĠWe ek
ĠWh ich
Ġ\ $
Ġ\ end
Ġ_parse _datatype
Ġa ware
Ġact ive
Ġadd ing
Ġallow ed
Ġang les
Ġappe ars
Ġarg uments
Ġb and
Ġbuck ets
Ġc ada
Ġc arg
Ġcalcul ate
Ġcas es
Ġch osen
Ġciv il
Ġcl ick
Ġcl ock
Ġco il
Ġcon duct
Ġcon ference
Ġcon ne
Ġd ise
Ġd iver
Ġdeg ree
Ġdescrib e
Ġdf. select
Ġdirect ly
Ġdis co
Ġdis p
Ġe .g.
Ġe ff
Ġe fficient
Ġe igen
Ġed ited
Ġen sure
Ġespac io
Ġevery one
Ġex cept
Ġexist ing
Ġexp and
Ġf air
Ġf aster
Ġf em
Ġfin ancial
Ġfin ished
Ġfl at
Ġfun c,
Ġgeneral mente
Ġgu erre
Ġh it
Ġh ot
Ġident ified
Ġin c
Ġinst r
Ġint ,
Ġk nn
Ġk v
Ġl ay
Ġl in
Ġle d
Ġle mon
Ġlo op
Ġm Ã©t
Ġma is
Ġme eting
Ġmov ing
Ġname =u'Alice
Ġnecess ary
Ġob l
Ġoff ice
Ġos. path.
Ġover all
Ġp a.
Ġp le
Ġp o
Ġpart ir
Ġpat tern
Ġplan e
Ġpol ar
Ġpol y
Ġpop ul
Ġpres ident
Ġprodu ce
Ġprote ct
Ġpued en
Ġqu al
Ġqu ot
Ġra p
Ġrandom .
Ġre fer
Ġrel ated
Ġres ource
Ġrest aur
Ġs ometimes
Ġs ong
Ġs ont
Ġself._s c.
Ġset ting
Ġst ar
Ġst y
Ġt end
Ġt our
Ġtant o
Ġte acher
Ġthem sel
Ġtip o
Ġtop ics
Ġuse ful
Ġw ave
Ġwh ite
Ġwon 't
Ġwon der
Ġ{ x
ĠÃ¡ rb
Ġà¤ ł
Ġà¤¦à¤¿à¤² à¥įà¤²à¥Ģ
Ġà¤¦à¥Ĥà¤¸ à¤°à¥ĩ
Ġà¤¦à¥ĩà¤µ à¤¨à¤¾à¤Ĺà¤°à¥Ģ
Ġà¤¦à¥ĩà¤ĸ à¥ĩà¤Ĥ
Ġà¤¦à¥įà¤µ à¥Ģà¤ª
Ġà¤ªà¥Ĥ à¤°à¥įà¤£
Ġà¤ªà¥įà¤° à¤¶à¤¾à¤¸
Ġà¤ªà¥įà¤° à¤¾à¤¯
Ġà¤ªà¥įà¤° à¤¾à¤Ĥà¤¤
Ġà¤ªà¥įà¤°à¤¾à¤ķà¥ĥà¤¤ à¤¿à¤ķ
Ġà¤¬ à¤¾à¤¹
Ġà¤¬à¥Į à¤¦à¥įà¤§
Ġà¤¯à¤¹ à¤¾à¤Ĥ
Ġà¤² à¤¾à¤ĸ
Ġà¤µà¥Ī à¤ľà¥įà¤ŀà¤¾à¤¨à¤¿à¤ķ
Ġà¤¶ à¥Ī
Ġà¤¸ à¥Į
Ġà¤¸à¤¿à¤Ĥ à¤§
Ġà¤¸à¤¿à¤Ĥ à¤¹
Ġà¤¸à¤Ń à¤¾
Ġà¤ħ à¤¥
Ġà¤Ĩ à¤¤à¥įà¤®
Ġà¤Ĩ à¤Ĺà¤°à¤¾
Ġà¤ĩ à¤¤à¥įà¤¯à¤¾à¤¦à¤¿
Ġà¤īà¤¦à¥įà¤¯ à¥ĭà¤Ĺ
Ġà¤ĳ à¤¸à¥įà¤Łà¥įà¤°à¥ĩà¤²
Ġà¤ķà¤® à¥įà¤ª
Ġà¤ķà¤µ à¤¿
Ġà¤ķà¥įà¤° à¤®
Ġà¤Ĺà¤¯ à¥Ģ
Ġà¤Ĺà¤¾à¤Ĥ à¤§à¥Ģ
Ġà¤ĺ à¥ĭà¤·
Ġà¤ľ à¤²
Ġà¤ľ à¤¾à¤ªà¤¾à¤¨
Ġà¤ľ à¤Ĺ
Ġà¥ ª
Ġà¦¦ à¦¶
Ġà¦§ à¦°à§ĩ
Ġà¦ªà¦°à§įà¦¬ à¦¤à¦®
Ġà¦ªà§įà¦°à¦¤à¦¿à¦ ·à§įà¦ł
Ġà¦¬à¦°à§įà¦¤à¦®à¦¾à¦¨ à§ĩ
Ġà¦¶à¦¤à¦¾à¦¬à§įà¦¦ à§Ģà¦°
Ġà¦¸ à§Įà¦°
Ġà¦¸à¦°à§įà¦¬ à§ĭ
Ġà¦¸à§įà¦¬à¦¾à¦§à§Ģà¦¨ à¦¤à¦¾
Ġà¦¹ à¦ļà§įà¦Ľ
Ġà¦¹à¦¯à¦¼ à§ĩà¦Ľà§ĩ
Ġà¦¹à¦¯à¦¼ à§ĩà¦Ľà§ĩà¥¤
Ġà¦ħ à¦¤
Ġà¦īà¦² à§įà¦²à§ĩà¦ĸ
Ġà¦ıà¦² à¦¾à¦ķ
Ġà¦ĵ à¦¶à§ĩà¦¨
Ġà¦ķ à§įà¦°à§Ģ
Ġà¦ķà¦° à§ĩà¦Ľà§ĩà¥¤
Ġà¦ļ à¦¾à¦°
Ġà¦ľà¦¾à¦¤ à§Ģà¦¯à¦¼
Ġà¦Ńà¦¾à¦· à¦¾à¦°
Ġà®¤à¯Ģ à®µ
Ġà®¤à¯Ĩà®©à¯įà®© à®¿à®¨à¯įà®¤à®¿à®¯
Ġà®¤à¯Ĭà®´à®¿à®² à¯įà®¨à¯ģà®Łà¯įà®ª
Ġà®ªà¯Ĭà®¤à¯ģà®µ à®¾à®ķ
Ġà®® à®¾à®©
Ġà®® à®¾à®Ł
Ġà®®à¯ģà® ¨à¯įà®¤
Ġà®µà®°à®²à®¾à®±à¯įà®± à¯ģ
Ġà®ĩà®°à®¾à®ķà® Ļà¯įà®ķà®³à¯į
Ġà®ĩà®ķà¯įà®ķà® Łà¯įà®Łà®¿à®Ł
Ġà®īà®£à¯įà®Ł à¯ģ.
Ġà®īà®³à¯įà®³ à®Ł
Ġà®ķà®¾à®Ł à¯įà®ļà®¿à®¯
Ġà®ķà¯Ĭà®£à¯įà®Ł à¯ģà®³à¯įà®³à®¤à¯ģ.
Ġà®ļ à¯ģà®®
Ġà®ļ à¯ģà®µ
ŀ à®¾à®©
$ x
( S
( v
(rdd .
(t _2
* s
- L
- sh
-1 8
-de pendent
-year -old
. h
1 ",
6 %
: **
: 1
= '
=True )
=u'Bob ')]
A ut
B F
ByKey (
D Stream
D avid
Func ,
G ener
I m
In fo
J oin
L ocal
Loc ation
M EM
M at
ML lib
MLlib Func
Qu estion
Re ad
S im
T )
T itle
[ ('a',
[ i
[Theta ]
\ phi
\ text{
\ us
\sqrt{1+ t}
\us ep
\usep ackage
^ d
^ k
_con f.
_d oc
_h ash
_{ 1}
able _hash
ac ing
ag u
age |
al gÃ¨bre
am m
ann ed
at ,
av es
b o
c el
c ole
call ("
che ck
cl os
com m
con v
cur rent
de g
ed d
el .
ence ,
er 's
er d
ers hip
ert ia
es )
es e
est .
fere nt
g ed
get Num
h om
i et
i om
i Ã©
ian o
ic le
ic ular
if ies
ighb ors
im ation
ing u
int s
ip es
it ted
j a
j c
ke y,
l n
l or
led ge
line ar
n y
od ing
on al
orage _level
os h
ph ism
pr ise
pro du
ps i
qu ad
r ical
ract ure
ray Type(
ri z
ric a
rip ciÃ³n
ro c
ro te
self. _
su ite
sum _{
t .
ta ke
text color
tr as
try :
uff le
us ing
wh ich
x ual
z .
z y
{n }_{
| age|
|| 1,
|| The
} .
} \right)
}^{\infty }
ª à§Ń
Â °
Â ²
ÂłĠÂłĠÂłĠÂłĠ ÂłĠÂłĠÂłĠÂłĠ
Ã³d ig
ÃŃ m
ÃŃ n
ÃŃ st
Ï Ħ
à¤£ à¥Ģ
à¤¦ à¤¾à¤¯
à¤¨ ,
à¤¨ à¤¾à¤®
à¤ªà¥įà¤° à¥Īà¤²
à¤¯ à¤Ĥ
à¤¯ à¥ĩ
à¤° à¤¿à¤¤
à¤° à¥įà¤°
à¤¸ à¤¾à¤Ī
à¤¸ à¤¿à¤¤
à¤¸à¥įà¤ķà¥ĥà¤¤ à¤¿à¤ķ
à¤¾à¤¨ ,
à¤¾à¤® à¥Ģ
à¤¾à¤° à¥įà¤¥
à¤¾à¤µ à¤¾
à¤¾à¤ģ à¤¸
à¤¿à¤¤ à¥Ģà¤¯
à¤¿à¤¸ à¥įà¤Ł
à¤ķ à¤µ
à¤ķ à¥ĥà¤¤
à¤ļ à¤²
à¤Ł à¤°
à¤Ń à¤¾à¤·
à¥ĭ à¤¨
à¥įà¤ Ľ
à¥įà¤µ à¤¾à¤¨
à¦¤à§įà¦¤ à§įà¦¬
à¦¬ à¦¾
à¦° à¦¾à¦¨
à¦° à§ģ
à¦¸ à§įà¦¬
à¦¾ à§İ
à¦¾à¦°à§įà¦¬ à¦Ń
à¦¾à¦°à§įà¦¬à¦¾à¦¡ à§ĭà¦¸
à¦¾à¦°à§įà¦¬à¦Ń à§Į
à¦¾à¦°à§įà¦¬à¦Ńà§Į à¦®
à¦¾à¦ĩ à¦²
à¦ĩ à¦¤à¦¿à¦¹à¦¾à¦¸
à¦ķ à¦¾à¦¶
à¦Ĺ à§ĭà¦²
à¦Ļà§įà¦Ĺ à§ĭà¦ª
à§ģ à¦ķ
à§ģ à¦ľ
à§ģà¦°à§ģ à¦¤à§įà¦¬
à§ĩà¦ ¡
à§įà¦¯à¦ ¨à§įà¦¤
à®£à¯įà®Ł à¯Ī
à®£à¯įà®Ł à¯Īà®¯
à®¤ à®¾à®¯
à®¤ à®¾à®ķ
à®¤ à®¾à®ķà¯ģà®®à¯į.
à®¤ à¯ģà®µ
à®¤ à¯ģà®ķà¯įà®ķà®
à®¤ à¯ĩà®ļ
à®¤à¯įà®¤ à¯Īà®ķà¯į
à®¤à¯įà®¤à®¿à®±à¯įà®ķ à¯ģ
à®ªà¯įà®ª à®ķà¯ģà®¤à®¿à®¯
à®® à®ķ
à®®à¯į :
à®° à®µ
à®³à®µ à®¿à®²à¯į
à®µ à®¿à®²
à®¿à®© à®¾à®°à¯į.
à®¿à®©à¯į ,
à®¿à®² à®¾à®©
à®¿à®ļ à¯įà®ļ
à®¿à®Ł à¯Īà®¯à¯ĩ
à®ĩ à®µà®±à¯įà®±
à®ķ à®¿à®°
à®ķà® ©
à®ķà¯įà® ķà®³
à®ķà¯įà® ļ
à®Ļà¯įà®ķà®³ à®¿à®©à¯į
à®Ļà¯įà®ķà®³ à¯Īà®¯à¯ģà®®à¯į
à®Ł à¯Ī
à®Ł à¯įà®ª
à¯Ģ à®¤
à¯ģà®µà®° à®¤à¯įà®¤à¯ģ
à¯ģà®Łà®©à¯į ,
à¯Ĥ à®Łà¯įà®Ł
à¯ĩ à®®
à¯Īà®¤à¯įà®¤ à¯ģ
à¯Īà®ķà®³ à¯Ī
à¯ĭ à®°à¯į
à¯įà®Ł à¯įà®¸à¯į
âĢ Į
âĢ¦ ]
âĭĬS 3
ç »
è ®
Ġ 01
Ġ ess
Ġ ing
Ġ$ C
Ġ$ H
Ġ$ t
Ġ$G $
Ġ( 3,
Ġ( en
Ġ( most
Ġ(1 99
Ġ(e.g. ,
Ġ1 -
Ġ2 3,
Ġ201 5
Ġ201 7
Ġ3 :
ĠA cc
ĠA f
ĠAP I
ĠAnd orra
ĠAr row
ĠAt l
ĠB el
ĠC ity
ĠCh rom
ĠE ach
ĠE lect
ĠE sp
ĠF in
ĠFried berg
ĠG auss
ĠG rand
ĠGener al
ĠH ill
ĠIn formation
ĠIn ter
ĠInt roduction
ĠIr ish
ĠIt âĢĻs
ĠJ e
ĠJ ournal
ĠL in
ĠL inear
ĠM AT
ĠM ac
ĠM ill
ĠM ot
ĠN ote
ĠP ark
ĠP at
ĠP aul
ĠQ uestions
ĠR ed
ĠR iver
ĠR ow
ĠRe :
ĠS .
ĠS ocial
ĠS ub
ĠSt and
ĠSt re
ĠSy stem
Ġ[ 0,
Ġ[ âĢ¦]
Ġ\ begin
Ġ\ mathfrak
Ġ_make_type_verifier (
Ġa qu
Ġac ademic
Ġaff ine
Ġal f
Ġam pl
Ġant igu
Ġappl ied
Ġar bitrary
Ġaut omat
Ġb ur
Ġback ground
Ġball s
Ġbir th
Ġbound ed
Ġbox es
Ġbrows er
Ġc a
Ġc ause
Ġc ooking
Ġc ours
Ġcalcul ated
Ġcall MLlibFunc
Ġcaus ed
Ġchem ical
Ġcl imb
Ġclasific aciÃ³n
Ġconst ru
Ġd ot
Ġdeg ener
Ġdens ity
Ġdent ro
Ġdig s
Ġdirect ory
Ġdis c
Ġdiscus s
Ġdiscus sion
Ġdiv ision
Ġe ight
Ġeff ort
Ġeffect ive
Ġen joy
Ġer a
Ġest ud
Ġest Ã¡n
Ġev ents
Ġev olution
Ġext rem
Ġf ait
Ġfac ult
Ġfollow ed
Ġfriend s
Ġg ifts
Ġget_ used_memory
Ġgrow th
Ġh u
Ġhe at
Ġi Phone
Ġindust ri
Ġins ide
Ġinst all
Ġinst ant
Ġinter pret
Ġinterest ed
Ġintern al
Ġis csi
Ġisinstance( obj,
Ġiter ations
Ġle af
Ġloc ally
Ġm arg
Ġm is
Ġm unicip
Ġmanag er
Ġmark eting
Ġmathemat ics
Ġme ant
Ġmodel .
Ġnacional idad
Ġne ar
Ġnumber .
Ġo Ã¹
Ġone .
Ġopt ion
Ġother ):
Ġother .
Ġp ose
Ġp red
Ġp. m.
Ġparam eters
Ġplay ers
Ġpre p
Ġpro ced
Ġproblem .
Ġpyspark. sql.
Ġqu arter
Ġre placement
Ġredu ction
Ġreg ist
Ġrel ation
Ġrepresent ed
Ġs ales
Ġs oc
Ġs or
Ġsc en
Ġsc ience
Ġself. call("
Ġser ve
Ġserv ices
Ġsh ape
Ġsh op
Ġsign al
Ġsistem a
Ġst e
Ġstr (
Ġsy n
Ġsystem .
Ġte ach
Ġteam s
Ġthe ore
Ġtien en
Ġtou ch
Ġtrans formation
Ġtrans ition
Ġtri angle
Ġturn ed
ĠtÃ© rm
Ġunder lying
Ġv en
Ġvari abl
Ġvari ation
Ġwe 're
Ġwin ter
Ġyour self
Ġ{ }
Ġà¤¥à¥Ģà¤Ĥ à¥¤
Ġà¤¦ à¤¿à¤¸
Ġà¤¦ à¤¿à¤ĸ
Ġà¤¦ à¥Ĥà¤°
Ġà¤¦à¤¶ à¤ķ
Ġà¤¦à¥Ĥà¤¸ à¤°à¤¾
Ġà¤¨ à¤¦
Ġà¤ª à¤¤à¥įà¤°
Ġà¤ªà¤° à¤¿à¤Ńà¤¾à¤·
Ġà¤ªà¥Ĥ à¤°à¥ĩ
Ġà¤ªà¥įà¤° à¤¶
Ġà¤® à¥ģà¤¸
Ġà¤®à¤² à¤¯
Ġà¤®à¤¿à¤² à¤¤à¤¾
Ġà¤° à¤¸
Ġà¤° à¥ģà¤ª
Ġà¤°à¤ļ à¤¨à¤¾
Ġà¤²à¤¿à¤ªà¤¿ ,
Ġà¤µà¤¿à¤¦ à¥įà¤µà¤¾à¤¨
Ġà¤¶ à¤¾à¤ĸ
Ġà¤¶à¥ģà¤° à¥Ĥ
Ġà¤¸ à¥ģ
Ġà¤¸ à¥įà¤ķ
Ġà¤¸à¤¾à¤® à¥įà¤°à¤¾à¤ľà¥įà¤¯
Ġà¤¹ à¤¾à¤²
Ġà¤ħà¤§à¤¿à¤ķ à¤¾à¤°
Ġà¤ħà¤§à¥įà¤¯ à¤ķà¥įà¤·
Ġà¤ħà¤°à¥įà¤¥ à¤¾à¤¤
Ġà¤ķ à¤¹à¤²
Ġà¤ķ à¤ł
Ġà¤ķ à¥ģà¤²
Ġà¤ķ à¥Ī
Ġà¤ķà¤° à¤¤à¥Ģ
Ġà¤ķà¥ĭ à¤²
Ġà¤ķà¥ĭ à¤¶
Ġà¤Ĺ à¥ģà¤°
Ġà¤Ĺ à¥ĭà¤²
Ġà¤ľ à¥Ĥà¤¨
Ġà¤Ńà¥Ĥà¤® à¤¿
Ġà¥ ©
Ġà¦¦ à¦²à§ĩà¦°
Ġà¦¦à§ģ à¦Łà¦¿
Ġà¦§ à¦°à§įà¦®
Ġà¦¨à¦¿à¦°à§įà¦ ¦
Ġà¦ª à§įà¦¯à¦¾à¦°à¦¾à¦Ĺà§ģà¦¯à¦¼
Ġà¦ªà¦° à¦¿à¦¬
Ġà¦ªà¦°à§įà¦¬à¦¤à¦® à¦¾à¦²
Ġà¦ªà§ĥà¦¥à¦¿à¦¬ à§Ģ
Ġà¦ªà§įà¦° à¦¤
Ġà¦ªà§įà¦°à¦¾à¦ķ à§ĥà¦¤à¦¿à¦ķ
Ġà¦¬ à¦¹
Ġà¦¬à¦² à¦¾
Ġà¦¬à¦¿à¦ ¬
Ġà¦¬à¦¿à¦· à¦¯à¦¼
Ġà¦¬à¦¿à¦Ń à¦ķà§įà¦¤
Ġà¦®à¦¾à¦ Ŀ
Ġà¦®à¦¾à¦¨à§ģà¦· à§ĩà¦°
Ġà¦¯ à§ģà¦¦à§įà¦§
Ġà¦¯à¦ ¦
Ġà¦¶ à¦¾à¦¸
Ġà¦¶ à§ĩà¦·
Ġà¦¶à¦¤ à¦ķà§ĩà¦°
Ġà¦¸ à§ĥà¦·à§įà¦Ł
Ġà¦¸à¦°à§įà¦¬à§ĭ à¦ļà§įà¦ļ
Ġà¦¸à§įà¦ª à§ĩà¦¨
Ġà¦ħà¦§à¦¿à¦ķ à¦¾à¦Ĥà¦¶
Ġà¦Ĩ à¦°à§įà¦ľà§ĩà¦¨à§įà¦Łà¦¿à¦¨
Ġà¦ıà¦¶ à¦¿à¦¯à¦¼à¦¾
Ġà¦ĵ à¦¯à¦¼
Ġà¦ķà§ĭ à¦¨
Ġà¦ļ à¦¾à¦ģ
Ġà§§à§ ¬
Ġà§§à§¯à§ «
Ġà®¤ à®¯
Ġà®¤à®² à¯Īà®®
Ġà®¤à¯Ĭ à®²
Ġà®¨ à®µà¯Ģà®©
Ġà®¨à®¾à®Łà¯įà®Ł à®¿à®©à¯į
Ġà®¨à®¿à®ķà®´ à¯įà®µ
Ġà®¨à¯Ĥà®±à¯įà®±à®¾à®£à¯įà®Ł à®¿à®²à¯į
Ġà®ª à¯ģà®¤à¯įà®¤
Ġà®ªà®¯à®©à¯įà®ªà®Łà¯ģà®¤à¯įà®¤ à®ªà¯įà®ªà®Łà¯įà®Ł
Ġà®ªà®¾à®° à¯įà®¤à¯įà®¤
Ġà®ªà¯ģà®µ à®¿à®¯à®¿à®¯à®²à¯į
Ġà®® à®¿à®²à¯įà®²
Ġà®® à¯Īà®¯
Ġà®®à¯ģà®©à¯įà®© à®°à¯į
Ġà®®à¯Ĥ à®©à¯įà®±
Ġà®µ à®²
Ġà®µ à®Ļà¯įà®ķ
Ġà®µà¯ĩ à®¤
Ġà®ħ à®ªà¯įà®ª
Ġà®ħà®®à¯Īà®ªà¯įà®ª à¯ģ
Ġà®ĩ à®ķà¯įà®ķà¯ĭ
Ġà®ĩà®µ à¯Ī
Ġà®ī à®°
Ġà®İ à®£à¯įà®£
Ġà®İà®´à¯ģà®¤ à®ªà¯įà®ªà®Łà¯įà®Ł
Ġà®ıà®´ à¯ģ
Ġà®Ĵ à®³
Ġà®Ĵà®©à¯įà®± à®¾à®ķà¯ģà®®à¯į.
Ġà®Ĵà®´ à¯ģà®Ļà¯įà®ķ
Ġà®ķ à¯ģà®´
Ġà®ķà® ©à¯įà®©à®Ł
Ġà®ķà®² à¯Īà®ŀ
Ġà®ķà¯ĭà®ªà¯ģà®° à®®à¯į,
Ġà®ļ à®¿à®µ
Ġà®ļ à®Ļà¯įà®ķ
Ġà®ļà®¿à®± à®ªà¯įà®ª
Ġà®ļà¯ĩ à®ķà®°
Ġà®ļà¯Ĭ à®²à¯į
Ġà®ľ à¯Ĩ
$$ \
(b )
(other ._j
(s c,
(s c.
+ 3
++++ ++++
- 05
- A
- E
- value
- à¤ªà¥Ĥà¤°à¥įà¤µ
/ eq}
/ p
/2 011
0 6
2} }
3 3
3 4
4 1
4 ],
5 ),
5 5
5, 000
= 4
A k
B A
C ont
D esc
EM AIL
Error :
F }
G et
L ist
LA B
N N
N o
O T
P T
R C
R L
ST )
Se e
T C
T ext
Th ank
Wh y
[ [
\ times
\sqrt{1+ t
_ 4
_ f
_doc __
_face _locations
_j ava
_m odel
ace back
ache s
ain ed
al led
am es,
ampions hip
and er
ang les
append (
at o
atal og
ate .
ated .
aÃ ¯
b eta
box {
c an
c at
c ient
ce ed
ch ange
ch ar
ci pl
com ing
con st
day .
e f
ed om
ell ,
enc ias
end ant
erializ er.
ex o
f amil
f ess
fil ter
g s
getNum Partitions()
h as
i est
i y
ic are
idad es
iem po
ien e
if er
if ferent
ig in
ig ual
igon ometry
ik ip
il os
im s
in put
inf o.
is ect
ist ical
ist Ã¡n
it che
ive .
k y
land ,
m ation
m is
mark s
mathcal {
mllib .
od ore
ok y
on 't
ou nce
parse Vector
per io
point s[
pre ci
q .
r ang
r Ã¡
r Ã©
r ÃŃa
re me
reduce (
rel ated
ri um
rit er
rol lo
sc ill
spark _type
st at
st s
ta int
u per
um mary
un a
un ion
us iness
y s.
}{ 3}
£ å
« à¤¼
à¤¤ à¥įà¤¨
à¤¤à¤¨ à¥įà¤¤à¥įà¤°
à¤¤à¤¿à¤¹à¤¾à¤¸ à¤¿à¤ķ
à¤¨ à¤¾à¤¥
à¤¬ à¤¨à¥įà¤§
à¤® à¥Ģ
à¤® à¥ĩ
à¤° à¤µ
à¤° à¤¸
à¤° à¤¾à¤®
à¤² à¤Ĺ
à¤µ à¤¾à¤¹
à¤¸ à¤¨
à¤¾à¤¯ à¤£
à¤¾à¤Ł à¥Ģ
à¤¿à¤¤ à¥įà¤µ
à¤¿à¤¯ à¤¾à¤£
à¤¿à¤¯ à¥ĭ
à¤¿à¤² à¤¾
à¤¿à¤ķà¤¾à¤° à¤¿à¤ķ
à¤¿à¤Ĺ à¥įà¤°à¥Ģ
à¤¿à¤ľ à¤¼
à¤Ĺ à¤¸à¥įà¤¤
à¥Ĥ à¤ģ
à¥ĭà¤® à¥Ģà¤Łà¤°
à¥įà¤ ¶à¤¨
à¥įà¤° à¤¹
à¥įà¤°à¥Ģ à¤ķà¤¾
à¦ ĥ
à¦¨ à§įà¦¯
à¦¬ à¦¹
à¦¬ à¦Ļà§įà¦Ĺ
à¦¬ à§įà¦¯
à¦¯à¦¼ à§ĩà¦°
à¦° à§Ĥà¦ª
à¦°à§įà¦ ·
à¦¾à¦ ī
à¦¾à¦§ à§įà¦¯à¦¾à¦¯à¦¼
à¦¾à¦° à§Ģ
à¦¾à¦Ĺ à§ģà¦²
à¦¾à¦Ļà§įà¦Ĺ à§ĭà¦²
à¦¿à¦ §
à¦¿à¦ ¯
à¦¿à¦¯à¦¼ à¦¨
à¦¿à¦ķ à§ĩà¦°
à¦¿à¦ķ à§įà¦·
à¦ķ à¦°à¦£
à§ģà¦¯à¦¼ à¦¾à¦°
à§ĩà¦ ļ
à§ĩà¦¸ à§įà¦Ł
à§įà¦ £
à§įà¦Ń à¦¬
à®¤à¯įà®¤ à®¿à®©
à®®à¯įà®ª à®°à®¿à®¯
à®° à¯ģà®¤à¯įà®¤
à®°à¯įà®ķà®³à¯į :
à®± à¯į
à®² à®¾à®®à¯į.
à®µ à®°à¯įà®ķà®³à¯į
à®¾à® ķà¯įà®ķà®ªà¯įà®ªà®Łà¯įà®Ł
à®¾à®² à¯Ī
à®¾à®¸à¯įà®¤ à®¿à®°
à®¿à®¤à¯įà®¤ à¯ģ
à®¿à®©à¯įà®± à®¤à¯ģ.
à®¿à®® à¯ģà®ķà®
à®¿à®¯ à®°à¯į
à®¿à®¯à¯ĩ à®±à¯įà®±
à®¿à®² à¯ĩ
à®¿à®ķà®³ à®¿à®©à¯į
à®¿à®ķà®³à¯į ,
à®ĩ à®ļ
à®ķà® Ł
à®ķà®®à¯į ,
à®ķà®Łà¯įà®Łà®¿à®Ł à®ķà¯įà®ķà®²à¯Ī
à®Ļà¯įà®ķ à®¾à®°
à®Ļà¯įà®ķà® °
à®ļ à¯ģà®ķ
à®Ł à®¿
à®Ł à¯įà®°
à¯ģà®ª à®¿à®Ł
à¯ģà®° à®¿à®¯
à¯ģà®ķà®³ à¯ģà®®à¯į
à¯ģà®ķà®¿à®©à¯įà®± à®©à®°à¯į.
à¯ģà®ķà¯įà®ķ à¯ģà®ªà¯į
à¯Ĥ à®°à¯įà®µ
à¯Ĩ à®©à¯įà®±
à¯Īà®¯ à®¾à®ķà®ķà¯į
à¯ĭ à®©à¯į
à¯ĭà®Ł à¯ģ
æĸ ĩ
Ġ >>>
Ġ" S
Ġ$ y
Ġ$ {\
Ġ$$ F
Ġ$O (n
Ġ$\ pm
Ġ( 1,
Ġ( à¤ħ
Ġ(1 8
Ġ10 )
Ġ20 20
Ġ200 9
Ġ5 .
Ġ6 00
ĠA fter
ĠA v
ĠAmer ica
ĠB ol
ĠB row
ĠC 2
ĠC pG
ĠCal cul
ĠComm odore
ĠD ay
ĠDe velop
ĠDes ign
ĠE aster
ĠEsp aÃ±
ĠEx ception
ĠEx planation:
ĠF ourier
ĠFor um
ĠI II
ĠI' d
ĠIn c.
ĠInd ian
ĠIntern ational
ĠIt 's
ĠJ VM
ĠJohn son
ĠL at
ĠL og
ĠL ong
ĠM E
ĠM ember
ĠM ethod
ĠM ost
ĠMAT LAB
ĠN orte
ĠO per
ĠR ates
ĠR em
ĠR ock
ĠRe ad
ĠS N
ĠS ingle
ĠSe cond
ĠTh ank
ĠThe orem
ĠU K
ĠU lt
ĠV ir
Ġ[ "
Ġ\ dfrac{
Ġa head
Ġa ud
Ġa unque
Ġabs ol
Ġactiv ities
Ġactiv ity
Ġaddition ,
Ġal cal
Ġalph a
Ġam plitude
Ġann oun
Ġansw ers
Ġar m
Ġare as
Ġb are
Ġb ien
Ġb rought
Ġb ul
Ġbe aut
Ġbegin ning
Ġbene f
Ġbottom Right
Ġbus ines
Ġc in
Ġc ities
Ġc ook
Ġc ream
Ġc ritical
Ġc s
Ġc Ã©l
Ġcategorical Features
Ġch arge
Ġch art
Ġcho os
Ġcirc le
Ġclass ifier
Ġcol lege
Ġcom ment
Ġcompon ents
Ġcon secutive
Ġcons ists
Ġconsider ing
Ġcoordin ates
Ġcur ve
Ġcustom ers
Ġd ivers
Ġdata :
Ġde ep
Ġdefin itely
Ġden omin
Ġdep uis
Ġdev ient
Ġdis k
Ġdo ct
Ġdom in
Ġe j
Ġe mail
Ġex press
Ġexc ited
Ġexist s
Ġf resh
Ġfac ility
Ġfe ed
Ġfe et
Ġfield s
Ġful ly
Ġfundament al
Ġg amma
Ġg as
Ġg old
Ġgl obal
ĠgÃ©n Ã©
Ġh all
Ġh istory
Ġhapp y
Ġhe nce
Ġhigh ly
Ġide as
Ġimplement ation
Ġincre asing
Ġinequ ality
Ġinf lu
Ġiterator :
Ġk in
Ġkey =
Ġl if
Ġlik ely
Ġloc ation
Ġlong ,
Ġm argin
Ġm ix
Ġmax B
Ġmax Dep
Ġmeas ures
Ġmess age
Ġmet adata
Ġmot or
Ġmuch as
Ġn it
Ġnot ation
Ġoc Ã©
Ġon t
Ġopen ing
Ġother s
Ġp ric
Ġp rices
Ġpap er,
Ġpart e
Ġpart ÃŃcul
Ġpartic les
Ġper haps
Ġpl aces
Ġprem ier
Ġprog ress
Ġpropos al
Ġr ide
Ġre ach
Ġread ing
Ġreg ul
Ġremain ing
Ġs '
Ġsaf ety
Ġsc ript
Ġsc.parallelize (range
Ġsepar ate
Ġset .
Ġsh ad
Ġsit es
Ġsp at
Ġsp ent
Ġspec ify
Ġst ay
Ġst ru
Ġsym met
Ġto do
Ġtoward s
Ġtr ick
Ġtr uck
Ġun ion
Ġun its
Ġup on
Ġus age
Ġus es
Ġus ual
Ġv )
Ġv ac
Ġvalu es.
Ġvalue ,
Ġw ays
Ġw ish
Ġwe ar
Ġwill ing
Ġzero Value
Ġ{ /eq}
ĠÃ© ta
Ġà¤¡ à¤¿à¤Ĺà¥įà¤°à¥Ģ
Ġà¤ªà¥įà¤° à¤ķà¥įà¤°
Ġà¤ªà¥įà¤°à¤¤à¥įà¤¯ à¥ĩà¤ķ
Ġà¤¬ à¤°
Ġà¤¬à¤¨ à¤¾à¤¨à¥ĩ
Ġà¤¬à¤¨ à¤¾à¤¯à¤¾
Ġà¤®à¤¾à¤¨ à¤¸
Ġà¤°à¤¹ à¤¨à¥ĩ
Ġà¤°à¤¹ à¥Ģà¤®
Ġà¤² à¤¾à¤¹à¥Įà¤°
Ġà¤µ à¤¾à¤¯
Ġà¤µ à¤¾à¤°
Ġà¤¸ à¤¾à¤¤
Ġà¤¸à¥Ĥ à¤ļà¥Ģ
Ġà¤¸à¥įà¤ª à¤·à¥įà¤Ł
Ġà¤¸à¥įà¤µ à¤°
Ġà¤¹ à¥ĩ
Ġà¤¹à¤° à¤¿à¤¯à¤¾à¤£
Ġà¤¹à¤¿à¤® à¤¾à¤ļà¤²
Ġà¤¹à¥ĭ à¤ķà¤°
Ġà¤ħà¤¥ à¤µà¤¾
Ġà¤ħà¤ª à¤¨à¤¾
Ġà¤ħà¤µ à¤§
Ġà¤Ĩ à¤¨à¥ĩ
Ġà¤Ĩ à¤®
Ġà¤ī à¤ªà¤¨
Ġà¤īà¤ªà¤¨à¤¿à¤·à¤¦ à¥ĭà¤Ĥ
Ġà¤Ĳ à¤¸à¥ĩ
Ġà¤ķà¤¿à¤² à¥ĭà¤®à¥Ģà¤Łà¤°
Ġà¤Ĺà¥ĭà¤µ à¤¾
Ġà¤ľà¤¨ à¤Ĺà¤£à¤¨à¤¾
Ġà¤ľà¤¹ à¤¾à¤ģ
Ġà¤ľà¥ĭ à¤¡à¤¼
Ġà¤Ńà¤¾à¤Ĺ à¥ĭà¤Ĥ
Ġà¥ «
Ġà¥ Ń
Ġà¥§à¥ ®
Ġà¦ª à¦¾à¦²
Ġà¦ªà§įà¦° à¦¾à¦£
Ġà¦ªà§įà¦° à¦ķà§ĥà¦¤
Ġà¦ªà§įà¦° à¦Ńà¦¾à¦¬
Ġà¦ªà§įà¦°à¦ľà¦¾à¦¤ à¦¨à§įà¦¤à§įà¦°
Ġà¦¬à¦¿à¦ļ à¦¾à¦°à§ĩ
Ġà¦¬à§įà¦¯ à¦¾à¦Ł
Ġà¦¬à§įà¦¯à¦¬à¦¹ à¦¾à¦°
Ġà¦®à¦¾à¦² à¦¦à§įà¦¬à§Ģà¦ª
Ġà¦¸ à¦¾à¦§à¦¾à¦°à¦£
Ġà¦¸ à¦¾à¦Ĥ
Ġà¦¸ à§Ĥ
Ġà¦¸à¦¾à¦® à¦°à¦¿à¦ķ
Ġà¦¸à¦¾à¦Ĺà¦° ,
Ġà¦¸à§įà¦¬ à§Ģà¦ķà§ĥà¦¤
Ġà¦¹à¦¯à¦¼ ,
Ġà¦ħ à§įà¦¯à¦¾à¦¨à§įà¦Łà¦¾à¦°à§įà¦ķà¦Ł
Ġà¦ħà¦§ à§Ģà¦¨
Ġà¦ħà¦¨à§ģ à¦¯à¦¾à¦¯à¦¼à§Ģ
Ġà¦ħà¦¨à§ģ à¦¸
Ġà¦Ĩà¦«à¦Ĺà¦¾à¦¨ à¦¿à¦¸à§įà¦¤à¦¾à¦¨
Ġà¦Ĩà¦¯à¦¼à¦¤ à¦¨à§ĩà¦°
Ġà¦ĩà¦īà¦°à§ĭà¦ª à§ĩà¦°
Ġà¦ī à¦ĩ
Ġà¦īà¦ª à¦°
Ġà¦ķ à§ĥà¦·
Ġà¦ķà¦° à¦¤à§ĩ
Ġà¦ķà¦¾à¦ ł
Ġà¦ķà§ĭ à¦°à§įà¦Ł
Ġà¦ķà§ĭ à¦Łà¦¿
Ġà¦ķà§įà¦· à¦®
Ġà¦Ĺ à§ģ
Ġà¦Ĺ à§ģà¦°à§ģà¦¤à§įà¦¬
Ġà¦Ľ à§ĭà¦Ł
Ġà§§à§¯à§ Ń
Ġà®¤ à®¾à®³
Ġà®¤à®© à®¿à®¤à¯įà®¤à¯ģà®µ
Ġà®¤à®¯ à®¾à®°
Ġà®¤à¯Ĭà®Łà®°à¯įà®ª à®¾à®©
Ġà®¨à®¾à®©à¯įà®ķ à¯ģ
Ġà®ª à®¾à®²
Ġà®ª à¯ģà®°
Ġà®ª à¯Ĭà®´à¯ģà®¤à¯ģà®ªà¯ĭà®ķà¯įà®ķ
Ġà®ªà®¾à®¤ à¯ģà®ķ
Ġà®ªà®¾à®°à¯įà®ķà¯įà®ķà® µà¯ģà®®à¯į
Ġà®ªà®Łà¯įà®Ł à®¿à®¯à®²
Ġà®ªà¯ģà®² à¯įà®²à®¾à®Ļà¯įà®ķà¯ģà®´
Ġà®® à®¤à¯įà®¤à®¿à®¯
Ġà®® à®¾à®¤
Ġà®® à®ķ
Ġà®®à®¾à®µà®Łà¯įà®Ł à®®à¯į
Ġà®®à¯ĩ à®±à¯įà®ª
Ġà®µ à®¿à®¤
Ġà®µ à®¿à®²
Ġà®µ à¯Īà®ª
Ġà®µà®¾à®´ à¯įà®¨à¯įà®¤
Ġà®µà®¿à® ļ
Ġà®ħà®² à¯ģà®µà®²
Ġà®ħà®³à®µ à¯ģ
Ġà®ħà®µ à®¤à®¾à®©
Ġà®ħà®Ł à®¿
Ġà®Ĩ à®²
Ġà®Ĩ à®³
Ġà®Ĩà®¯ à®¿à®°
Ġà®ĩ à®©à¯įà®©
Ġà®ĩ à®¸
Ġà®ĩà®£à¯Īà®ªà¯įà®ª à¯ģà®ķà®³à¯į
Ġà®ĩà®¨à¯įà®¤à®¿à®¯ à®¾à®µà®¿à®©à¯į
Ġà®ĩà®²à®Ļà¯įà®ķ à¯Īà®¯à®¿à®©à¯į
Ġà®Ĳ à®°à¯ĭà®ªà¯įà®ª
Ġà®ķ à®¾à®°à®£
Ġà®ķà® ¤à¯įà®¤
Ġà®ķà®£à¯įà®Ł à¯ģà®ªà®¿à®Ł
Ġà®ķà®° à¯ģà®¨à®¾à®Łà®ķ
Ġà®ķà¯ģà®± à®¿à®¯
Ġà®ļ à®®à¯įà®ª
Ġà®ļ à®¾à®¸à¯įà®¤à®¿à®°
Ĺ à§ģà¦²
" We
## ###
$- al
% )
% s
' ).
' .
' d
( obj
( q
(X ,\
(X,\ mathbb
(self. _s
+---+------ +-----+
- sc
- se
- the
- x)
- à¦ªà¦¶à§įà¦ļà¦¿à¦®
-2 00
-à¤ª à¤¶à¥įà¤ļà¤¿à¤®
. j
.s park.
0 $
1 ',
1. 0
2 ],
3 00
3 1
3 ]
5 4
= (
= 1,
= x
B e
B l
ByKey (self,
CE PT
D C
D O
Desc ripciÃ³n
EX CEPT
Ex pr
Ex pression
F irst
Form at
G E
I nt
IG N
IN G
Iter ator
L L
L og
L ong
M ath
N ext
Name ,
P A
P e
S ince
St at
T ask
T ree
T ry
Th anks
Tr aceback
Type )
U p
Un it
Wh ile
\ partial
\ to
\c dot
\end {
_ items
_ minimum
_ name
__ __
_convert _to_vector
_j vm.
_l imit
_minimum _p
_st orage_level
_st ream
_t ime
_ver sion
` ,
ac c
ac ion
ac le
ad ,
ad el
ad ium
ad o,
ain s
alph ag
am er
and a
and as.
ap i.
ar amente
ar ia
ar ies
ate ur
ave As
b ody
ch ing
cs s
data .
document }
e ^{
ed :
ed ge
en ed
ent a
ent ially
ent il
er "
er se
es :
es p
etime 64
g _path
g ne
h ,
h ors
h ttps://
i ant
i our
i Ã±
ic ,
ic ity
ie ved
ient ÃŃfic
if ol
if ul
il ib
ile ,
ill a
in .
iqu es,
is a
is l
ism o
ist a
istor ia
it a
it able
it o
k ]
k en
k nown
l ap
l es.
m emory
m ir
map (lambda
mathb f
me ans
n _
n am
ock _inf
og raf
ographic Location
oh ol
olid ay
om as
om ax
opt ional
org.apache .spark.
ou vern
our bon
ove red
p ag
p y.
p ython
pe ed
r ,
r d
r s
ract ed
reduce ByKey
replace ("
ric he
ro d
rop ical
ros c
rÃ³ gen
s al
s o,
s. ..
sum mary
t ics
t rain
te red
ten sion
tr ue
trans form
u ples
ud es
ul ate
ul ff
ul ia
ul y
um .
upport ed
ut or
v ar
we et
www .
x i
z -
z ero
z ip
{ {n}_{
} (l
}\ left(
}} $$
¢ âĤ¬
Ã ®
Ã© b
Ã© ct
Ã© tal
Ã©n ie
ÃŃ an
à¤¤à¤¿à¤ ·
à¤¦ à¤°à¥įà¤¶à¤¨
à¤¦ à¥įà¤µ
à¤¨ à¥įà¤¯
à¤¨à¥įà¤¦ à¤°à¥įà¤Ń
à¤¨à¥įà¤¦ à¥ĩ
à¤ª à¥ĩ
à¤«à¤¼ à¥įà¤Ł
à¤®à¤¹ à¤¾à¤¦à¥įà¤µà¥Ģà¤ª
à¤¯ à¤°
à¤°à¥Ģ à¤ķà¤¾
à¤°à¥įà¤ ¸
à¤°à¥įà¤ª à¤¯à¤¾à¤®à¤¿
à¤°à¥įà¤° à¤«à¤¼
à¤² ,
à¤µ à¤¿à¤§
à¤µà¥įà¤¯ à¤µ
à¤¶ à¤°à¥įà¤°à¤«à¤¼
à¤¹ à¤¿à¤Ĥ
à¤¹à¤¿à¤¨à¥įà¤¦ à¥Ģ
à¤¾à¤¡à¤¼ à¥Ģ
à¤¾à¤¨ à¥įà¤¯
à¤¾à¤¯ à¥Ģ
à¤¾à¤° ,
à¤¾à¤ķ à¥įà¤¯
à¤¾à¤ľ à¤¿à¤ķ
à¤¿à¤¨ à¥įà¤§
à¤¿à¤Ĥ à¤¹
à¤¿à¤ļ à¤¯
à¤ĩ à¤Łà¥įà¤°
à¤ķ à¤¾à¤¤à¤¾
à¤Ĺà¤¾à¤¨ à¤¿à¤¸à¥įà¤¤à¤¾à¤¨
à¤ļ à¥įà¤Ľ
à¤Ńà¤¾à¤· à¤¾
à¥ģà¤ Ĩ
à¥ģà¤ ĵà¤Ĥ
à¥ģà¤ª à¥įà¤¤
à¥ģà¤¸ à¥įà¤¤
à¥ī à¤«à¤¼à¥įà¤Ł
à¥įà¤¦ à¥ĩà¤¶
à¥įà¤¹ à¥ĭà¤Ĥà¤¨à¥ĩ
à¥įâĢį à¤¯
à¦¤à§įà¦¤ à¦¿
à¦§ à§ģà¦¨
à¦§à§ģà¦¨ à¦¿à¦ķ
à¦ªà§įà¦° à¦¿à¦¯à¦¼
à¦¬ à¦¾à¦°
à¦¬ à¦¾à¦¸
à¦® à¦¾à¦¤à§įà¦°
à¦°à§įà¦Ń à§ģà¦ķà§įà¦¤
à¦· à¦£
à¦¸ à§įà¦Ł
à¦¾à¦¦ à§Ģ
à¦¾à¦§ à¦¿à¦ķ
à¦¾à¦¬ à¦²
à¦¾à¦® à§ĩà¦°
à¦¾à¦° à¦¿à¦¤
à¦¾à¦° à§įà¦§
à¦¿à¦ ĩ
à¦¿à¦¨ à§įà¦¤
à¦¿à¦¬ à¦¾à¦¸à§Ģ
à¦ĵ à¦¯à¦¼
à¦ķà¦¾à¦² à§ĩ
à¦ķà§įà¦· à§ĩ
à¦ĸ à¦¾à¦ľ
à¦Ĺ à¦°
à§ ¯à§
à§ ·
à§¨ à§¦
à§Ģà¦° à§ĩ
à§ĩà¦¨ ,
à§ĭ à¦·à§įà¦ł
à§ĭ à¦ļ
à§įà¦¬ à¦¨
à§įà¦¬ à¦¿à¦ķ
à§įà¦¯ ,
à§įà¦¯ à¦¾à¦®
à®£ à®¿
à®£ à¯į
à®¤ à®±à¯įà®ķà¯ģ
à®¤ à®¾à®ķà®ķà¯į
à®¤ à¯ģà®®à¯į
à®¤à¯įà®¤ à®¿à®°
à®¤à¯įà®¤ à¯Īà®ªà¯į
à®¤à¯įà®¤ à¯Īà®¯à¯ģà®®à¯į
à®ªà¯įà®ª à®¿à®°
à®ªà¯įà®ªà®Ł à¯ģà®¤à¯įà®¤
à®¯ à®¾à®°à¯įà®
à®°à¯ģà® ª
à®µ à®¿à®²à¯įà®²à¯Ī.
à®µ à¯ģ
à®¾à®ª à®¿
à®¾à®¸à¯įà®¤ à¯ģ
à®¾à®ķà® ©
à®¿à® Ļà¯įà®ķ
à®¿à®® à¯Ģ
à®¿à®¯ à®¾à®µà®¿à®²à¯į
à®¿à®°à¯ģà®ķà¯įà®ķ à¯ģà®®à¯į.
à®¿à®ķà¯įà®ķ à¯ģ
à®ĩ à®¤à¯ģ
à®ĩ à®²à¯į
à®ķà® ªà¯į
à®ķà® ±
à®ķà¯ģà®¤ à®¿
à®ļ à®®
à®ļ à¯Ĩ
à¯ģà® ķà¯įà®ķà®ªà¯įà®ªà®Łà¯įà®Ł
à¯ģà®µ à®¿à®¯
à¯ģà®Ł à®©
à¯Ĩà®Ł à¯ģà®ªà¯įà®ª
à¯Īà®¯ à®¾à®ķà¯ģà®®à¯į.
à¯Ĭà®°à¯ģà® Ł
à¯įà® ¹
à¯įà®ª à¯į
à¯įà®ķà® ²
à¯įà®ķà®³ à®¿à®²à¯į
à¯įà®Ł à¯įà®°
å ĩ
åı ¯
ðŁĶ ¹
Ġ ub
Ġ á¼
Ġ" C
Ġ" We
Ġ$ M
Ġ$ q
Ġ' 15
Ġ( 2,
Ġ( 4
Ġ( for
Ġ( if
Ġ( l
Ġ( m
Ġ( à¤µ
Ġ( à¤Ĺ
Ġ( à®ª
Ġ( à®ªà¯Ĭ.à®Ĭ.
Ġ(" a",
Ġ(1 9
Ġ(x, ?),
Ġ- 22
Ġ1 /2
Ġ1 0,
Ġ19 0
Ġ2 50
Ġ2 8.
Ġ4 )
Ġ: ||
ĠAnsw er
ĠAut hor
ĠB T
ĠB as
ĠB ot
ĠB usiness
ĠC .
ĠC ong
ĠC ourt
ĠCal if
ĠCan ada
ĠCh ina
ĠChrom e
ĠCorpor ation
ĠD eterm
ĠD ol
ĠDist rict
ĠE v
ĠEst e
ĠF amil
ĠFl or
ĠG AN
ĠG erman
ĠG et
ĠG l
ĠH is
ĠL .
ĠLabeledPoint( 1.0,
ĠLem on
ĠM ake
ĠNa OH
ĠP C
ĠP ac
ĠP oint
ĠP ort
ĠPe ople
ĠPl an
ĠPro gram
ĠPro ject
ĠR ad
ĠR ob
ĠS k
ĠS mall
ĠS w
ĠSp ace
ĠSt ates
ĠStand ard
ĠSte p
ĠSte ve
ĠStud y
ĠT O
ĠT om
ĠT ri
ĠTe am
ĠU p
ĠU se
ĠV is
ĠW ash
ĠW ater
ĠY ear
Ġ[ points[
Ġ\ alphag
Ġ\ leq
Ġ\ text{
Ġ\c ap
Ġ\frac{ 3
Ġa jedrez
Ġad ap
Ġad j
Ġadv anced
Ġag re
Ġal dehÃŃ
Ġallow s
Ġanal og
Ġasc ending
Ġb al
Ġb ar
Ġb atter
Ġb ran
Ġbec ame
Ġbene fit
Ġbl ue
Ġc ette
Ġc ientÃŃfic
Ġc op
Ġcar acter
Ġcar ry
Ġcharg es
Ġchoos ing
Ġcirc um
Ġco vari
Ġcolumn .
Ġcom fort
Ġcomb ine
Ġcomp ound
Ġcomput er
Ġconcent r
Ġconne ction
Ġcons erv
Ġconstit u
Ġcont r
Ġconver sion
Ġcor n
Ġcorrel ation
Ġcou ple
Ġd am
Ġd ed
Ġd ress
Ġde cre
Ġdesar rollo
Ġdet ailed
Ġdet ails
Ġdiv id
Ġdivis ible
Ġdraw ing
Ġe y
Ġeconom ic
Ġed ge
Ġel imin
Ġen cuent
Ġent ertain
Ġex ternal
Ġexp ensive
Ġf alse
Ġf old
Ġfeatures .
Ġfind ing
Ġform e
Ġform ed
Ġframe work
Ġfran Ã§
Ġfre edom
Ġfunction al
Ġg ard
Ġg ouvern
Ġgener ation
ĠgÃ©ner os
Ġh op
Ġhe art
Ġhigh light
Ġident ical
Ġincre ased
Ġinf loresc
Ġinter act
Ġkey -value
Ġl ug
Ġlast ):
Ġline ,
Ġlist ):
Ġm eringue
Ġm ist
Ġmagn etic
Ġmath Ã©mat
Ġmathemat ical
Ġme .
Ġmole cul
Ġmonth s
Ġmot ion
Ġn p.
Ġnot es
Ġnow .
Ġnum er
Ġnum eros
Ġnum py
Ġnumber s.
Ġo w
Ġob t
Ġobject .
ĠocÃ© ano
Ġon .
Ġopt ional
Ġp m
Ġp od
Ġpa int
Ġphot os
Ġpl astic
Ġpol l
Ġpro pi
Ġprob abilities
Ġproport ion
Ġprot ocol
Ġpurch ase
Ġr ules
Ġrap id
Ġre produ
Ġredu c
Ġreg iÃ³n
Ġrequ est
Ġres istance
Ġright ,
Ġright s
Ġro ad
ĠrÃ© publique
Ġs enior
Ġs now
Ġs park.
Ġsaf e
Ġsc atter
Ġschedu led
Ġselect ed
Ġsh ares
Ġst ri
Ġstat istics
Ġstreng th
Ġstring s
Ġstud ied
Ġsty les
Ġsugg est
Ġsystem ,
Ġt ens
Ġt it
Ġt res
Ġtechn iques
Ġth reat
Ġth us
Ġthat 's
Ġthink ing
Ġtra v
Ġun o
Ġval id
Ġvalue .
Ġvector s
Ġver s
Ġvirt ual
Ġvis ible
Ġw atch
Ġw ide
Ġwe ak
Ġwebs ite
Ġwork .
Ġx ,
Ġy a
ĠÃ ¢âĤ¬
ĠÃ ģ
Ġà¤ ¢
Ġà¤¤ à¥Ģà¤¸
Ġà¤¤ à¥įà¤°
Ġà¤¦à¤¿à¤¶ à¤¾
Ġà¤ª à¤Ĥà¤ļ
Ġà¤ªà¥ģ à¤¤à¥įà¤°
Ġà¤ªà¥įà¤° à¤¤à¤¿
Ġà¤ªà¥įà¤° à¤¾à¤°
Ġà¤¬ à¥ĩ
Ġà¤¬à¥ĭà¤² à¥Ģ
Ġà¤® à¤°
Ġà¤®à¤¹ à¤¤à¥įà¤µ
Ġà¤®à¤¾à¤¤ à¤°à¤®
Ġà¤¯ à¥Ĥà¤¨
Ġà¤¯à¥ģ à¤Ĺ
Ġà¤¯à¥Ĥà¤°à¥ĭà¤ª à¥Ģà¤¯
Ġà¤° à¥ĭ
Ġà¤°à¤¹ à¥ĩ
Ġà¤°à¤ĸ à¤¾
Ġà¤²à¥ĩ à¤ĸ
Ġà¤²à¥ĭà¤ķ à¤¸à¤Ńà¤¾
Ġà¤µà¤¿à¤ °
Ġà¤µà¤¿à¤·à¥įà¤£ à¥ģ
Ġà¤µà¤¿à¤¸ à¥įà¤¤
Ġà¤µà¤¿à¤ķ à¤¸à¤¿à¤¤
Ġà¤µà¥įà¤¯ à¤ķà¥įà¤¤à¤¿
Ġà¤µà¥įà¤¯à¤µ à¤¸à¥įà¤¥à¤¾
Ġà¤¶ à¥įà¤°à¥Ģ
Ġà¤¸ à¤¾à¤§
Ġà¤¸ à¥Ģà¤Ł
Ġà¤¸ à¥ģà¤¨
Ġà¤¸à¤® à¤°à¥įà¤ªà¤¯à¤¾à¤®à¤¿
Ġà¤¸à¤Ĥà¤¸ à¤¾à¤°
Ġà¤¸à¥įà¤µ à¤¯à¤Ĥ
Ġà¤¹à¥Ģ à¤°à¤¾
Ġà¤ħ à¤ªà¥įà¤°à¥Īà¤²
Ġà¤ħà¤® à¥ĩà¤°
Ġà¤ħà¤µ à¤¸à¥įà¤¥à¤¿à¤¤
Ġà¤ħà¤Ĥà¤¤ à¤°à¥įà¤Ĺà¤¤
Ġà¤ħà¤Ĥà¤Ĺà¥įà¤°à¥ĩ à¤ľà¥Ģ
Ġà¤Ĩ à¤ł
Ġà¤īà¤ª à¤®à¤¹à¤¾à¤¦à¥įà¤µà¥Ģà¤ª
Ġà¤Ĳ à¤¸à¤¾
Ġà¤ķ à¤¾à¤®
Ġà¤ķà¤° à¥ĭà¤¡à¤¼
Ġà¤ĺ à¤¾à¤Łà¥Ģ
Ġà¤Ľ à¤¤à¥įà¤¤à¥Ģà¤¸à¤Ĺà¤¢à¤¼
Ġà¤ľà¤¬ à¤ķà¤¿
Ġà¤Ńà¥Ĥ à¤Ĺà¥ĭà¤²
Ġà¤Ńà¥Į à¤¤à¤¿à¤ķà¥Ģ
Ġà¥ §
Ġà¥ Ĳ
Ġà¦¤ à¦¾à¦ģ
Ġà¦¦à§ģ à¦°à§įà¦Ĺ
Ġà¦§ à¦¾à¦°à¦£
Ġà¦¨ à¦¤à§ģà¦¨
Ġà¦¨ à¦¾à¥¤
Ġà¦¨à¦¿à¦° à§įà¦¬
Ġà¦ªà¦° à§ĩ
Ġà¦ªà§įà¦° à¦ļ
Ġà¦« à¦°
Ġà¦« à§ģà¦Ł
Ġà¦¬ à¦¡à¦¼
Ġà¦¬à¦¾à¦¹ à¦°
Ġà¦¬à¦¾à¦¹ à¦¾à¦®
Ġà¦® à¦¾à¦¤à§įà¦°
Ġà¦® à¦¾à¦¸
Ġà¦® à¦¾à¦ĩà¦²
Ġà¦¶ à¦¾à¦°
Ġà¦¶à¦¤ à¦ķà§ĩ
Ġà¦¸ à¦¾à¦°à§įà¦¬à¦Ńà§Įà¦®
Ġà¦¸ à¦Ļà§įà¦Ĺ
Ġà¦¸ à§ģà¦°
Ġà¦¸à¦¾à¦®à§įà¦°à¦¾à¦ľ à§įà¦¯à§ĩà¦°
Ġà¦¸à¦¾à¦¹ à¦¾à¦¯
Ġà¦¸à¦¾à¦¹à¦¿à¦¤ à§įà¦¯à§ĩà¦°
Ġà¦¸à§įà¦¥ à¦²
Ġà¦¹à¦ļà§įà¦Ľ à§ĩ
Ġà¦ħà¦¬à¦¸à§įà¦¥ à¦¾à¦¨
Ġà¦ħà¦°à§įà¦¥ à¦¨à§Īà¦¤à¦¿à¦ķ
Ġà¦ħà¦¸à§įà¦Łà§įà¦°à§ĩà¦² à¦¿à¦¯à¦¼à¦¾
Ġà¦Ĩà¦«à§įà¦°à¦¿à¦ķ à¦¾
Ġà¦Ĩà¦Ĺ à§ĩ
Ġà¦ķà¦°à§ĩ ,
Ġà¦ķà¦¾à¦°à¦£ à§ĩ
Ġà¦Ĺ à¦¡à¦¼
Ġà¦Ĺà¦ł à¦¨
Ġà¦ĺà¦Ł à§ĩà¥¤
Ġà¦ļ à§Ģà¦¨
Ġà¦ļà¦¾à¦ģ à¦¦à§ĩà¦°
Ġà¦ľ à¦¾à¦¨
Ġà¦ľà¦¨ à¦ªà§įà¦°à¦¿à¦¯à¦¼
Ġà¦ľà§Ģà¦¬ à¦¨
Ġà¦Ń à§Į
Ġà§§ à§¦
Ġà§§à§¯à§ ®
Ġà® ·
Ġà® ĥà®ª
Ġà®¤ à®¾à®¯
Ġà®¤ à¯ģà®°
Ġà®¤à®ª à®¾à®²à¯į
Ġà®¤à®±à¯įà®ķ à®¾à®²
Ġà®¤à®¿à®° à®¾à®µà®¿à®Ł
Ġà®¤à®¿à®Łà¯įà®Ł à®®
Ġà®¨à¯Ĥà®±à¯įà®±à®¾à®£à¯įà®Ł à®¿à®©à¯į
Ġà®ªà®´ à®®
Ġà®ªà®´ à®Ļà¯įà®ķ
Ġà®ªà®¾à®° à®®à¯įà®ªà®°à®¿à®¯
Ġà®ªà¯Ĩà®±à¯įà®± à®¤à¯ģ.
Ġà®®à®¿à®²à¯įà®² à®¿à®¯à®©à¯į
Ġà®®à®¿à®ķà® ªà¯į
Ġà®®à¯ģà®¤à®² à®¾à®µà®¤à¯ģ
Ġà®®à¯ģà®©à¯įà®© à®¾à®³à¯į
Ġà®®à¯ģà®´ à¯ģà®µà®¤
Ġà®µ à®¾à®¤à¯įà®¤
Ġà®µ à®Łà¯įà®Ł
Ġà®µà®´ à®Ļà¯įà®ķà®
Ġà®µà®¾à®© à®¿à®¯à®²à¯į
Ġà®µà®¿à®°à¯ģà®¤ à¯ģ
Ġà®µà®¿à®³ à®ķà¯įà®ķ
Ġà®µà¯Ĩ à®ªà¯įà®ª
Ġà®µà¯Īà®ª à®µ
Ġà®ħ à®£à¯įà®Ł
Ġà®ħ à®¤à¯ģ
Ġà®ħ à®ŀà¯įà®ļà®²
Ġà®ħà®®à¯Ģà®° à®ķà®®à¯į
Ġà®ħà®´à¯Īà®ķà¯įà®ķà®ªà¯įà®ªà®Ł à¯ģà®®à¯į
Ġà®Ĩ à®©
Ġà®Ĩà®¯à¯įà®µ à¯ģ
Ġà®Ĩà®° à®¾à®¯
Ġà®ĩ à®©à¯įà®±
Ġà®ĩ à®³
Ġà®ĩà®¤à¯ģ ,
Ġà®ĩà®¯ à®±à¯įà®ķ
Ġà®ĩà®ļ à¯Īà®ķà¯įà®ķà®°à¯ģà®µ
Ġà®Ī à®Łà¯ģà®ª
Ġà®īà®±à¯ģà®ªà¯įà®ªà®¿à®© à®°à¯įà®ķà®³à¯į:
Ġà®İ à®¤à®¿à®°
Ġà®İà®© à®ķà¯į
Ġà®ķ à®¿à®®à¯ģ
Ġà®ķà®© à®Ł
Ġà®ķà®¿. à®ª
Ġà®ķà®¿. à®®à¯ģ.
Ġà®ķà®Ł à®µ
Ġà®ķà¯ģà®Ł à¯ģà®®à¯įà®ª
Ġà®ķà¯ģà®Łà®¿à®¯à®°à®ļ à¯ģ
Ġà®ļà®¿à®± à®¨à¯įà®¤
Ġà®ļà®¿à®± à®¿à®¯
Ġà®ļà¯ģà®® à®¾à®°à¯į
Ġà®ļà¯Ĥ à®´
Ġà®ļà¯Ĩ à®²à¯įà®²
Ġà®ļà¯Ĩà®¯à¯įà®¯ à®ªà¯įà®ªà®Łà¯įà®Ł
" ),
$ {\
$\ displaystyle
( 1,
( G
( _
( key
( y
(" age
(iterator )
(m odel
(path ,
(x )$
). sort
, y_{t
- 4
- St
- a
- x
-------- ------
---------------- ----------------
-2 0
-à¦ªà§Ĥà¦°à§įà¦¬ à§ĩ
. à®ķ
.map (
/2011 |
10 /2011|
2 ',
5 8
6 00
6 5
8 00
8 6
8 7
A fter
A nt
C O
C ar
Che ck
Code c
Column `
Combin ers
Dis p
E ach
F F
G S
G roup
M O
Me ans
N :
O f
O k
OR E_
P I
P arts
R ec
S )
St ructType
Te X
U E
U N
V I
Y T
[ S
[Row(age= 2,
[\ rot
[\rot ate
[\rotate box{
[\rotatebox{ 90
[ÃĹ 4],
\ [Theta]
\ ge
\ sin
\usepackage {
\{ N
^{ -1}
_ from
_ of
_of _t
_of_t imes
_of_times _to_
_of_times_to_ up
_of_times_to_up sample
`` `
a a
a ume
acea e,
adel ph
adelph ia
ag az
ag o
ain ,
ain .
am ment
ang u
ans as
ant ,
ap on
ap prox
app a
ard .
arqu ÃŃa
as s,
as te
ass ert
ated ,
b ,
b Name
b os
b ottom
b ow
b um
ch ,
ch ang
cle ar
close ()
cond ition
d ict
de le
de v
em an
em ble
em ple
ent ly
ent o
est :
est e
famil ia
ffic ial
fol der
form at
fr ont
gh an
h ing
h n
he nt
ic a,
ic ed
ickle Serializer
ien ne
il ,
il i
im ents
im p
iment al
imest amps
in as
in ci
in ing
in y
ique .
ir it
is ions
ise .
iz ado
j ulia
julia >
le ctions
lev ant
m en
man ,
man n
mark et
n orm
ne ur
ne xt
null |
num ber
o ide
o op
ob ier
ol uc
op erator
or .
or ney
ore st
ou ra
ourbon na
ov .
p ri
parseVector (2,
pl ied
por ate
que Ã±
r um
ra wn
rat ic
re f
ri an
rib e
ric ult
ros ive
s plit
s. "
sc ript
st ead
ten ec
the re
top ,
typ es
u ,
u an
u i
u ro
ud get
ul us
un to
unc ate
up pose
ur ity
us age
ut ral
ver gne
w ell
w hen
w ide
ycl ing
{ m
| V
|| 10/2011|
|| David
} +
}{ 2}$
Ã¡ nt
Ã© pend
Ã© ri
Ã³ p
Ãī cole
ÃŃ as
Î ½
Ï Ĥ
à ¨
à¤ Ķ
à¤¤ à¥įà¤¯à¤¾
à¤¤à¤¿à¤ °
à¤¤à¤¿à¤ µ
à¤¦à¥įà¤¯ à¥ĭà¤Ĺ
à¤¨ à¥įà¤¤à¥įà¤°
à¤ª à¥įà¤¤
à¤ªà¥įà¤° à¤¦à¥ĩà¤¶
à¤® à¤£
à¤® à¤¿à¤ķ
à¤® à¥į
à¤®à¥ģ à¤¨à¤¾
à¤° à¤¾à¤ľà¥įà¤¯
à¤° à¤¿à¤ķ
à¤°à¥įà¤¦ à¥Ĥ
à¤² à¤¬
à¤² à¤¿à¤ı
à¤µ à¤¾à¤Ĥ
à¤¾à¤ ī
à¤¾à¤£ à¤¿à¤ķ
à¤¾à¤£ à¥įà¤¡
à¤¾à¤§ à¥įà¤¯
à¤¾à¤¬ à¤¾à¤¦
à¤¾à¤° à¤ľà¥Ģ
à¤¾à¤¸ à¤¤
à¤¾à¤ģ à¤Ĺ
à¤¾à¤Ĥ à¤¶
à¤¾à¤ĩ à¤ķà¥įà¤°
à¤¾à¤ĸ à¥įà¤¯à¤¾
à¤¾à¤Ĺà¤° à¤¾à¤ľ
à¤¿à¤ ¡à¤¼
à¤¿à¤ķ à¥Ģ
à¤¿à¤ķ à¥ĭ
à¤Ĥ à¤ĸ
à¤Ĥà¤¦ à¤°
à¤ĩà¤¨ à¥įà¤¹à¥ĩà¤Ĥ
à¤ķ à¤²à¤¾
à¤ķ à¥įà¤¸
à¤ķà¤¾à¤° à¥Ģ
à¤Ĺ à¤°à¥Ģ
à¤ļ à¤¿à¤µ
à¤ł à¤¨
à¥ ¯
à¥ģà¤ §
à¥ģà¤ķ à¥įà¤²
à¥Ī à¤£à¥įà¤¡
à¥Ī à¤°
à¥ĭà¤° à¤¾à¤°à¤ľà¥Ģ
à¥ĭà¤ľ à¤¨à¤¾
à¥įà¤¯ à¤¾à¤¨
à¥įà¤¯à¥Ĥ à¤Łà¤°
à¥įà¤° à¥ĭà¤¤
à¦ Ļà§įà¦
à¦¤à§įà¦¯ à¦¾à¦¦
à¦¥ à§įà¦¯
à¦¨ à¦¾à¦®
à¦¨ à§įà¦¡
à¦¨à§Ģ à¦¤à¦¿
à¦ª à§Ĥà¦°à§įà¦£
à¦¬ à¦¾à¦
à¦¬ à¦¾à¦¹
à¦² à§įà¦¯à¦¾à¦¨à§įà¦¡
à¦¸ à¦¾à¦Ĺà¦°
à¦¾à¦¨ à¥¤
à¦¾à¦° à§įà¦®
à¦¾à¦°à§įà¦ķ à¦¿à¦¨
à¦ķà¦¾à¦° à§Ģ
à¦ĸ à¦£à§įà¦¡
à¦Ĺ à¦£
à¦Ļà§įà¦ ķ
à¦Ļà§įà¦Ĺà§ĭà¦ª à¦¾à¦§à§įà¦¯à¦¾à¦¯à¦¼
à¦Ł à¦¿à¦¤à§ĩ
à§« à§¦
à§Ģ à¦²
à§Ģà¦° à¦¾
à§ģ à¦¬
à§ģ à¦ģ
à§ĥ à¦¹
à§ĩà¦ª à¦¾à¦²
à§ĩà¦¶ à¦¨
à§ĭ à¦·à¦£
à§įà¦¯ à¦¾à¦²
à§įà¦¯à¦ ¯à¦¼
à®¤ à®©
à®¤ à®¾à®²à¯į,
à®¤ à¯ģà®ª
à®¤à¯įà®¤à®¿à®²à¯į ,
à®© à¯ģà®Łà¯Īà®¯
à®ª à¯ģà®¤
à®ªà¯įà®ª à¯ģ
à®ªà¯įà®ªà®Ł à¯ģà®µà®¤
à®®à¯ĩà®±à¯įà®ķà¯ĭà®³ à¯įà®ķà®³à¯į
à®®à¯Īà®ªà¯įà®ª à¯ģ
à®°à¯ģà®ķà¯įà®ķ à¯ģ
à®°à¯įà® ¸à¯į
à®°à¯įà® ķ
à®³ à®¾à®µ
à®³ à®¿à®µ
à®µà¯Ī .
à®¾à®¤à¯įà®¤ à®¿à®°
à®¾à®© à¯įà®®
à®¿à®¯ à¯ģà®¯
à®¿à®¸ à¯įà®²
à®¿à®ķà¯įà®ķà®ªà¯įà®ªà®Łà¯įà®Ł à®¤à¯ģ.
à®¿à®Ł à®ªà¯įà®ªà®Łà¯įà®Łà®¤à¯ģ.
à®ĩà®µà®±à¯įà®± à¯Īà®¯à¯ģà®®à¯į
à®ķ à¯ģà®±
à®ķà®¤à¯įà®¤ à®¿à®²à¯į
à®ķà¯įà® ¸à¯į
à®ķà¯įà®ķ à¯ģ
à®Ļà¯įà®ķà®³ à¯ģà®®à¯į
à®ļà¯ģà®ķ à®¿à®°à¯ģà®¤
à®Łà¯įà®Ł à®¿
à¯ģà®£à¯įà®Ł à¯ģ.
à¯ģà®¤ à®²à¯į
à¯ģà®µ à®°à¯į.
à¯ģà®ķà®³ à®¿à®©à¯į
à¯Ĥà®° à¯įà®¤à¯įà®¤
à¯Ĩ à®°à¯į
à¯Ĩ à®¸
à¯ĩà®° à®³
à¯Īà® ²à¯į
à¯Īà® ļà¯įà®ļ
à¯Īà®¯ à®¿à®©
à¯ĭ à®ļ
à¯ĭà®ª à®°à¯į
âĢĿ .
ä ¹
å ®
å Ĵ
åı¯ ä»¥
åĴ Į
ç ī
Ġ ray
Ġ urb
Ġ ÂłĠÂłĠ
Ġ" c
Ġ" s
Ġ$ E
Ġ$ s
Ġ$ z
Ġ$$ \frac{
Ġ$$ f
Ġ$R D_{
Ġ$\ angle
Ġ$f _n
Ġ$n $
Ġ( K
Ġ( see
Ġ( v
Ġ( à¤ķ
Ġ(E ST)
Ġ1 |
Ġ199 6
Ġ2 2,
Ġ2 \right)
Ġ2 nd
Ġ2. 0
Ġ200 3
Ġ2| Alice|
Ġ3 3
Ġ7 :
ĠA N
ĠA R
ĠAng le
ĠAp ple
ĠAs ia
ĠAssoci ation
ĠB ass
ĠC all
ĠCent ral
ĠCol lection
ĠComm ittee
ĠComp any
ĠCon ference
ĠCon n
ĠCorporation ||
ĠD .
ĠD o
ĠDate :
ĠF unction
ĠFrid ay
ĠFriedberg ||The
ĠG ame
ĠH adoop
ĠH art
ĠH ome
ĠI' ll
ĠJ ose
ĠJ un
ĠJes us
ĠL es
ĠM ary
ĠM ax
ĠM ulti
ĠMa ine
ĠMathemat ics
ĠMed icare
ĠMic ro
ĠN .
ĠN AS
ĠO ver
ĠOct ober
ĠOn ly
ĠP DE
ĠP R
ĠP ie
ĠPhil adelphia
ĠR eturn
ĠRDD s
ĠRe al
ĠRe v
ĠS T
ĠS ep
ĠS ing
ĠS oci
ĠS ov
ĠSatur day,
ĠSp ring
ĠSpec ial
ĠSt ring
ĠT V
ĠT ues
ĠT urn
ĠTr ack
ĠV ict
ĠVal ira
ĠW .
ĠWest ern
ĠY our
Ġ\ rm
Ġ\alphag rv
Ġ\begin {align*}
Ġ\int _{0
Ġ\rho ^0
Ġ_parse_datatype _string
Ġacc ident
Ġad mit
Ġadv ant
Ġagain .
Ġage =
Ġal gebra
Ġal leg
Ġalc ohol
Ġalf abet
Ġaltern ative
Ġann ounce
Ġansw er.
Ġap artment
Ġappro x
Ġar ra
Ġar rest
Ġas ÃŃ
Ġask ing
Ġassign ment
Ġatt ention
Ġax Ã³n
ĠaÃ± o
Ġb ank
Ġb in
Ġb od
Ġb oot
Ġbe gan
Ġbeaut iful
Ġbound ary
Ġc er
Ġc Ã³dig
ĠcallMLlibFunc ("
Ġch apter
Ġchar act
Ġcho ose
Ġcle arly
Ġco ver
Ġcol d
Ġcomp at
Ġcomple ted
Ġcon form
Ġconc ern
Ġconfig uration
Ġconsum er
Ġconsum ers
Ġcontinu ous
Ġcor rosive
Ġcre ating
Ġd ie
Ġd oll
Ġd ual
Ġde m
Ġdec ay
Ġdec or
Ġden ote
Ġdes p
Ġdesar roll
Ġdif eren
Ġdo ctor
Ġdoct est:
Ġdoes nâĢĻt
Ġdou b
ĠdÃ© but
Ġe arn
Ġe con
Ġe }{
Ġej empl
Ġespec ial
Ġex ercise
Ġex plicit
Ġex tension
Ġexpl or
Ġexpression s
Ġf ans
Ġf ig
Ġf is
Ġf o
Ġf on
Ġf uer
Ġfe at
Ġfile .
Ġfol der
Ġfollow s
Ġfoot ball
Ġform al
Ġfunction s.
Ġfund ing
Ġg ene
Ġgal ax
Ġge ometric
Ġget s
Ġgo es
Ġh um
Ġhapp ens
Ġhe ar
Ġhe avy
Ġhim .
Ġimport ante
Ġincor rect
Ġincre ases
Ġinitial Model
Ġinst alled
Ġinvol ved
Ġj oy
Ġk illed
Ġk itche
Ġknow ledge
Ġl' E
Ġla unch
Ġlarg est
Ġle ave
Ġlen (
Ġm ission
Ġm ont
Ġman ufact
Ġmat ches
Ġmeas ur
Ġmen os
Ġmic ro
Ġmin im
Ġmodel .predict
Ġn av
Ġn ue
Ġnon linear
Ġnose ble
ĠnumPartitions )
Ġnumber _of_times_to_upsample
Ġo scill
Ġob st
Ġocc as
Ġold er
Ġopport unities
Ġord in
Ġout side
Ġp andas.
Ġp ip
Ġp ipe
Ġp uis
Ġp ull
Ġpartition s.
ĠpaÃŃs es
Ġpe queÃ±
Ġpe ut
Ġper tenec
Ġperform ed
Ġpoint ,
Ġpol ÃŃtic
Ġpr ime
Ġpre -
Ġpre fer
Ġpre vent
Ġprem iÃ¨re
Ġpres ence
Ġprob ably
Ġprodu ced
Ġproject s
Ġquot ient
Ġr ates
Ġr ig
Ġr ing
Ġr out
Ġradi us
Ġrange (self.
Ġrank ed
Ġrec all
Ġrecord s
Ġredu ced
Ġrem ember
Ġres pond
Ġrest rict
Ġrev olution
Ġs av
Ġs n
Ġs pl
Ġsample d
Ġsc.parallelize([ ("a",
Ġse q
Ġseed :
Ġself.map (lambda
Ġser ious
Ġsim il
Ġsitu ation
Ġsize .
Ġsl iding
Ġslight ly
Ġspace .
Ġspecified ,
Ġspect ral
Ġst eps
Ġst ore
Ġstr ateg
Ġstring .
Ġsu fficient
Ġsub st
Ġsynt hetic
Ġt }
Ġtechn ology
Ġtem pl
Ġtheorem ,
Ġthread s
Ġto wn
Ġtrav Ã©s
Ġun ic
Ġuniform ly
Ġv eloc
Ġvari ance
Ġver tic
Ġw all
Ġw rote
Ġwav elength
Ġweek ,
Ġwell -
Ġwith Replacement
Ġword s
Ġwork ers
Ġyear s.
ĠÃ© lÃ©
Ġà¤¤ à¤¬
Ġà¤¤ à¥ģà¤²
Ġà¤¤ à¥Įà¤°
Ġà¤¥ à¥Ģ
Ġà¤¥à¤¾à¤Ī à¤²à¥Īà¤Ĥà¤¡
Ġà¤¦à¤¿à¤¯à¤¾ à¥¤
Ġà¤¦à¤¿à¤¸ à¤®à¥įà¤¬à¤°
Ġà¤§ à¤¾à¤°à¤£
Ġà¤¨à¤¿à¤°à¥įà¤® à¤¾à¤£
Ġà¤ªà¤°à¤® à¥įà¤ª
Ġà¤ªà¥įà¤° à¤¤
Ġà¤¬ à¤¾à¤¤
Ġà¤¬à¤¡à¤¼ à¥Ģ
Ġà¤¬à¤¹ à¥ģà¤®
Ġà¤¬à¤¾à¤° à¥ĩ
Ġà¤®à¤¹ à¤¾à¤ķ
Ġà¤®à¤¿à¤² à¤¤à¥ĩ
Ġà¤®à¥ģ à¤®à¥įà¤¬à¤Ī
Ġà¤¯ à¥ĭà¤ľà¤¨à¤¾
Ġà¤°à¤¾à¤® à¤¾à¤¯à¤£
Ġà¤°à¤¾à¤·à¥įà¤Łà¥įà¤° à¤ªà¤¤à¤¿
Ġà¤µ à¤¾à¤¸
Ġà¤µ à¤¾à¤ľ
Ġà¤µà¤¾à¤¦ à¥įà¤¯
Ġà¤µà¤¿à¤ ļ
Ġà¤µà¤¿à¤Ńà¤¾à¤ľ à¤¨
Ġà¤µà¤¿à¤Ńà¤¾à¤ľ à¤¿à¤¤
Ġà¤µà¥ĩ à¤¦
Ġà¤µà¥įà¤¯ à¤ķà¥įà¤¤
Ġà¤¶ à¤¿à¤µ
Ġà¤¸ à¤¤
Ġà¤¸ à¤¾à¤°
Ġà¤¸ à¥ĥà¤·à¥įà¤Łà¤¿
Ġà¤¸ à¥įà¤°à¥ĭà¤¤
Ġà¤¸ à¥įà¤Ł
Ġà¤¸à¤¾à¤Ĥ à¤¸à¥įà¤ķà¥ĥà¤¤à¤¿à¤ķ
Ġà¤¸à¥įà¤¥ à¤²
Ġà¤¹ à¤¾à¤¥
Ġà¤¹ à¤ľ
Ġà¤ħ à¤²à¥Ģ
Ġà¤ħ à¤Ĺà¤¸à¥įà¤¤
Ġà¤ħà¤§à¤¿à¤ķ à¤¾à¤Ĥà¤¶
Ġà¤Ĩ à¤¸
Ġà¤Ĩ à¤ķà¤¾à¤¶
Ġà¤ĩ à¤Ĥà¤Ĺ
Ġà¤īà¤¤à¥įà¤ª à¤¾à¤¦
Ġà¤Ĳ à¤¤à¤¿à¤¹à¤¾à¤¸à¤¿à¤ķ
Ġà¤ķ à¤¾à¤¨
Ġà¤ķ à¤¾à¤¶
Ġà¤ķ à¤Ńà¥Ģ
Ġà¤ķ à¥ī
Ġà¤ķà¤° à¤¨à¤¾
Ġà¤ķà¥ĥ à¤·à¥įà¤£
Ġà¤ķà¥ĭà¤² à¤ķà¤¾à¤¤à¤¾
Ġà¤Ĺà¥ģà¤° à¥ģ
Ġà¤ĺà¤Łà¤¨ à¤¾à¤ĵà¤Ĥ
Ġà¤ļà¤² à¤¤à¤¾
Ġà¤ľà¤¾à¤¤ à¥ĩ
Ġà¤Ń à¤¾à¤µ
Ġà¥§à¥¯à¥ ¬
Ġà¦¦ à§Ĥà¦°
Ġà¦¦à§ĩà¦¶ à§ĩà¦°
Ġà¦¦à§ĩà¦ĸ à¦¾
Ġà¦¨ à¦¿à¦ī
Ġà¦¨à¦¿à¦ľ à§ĩà¦¦à§ĩà¦°
Ġà¦ª à¦¡à¦¼
Ġà¦ª à§įà¦²
Ġà¦ªà§įà¦° à¦¤à¦¿
Ġà¦¬ à¦¿à¦ķ
Ġà¦¬à¦¸ à¦¬à¦¾à¦¸
Ġà¦¬à¦¿à¦ ĸ
Ġà¦¬à¦¿à¦¶ à§ĩà¦·
Ġà¦¬à¦¿à¦ĸ à§įà¦¯à¦¾à¦¤
Ġà¦¬à§ĩà¦¶ à¦¿à¦°
Ġà¦® à¦¿à¦²
Ġà¦®à¦§ à§įà¦¯à¦
Ġà¦®à¦¾à¦¨ à¦¬
Ġà¦¯ à¦¿à¦¨à¦¿
Ġà¦¯ à§ĩà¦®à¦¨
Ġà¦° à¦ļ
Ġà¦¸ à¦¦
Ġà¦¸ à§ĩà¦ĩ
Ġà¦¸à¦®à§įà¦ªà¦°à§įà¦ķ à§ĩ
Ġà¦¸à¦Ĥ à¦ĸà§įà¦¯
Ġà¦¸à§Įà¦° à¦Ń
Ġà¦ħà¦¨à§įà¦¤ à¦°à§įà¦Ńà§ģà¦ķà§įà¦¤
Ġà¦ħà§įà¦¯ à¦¾à¦Ļà§įà¦Ĺà§ĭà¦²
Ġà¦Ĩà¦¯à¦¼à¦¤ à¦¨
Ġà¦Ĩà¦° à¦¬
Ġà¦ĩ à¦¤à§įà¦¯à¦¾à¦¦
Ġà¦ı à¦®à¦¨
Ġà¦ķà§ĭ à¦¨à§ĭ
Ġà¦ĸà§įà¦° à¦¿à¦·à§įà¦Ł
Ġà¦ĸà§įà¦°à¦¿à¦¸à§įà¦Ł à¦ªà§Ĥà¦°à§įà¦¬à¦¾à¦¬à§įà¦¦
Ġà¦Ĺ à¦¡à¦¼à§ĩ
Ġà¦Ĺ à¦Ļà§įà¦Ĺà§ĭà¦ªà¦¾à¦§à§įà¦¯à¦¾à¦¯à¦¼
Ġà¦ľ à¦°à§įà¦ľ
Ġà§§à§¯à§ ªà§Ń
Ġà§§à§¯à§ ¯à§
Ġà®¤ à®¾à®ķà¯įà®ķà®
Ġà®¤à®¿à®° à¯Īà®ªà¯įà®ªà®Ł
Ġà®¤à¯Ĩà®² à¯ģà®Ļà¯įà®ķà¯ģ
Ġà®¨ à®¾à®¯
Ġà®¨ à®¿à®©
Ġà®¨à®²à¯įà®² à¯Ĥà®°
Ġà®¨à®¾à®Łà¯ģà®ķà®³ à®¿à®©à¯į
Ġà®¨à®Łà®© à®Ļà¯įà®ķà®³à¯į
Ġà®ª à®£à¯įà®Łà¯Īà®¯
Ġà®ª à®©à¯įà®©
Ġà®ªà®¾à®°à¯įà®¤à¯įà®¤ à®¿à®©
Ġà®ªà®¿à®° à®¿à®¤à¯įà®¤
Ġà®ªà¯Ĭà®± à®¿à®¯à®¿à®¯à®²à¯į
Ġà®®à®° à®ª
Ġà®®à¯Ģ à®¤à¯ģ
Ġà®®à¯ģà® ķà®
Ġà®®à¯ģà®© à¯įà®ª
Ġà®®à¯ģà®ķà¯įà®ķà®¿à®¯ à®®à®¾à®©
Ġà®®à¯ģà®Ł à®¿à®¯
Ġà®µà®¨à¯įà®¤ à®¤à¯ģ.
Ġà®µà®¿à® ´
Ġà®µà®¿à®£à¯įà®µ à¯Ĩà®³à®¿
Ġà®µà®Łà®¿à®µ à®®à¯į
Ġà®µà¯ĩ à®£à¯įà®Ł
Ġà®ħ à®²à¯į
Ġà®ħà®¤ à®¿à®¯à¯ģà®¯
Ġà®ħà®° à®£à¯įà®®
Ġà®ħà®³à®µ à®¿à®²à¯į
Ġà®ħà®´ à®ķ
Ġà®ħà®´ à¯Īà®ªà¯įà®ª
Ġà®ħà®µ à®°à¯įà®ķà®³
Ġà®ħà®µ à¯įà®µ
Ġà®ħà®ŀà¯įà®ļà®² à¯įà®¤à®²
Ġà®Ĩ à®©à®¾à®²à¯į
Ġà®Ĩ à®±à¯įà®±
Ġà®Ĩ à®µà®¤à¯ģ
Ġà®ĩ à®®à¯įà®®
Ġà®ĩà®¨à¯įà®¤à®¿à®¯ à®¾à®µ
Ġà®ĩà®² à®ķà¯įà®ķà®£
Ġà®ĩà®Ł à®Ļà¯įà®ķà®³
Ġà®īà®³à¯įà®³à®Ł à®ķà¯įà®ķà®¿à®¯
Ġà®İ à®µà¯įà®µ
Ġà®İà®© à®¿à®©à¯ģà®®à¯į
Ġà®İà®© à®¿à®©à¯ģà®®à¯į,
Ġà®İà®© à¯ģà®®à¯į
Ġà®İà®Ł à¯ģà®¤à¯įà®¤
Ġà®ı à®±à¯įà®ª
Ġà®ıà®± à¯įà®ªà®Ł
Ġà®Ĵ à®ªà¯įà®ª
Ġà®Ĵ à®°à¯ĩ
Ġà®Ĵà®©à¯įà®± à¯ģ.
Ġà®Ĵà®µà¯įà®µ à¯Ĭà®°à¯ģ
Ġà®ķà®° à¯ģà®µ
Ġà®ķà®² à¯įà®µ
Ġà®ķà®¾à®±à¯įà®± à¯ģ
Ġà®ķà®Łà¯įà®Ł à¯ģà®°
Ġà®ķà®Łà¯įà®Łà®¿à®Ł à®ķà¯įà®ķà®²à¯Ī
Ġà®ķà®Łà¯įà®Łà®¿à®Łà®Ļà¯įà®ķà®³à¯į :
Ġà®ķà¯ģà®±à®¿à®ķà¯įà®ķ à¯ģà®®à¯į.
Ġà®ķà¯ģà®Ł à®¿à®¯à¯ĩà®±à¯įà®±
Ġà®ķà¯Ĭà®£à¯įà®Ł à®¿à®°à¯ģà®¨à¯įà®¤
Ġà®ļ à®Łà¯įà®Ł
ĠâĪ Ĵ
