{
  "!": 37,
  "!!": 3718,
  "\"": 38,
  "\"\"": 493,
  "\"\"\"": 690,
  "\"\"\"Returns": 6326,
  "\")": 1624,
  "\"),": 11153,
  "\"):": 7648,
  "\",": 1042,
  "\".": 2905,
  "\":": 6325,
  "\"We": 10394,
  "\"])": 7343,
  "#": 39,
  "##": 657,
  "###": 1595,
  "####": 2843,
  "#####": 10395,
  "$": 40,
  "$$": 895,
  "$$,": 4898,
  "$$.": 6793,
  "$$\\": 9813,
  "$,": 2210,
  "$-": 4306,
  "$-al": 10396,
  "$.": 2019,
  "$\\": 2612,
  "$\\displaystyle": 11155,
  "$x": 9252,
  "${\\": 11154,
  "%": 41,
  "%)": 10397,
  "%s": 10398,
  "&": 42,
  "'": 43,
  "''": 4217,
  "')": 4307,
  "'),": 7344,
  "').": 10399,
  "')]": 6129,
  "',": 1320,
  "'.": 10400,
  "':": 4379,
  "'d": 10401,
  "'est": 6794,
  "'ll": 5929,
  "'re": 3481,
  "'s": 677,
  "'t": 1051,
  "'ve": 6795,
  "(": 44,
  "(\"": 1128,
  "(\"a\",": 7651,
  "(\"age": 11161,
  "('": 2906,
  "('a',": 7346,
  "()": 774,
  "())": 3779,
  "(),": 2298,
  "().": 3585,
  "():": 5930,
  "(0,": 4380,
  "(1": 1845,
  "(1)": 8007,
  "(1+": 8400,
  "(1,": 11156,
  "(2": 6796,
  "(2,": 7345,
  "(G": 11157,
  "(P": 8005,
  "(S": 9253,
  "(X": 3586,
  "(X,\\": 10404,
  "(X,\\mathbb": 10405,
  "([": 1821,
  "(\\": 2275,
  "(_": 11158,
  "(a,": 8006,
  "(at": 7065,
  "(at):": 8818,
  "(b": 5019,
  "(b)": 9814,
  "(cl": 7066,
  "(cls,": 8819,
  "(col": 5756,
  "(d": 1520,
  "(data": 5158,
  "(default:": 3217,
  "(df": 6554,
  "(df.": 5931,
  "(dt": 4778,
  "(f": 1768,
  "(face": 8820,
  "(field": 7347,
  "(func": 6555,
  "(im": 8399,
  "(it": 3719,
  "(iterator": 4779,
  "(iterator)": 11162,
  "(iterator):": 7348,
  "(j": 2994,
  "(jdf,": 8008,
  "(k": 4574,
  "(key": 11159,
  "(l": 1889,
  "(lambda": 2720,
  "(m": 4052,
  "(model": 11163,
  "(n": 3652,
  "(num": 7067,
  "(obj": 10402,
  "(other": 7649,
  "(other._j": 9815,
  "(p": 3973,
  "(path": 6797,
  "(path,": 11164,
  "(q": 10403,
  "(range": 7650,
  "(rdd": 4218,
  "(rdd.": 9255,
  "(row": 8817,
  "(s": 752,
  "(sc,": 9816,
  "(sc.": 9817,
  "(self": 1130,
  "(self):": 4308,
  "(self,": 1272,
  "(self.": 1846,
  "(self._j": 3218,
  "(self._jdf.": 6556,
  "(self._s": 10406,
  "(t": 1878,
  "(t_2": 9256,
  "(v": 9254,
  "(x": 1174,
  "(x)": 2495,
  "(x)$": 11165,
  "(x,": 4899,
  "(y": 11160,
  "(z": 5445,
  "(z)": 7068,
  ")": 45,
  ")$": 1159,
  ")$$": 8009,
  ")$,": 6327,
  ")$.": 7349,
  "))": 1004,
  ")))": 6798,
  ")):": 8401,
  "),": 572,
  ").": 668,
  ").collect()": 2496,
  ").collect())": 8010,
  ").show()": 7652,
  ").sort": 11166,
  "):": 672,
  ");": 5757,
  ")=": 8821,
  ")]": 2152,
  ")à¥¤": 4900,
  "*": 46,
  "**": 4662,
  "*s": 9257,
  "+": 47,
  "++": 2550,
  "++++": 5160,
  "++++++++": 9819,
  "+---": 2995,
  "+---+-----+": 6799,
  "+---+------": 7653,
  "+---+------+-----+": 10407,
  "+----": 1484,
  "+----+": 7069,
  "+-----": 3302,
  "+-----+": 3780,
  "+------": 5758,
  "+-------": 6800,
  "+1": 5159,
  "+1)": 7350,
  "+1}": 8402,
  "+3": 9818,
  "+\\": 6328,
  ",": 48,
  ",\"": 4219,
  ",\\": 5759,
  ",y_{t": 11167,
  ",à§¦à§¦à§¦": 5932,
  "-": 49,
  "--": 444,
  "---": 1949,
  "----": 757,
  "------": 8406,
  "--------": 2020,
  "--------------": 11172,
  "----------------": 4474,
  "--------------------------------": 11173,
  "-0": 5295,
  "-05": 9820,
  "-1": 1157,
  "-13": 8825,
  "-18": 9260,
  "-1}": 4903,
  "-2": 1805,
  "-20": 11174,
  "-200": 10413,
  "-3": 3259,
  "-4": 11168,
  "-5": 5020,
  "-8": 6801,
  "-A": 9821,
  "-B": 5021,
  "-E": 9822,
  "-L": 9258,
  "-M": 7351,
  "-S": 6802,
  "-St": 11169,
  "-X": 7654,
  "-\\": 4901,
  "-a": 11170,
  "-b": 2878,
  "-based": 8407,
  "-c": 5296,
  "-ch": 8822,
  "-con": 8403,
  "-d": 2586,
  "-de": 5297,
  "-dependent": 9261,
  "-dimension": 7656,
  "-dimensional": 8826,
  "-f": 3587,
  "-g": 7070,
  "-h": 6557,
  "-in": 3974,
  "-l": 3422,
  "-like": 8011,
  "-m": 5760,
  "-n": 5933,
  "-of": 6329,
  "-old": 8404,
  "-p": 5934,
  "-s": 2335,
  "-sc": 10408,
  "-se": 10409,
  "-sh": 9259,
  "-st": 5161,
  "-t": 2907,
  "-the": 10410,
  "-time": 8408,
  "-to": 5298,
  "-to-": 7657,
  "-value": 9823,
  "-w": 7071,
  "-x": 11171,
  "-x)": 10411,
  "-y": 4220,
  "-year": 6330,
  "-year-old": 9262,
  "-à¤ª": 5935,
  "-à¤ªà¤¶à¥įà¤ļà¤¿à¤®": 10414,
  "-à¤ªà¥Ĥà¤°à¥įà¤µ": 9824,
  "-à¤¸": 8823,
  "-à¤ħ": 4902,
  "-à¤Ĩ": 6130,
  "-à¦ªà¦¶à§įà¦ļà¦¿à¦®": 10412,
  "-à¦ªà§Ĥà¦°à§įà¦¬": 7655,
  "-à¦ªà§Ĥà¦°à§įà¦¬à§ĩ": 11175,
  "-à¦ı": 8824,
  "-à®Ĩà®®à¯į": 8405,
  ".": 50,
  ".\"": 2946,
  ".)": 4221,
  ".,": 6331,
  "..": 593,
  "...": 934,
  "....": 6558,
  ".S.": 4381,
  "._": 5936,
  "._j": 3042,
  "._jvm.": 7352,
  ".com": 3341,
  ".d": 7072,
  ".g.": 8012,
  ".h": 9263,
  ".j": 10415,
  ".map": 4780,
  ".map(": 11177,
  ".p": 5299,
  ".predict": 8827,
  ".s": 2821,
  ".spark.": 10416,
  ".t": 2785,
  ".tree": 8828,
  ".w": 5937,
  ".à®Ĭ": 4382,
  ".à®Ĭ.": 4383,
  ".à®ķ": 11176,
  ".âĢĿ": 4663,
  "/": 51,
  "//": 2996,
  "/2": 2844,
  "/2011": 9827,
  "/2011|": 11178,
  "/eq}": 9825,
  "/m": 8013,
  "/p": 9826,
  "0": 52,
  "0$": 10417,
  "0)": 4309,
  "0,": 918,
  "0,000": 4781,
  "0.": 1252,
  "0.0": 5761,
  "0.0,": 8014,
  "00": 492,
  "00,": 8829,
  "000": 1473,
  "01": 714,
  "011": 6559,
  "05": 3482,
  "06": 9828,
  "1": 53,
  "1\",": 9264,
  "1',": 10418,
  "1)": 3084,
  "1),": 8015,
  "1+": 4664,
  "1,": 991,
  "1-": 7353,
  "1.": 1228,
  "1.0": 10419,
  "1.0,": 6803,
  "10": 2174,
  "10.": 8016,
  "10/2011|": 11179,
  "100": 3537,
  "11": 2299,
  "12": 2108,
  "13": 3538,
  "14": 3781,
  "15": 2259,
  "16": 2692,
  "17": 5300,
  "18": 2822,
  "19": 2380,
  "1:": 6332,
  "1\\": 7073,
  "1]": 6333,
  "1}": 2474,
  "1}{": 2406,
  "2": 54,
  "2',": 11180,
  "2)": 3378,
  "2),": 8830,
  "2,": 1179,
  "2.": 1350,
  "2.0": 8410,
  "20": 2211,
  "200": 4126,
  "201": 6334,
  "21": 3483,
  "22": 2520,
  "23": 3720,
  "24": 5162,
  "25": 2908,
  "26": 8409,
  "27": 7354,
  "28": 5446,
  "29": 7074,
  "2:": 7355,
  "2]": 7356,
  "2],": 10420,
  "2}": 1485,
  "2}$": 6560,
  "2}}": 9829,
  "3": 55,
  "3)": 4665,
  "3,": 1769,
  "3.": 1793,
  "30": 2721,
  "300": 10421,
  "31": 10422,
  "32": 6131,
  "33": 9830,
  "34": 9831,
  "35": 4666,
  "36": 7658,
  "37": 5596,
  "38": 5597,
  "39": 7075,
  "3]": 10423,
  "3],": 7076,
  "3}": 3653,
  "4": 56,
  "4)": 3975,
  "4,": 2668,
  "4.": 2276,
  "40": 3484,
  "41": 9832,
  "43": 3085,
  "44": 6335,
  "45": 2693,
  "46": 8411,
  "48": 4127,
  "49": 7077,
  "4],": 9833,
  "4}": 5762,
  "5": 57,
  "5%": 5022,
  "5)": 6336,
  "5),": 9834,
  "5,": 1569,
  "5,000": 9836,
  "5.": 2613,
  "50": 2475,
  "500": 6132,
  "54": 10424,
  "55": 9835,
  "56": 7659,
  "58": 11181,
  "6": 58,
  "6%": 9265,
  "6)": 4667,
  "6,": 2823,
  "6.": 2755,
  "60": 3782,
  "600": 11182,
  "63": 6804,
  "64": 4222,
  "65": 11183,
  "66": 5763,
  "68": 4384,
  "7": 59,
  "7)": 8017,
  "7,": 3342,
  "7.": 3086,
  "70": 5301,
  "75": 8018,
  "76": 4782,
  "78": 8412,
  "8": 60,
  "8,": 3485,
  "8.": 3303,
  "80": 3304,
  "800": 11184,
  "85": 5764,
  "86": 11185,
  "87": 11186,
  "89": 7357,
  "9": 61,
  "9)": 8831,
  "9,": 3654,
  "9.": 4128,
  "90": 4904,
  "93": 8413,
  "95": 6337,
  "97": 8832,
  "98": 4129,
  "99": 3043,
  ":": 62,
  ":#": 5765,
  ":**": 9266,
  "://": 5023,
  ":0": 4783,
  ":00": 5024,
  ":1": 9267,
  ":2": 4668,
  ":3": 4053,
  ":4": 4784,
  ":5": 3921,
  "::": 2845,
  ":`": 1879,
  ":param": 1135,
  ":return": 4575,
  ":return:": 5025,
  ";": 63,
  ";\"": 5766,
  "<": 64,
  "</": 8019,
  "<bos>": 1,
  "<doc>": 3,
  "<eos>": 2,
  "<pad>": 0,
  "=": 65,
  "=\"": 2277,
  "='": 9268,
  "=(": 10425,
  "=0": 3783,
  "=0.": 4905,
  "=1": 4054,
  "=1,": 10426,
  "=2": 4223,
  "=3": 8414,
  "=4": 9837,
  "=False": 5767,
  "=False):": 7660,
  "=None": 1974,
  "=None):": 3044,
  "=None,": 3849,
  "=True": 5768,
  "=True)": 9269,
  "=\\": 3219,
  "=\\frac{": 6338,
  "=j": 5938,
  "=u'": 2846,
  "=u'Alice": 5598,
  "=u'Bob": 5026,
  "=u'Bob')]": 9270,
  "=u'Bob',": 8020,
  "=x": 10427,
  "={": 8833,
  ">": 66,
  ">>": 563,
  ">>>": 792,
  "?": 67,
  "?),": 8834,
  "@": 68,
  "@param": 6133,
  "A": 69,
  "A,": 6561,
  "A.": 8415,
  "AC": 4130,
  "AI": 4131,
  "AIL": 5770,
  "AL": 5447,
  "AM": 6805,
  "AN": 3423,
  "AP": 4669,
  "AR": 4055,
  "AS": 3922,
  "AT": 2909,
  "Ab": 7358,
  "According": 8021,
  "Ada": 7359,
  "Add": 7360,
  "After": 11187,
  "Agg": 8022,
  "Ak": 9838,
  "Al": 1975,
  "Alice": 3305,
  "Alice|": 7362,
  "All": 5769,
  "Am": 7361,
  "An": 2278,
  "And": 3923,
  "Ant": 11188,
  "Any": 8417,
  "Ap": 4056,
  "Approx": 8418,
  "Ar": 2947,
  "As": 2722,
  "At": 8416,
  "Aut": 9271,
  "B": 70,
  "BA": 9839,
  "BC": 6562,
  "BF": 9272,
  "Be": 10428,
  "Bl": 10429,
  "Bob": 4670,
  "But": 4906,
  "By": 1541,
  "ByKey": 2997,
  "ByKey(": 9273,
  "ByKey(self,": 10430,
  "Bytes": 7078,
  "BytesSp": 7661,
  "BytesSpilled": 7662,
  "C": 71,
  "C)": 8419,
  "CC": 6134,
  "CE": 6563,
  "CEPT": 10431,
  "CO": 11189,
  "CT": 8835,
  "Can": 6806,
  "Car": 11190,
  "Ch": 5302,
  "Che": 7663,
  "Check": 11191,
  "Cl": 2694,
  "Class": 3976,
  "Code": 6807,
  "Codec": 11192,
  "Col": 3721,
  "Column": 5599,
  "Column`": 11193,
  "Com": 3539,
  "Comb": 5939,
  "Combin": 5940,
  "Combiners": 11194,
  "Comput": 8836,
  "Con": 1993,
  "Cont": 9840,
  "Context": 6339,
  "Converter": 6808,
  "D": 72,
  "DA": 7079,
  "DC": 10432,
  "DD": 1081,
  "DE": 4224,
  "DF": 4785,
  "DO": 10433,
  "DStream": 9274,
  "D_{": 7664,
  "Data": 4907,
  "DataFrame": 2476,
  "DataFrame`": 3540,
  "David": 9275,
  "De": 4576,
  "Delta": 3924,
  "Dep": 5303,
  "Desc": 9841,
  "DescripciÃ³n": 10434,
  "Dis": 5941,
  "Disp": 11195,
  "Duration": 5163,
  "Duration,": 7665,
  "E": 73,
  "ED": 5600,
  "EE": 4671,
  "EM": 4057,
  "EMAIL": 9842,
  "EN": 5164,
  "ER": 3121,
  "EX": 5165,
  "EXCEPT": 10435,
  "E_": 7080,
  "Each": 11196,
  "El": 3541,
  "En": 2669,
  "Error": 2212,
  "Error(\"": 2847,
  "Error:": 9843,
  "Ex": 1964,
  "Example": 7666,
  "Expr": 10436,
  "Expression": 10437,
  "F": 74,
  "FA": 6809,
  "FF": 11197,
  "False": 4310,
  "Features": 8420,
  "Field": 6340,
  "File": 3655,
  "Find": 8023,
  "First": 10438,
  "For": 3087,
  "Form": 8024,
  "Format": 10439,
  "Frame": 1542,
  "From": 7081,
  "Func": 2336,
  "Func,": 9276,
  "Function": 7082,
  "F}": 9844,
  "G": 75,
  "GE": 10440,
  "GM": 8421,
  "GS": 11198,
  "Ge": 8837,
  "Gener": 9277,
  "Get": 9845,
  "Given": 6564,
  "Group": 11199,
  "H": 76,
  "He": 7667,
  "Here": 5304,
  "How": 4058,
  "I": 77,
  "I'": 4385,
  "I'm": 6812,
  "IC": 5601,
  "ID": 8838,
  "IG": 4908,
  "IGN": 10442,
  "II": 3977,
  "IN": 3486,
  "ING": 10443,
  "ION": 5942,
  "IP": 3487,
  "IR": 7083,
  "IS": 6810,
  "IT": 5771,
  "IV": 8839,
  "If": 2045,
  "Im": 9278,
  "In": 1048,
  "Index": 6565,
  "Inf": 8422,
  "Info": 9279,
  "Int": 10441,
  "Inte": 8423,
  "Is": 6811,
  "It": 2239,
  "It's": 7668,
  "Iter": 4132,
  "Iterations": 8840,
  "Iterator": 10444,
  "J": 78,
  "Java": 7084,
  "Join": 9280,
  "Joined:": 7363,
  "K": 79,
  "Key": 2587,
  "L": 80,
  "L'": 4577,
  "L,": 7364,
  "L.": 8424,
  "LA": 4225,
  "LAB": 9847,
  "LE": 5772,
  "LL": 10445,
  "LU": 8841,
  "LY": 8425,
  "La": 3306,
  "Las": 5773,
  "Last": 8025,
  "Le": 2300,
  "Left": 7670,
  "Let": 4475,
  "Level": 4578,
  "List": 9846,
  "Loc": 5943,
  "Local": 9281,
  "Location": 9282,
  "Log": 10446,
  "Long": 10447,
  "Los": 7669,
  "M": 81,
  "MEM": 9283,
  "ML": 4786,
  "MLlib": 9285,
  "MLlibFunc": 9286,
  "MO": 11200,
  "Man": 6341,
  "Map": 7085,
  "Mat": 9284,
  "Math": 10448,
  "Max": 6566,
  "Maximum": 8842,
  "Me": 5944,
  "Means": 11201,
  "Model": 2477,
  "My": 7365,
  "N": 82,
  "N:": 11202,
  "NA": 7671,
  "NN": 9848,
  "Name": 3220,
  "Name,": 10450,
  "New": 6342,
  "Next": 10449,
  "No": 9849,
  "None": 1724,
  "Not": 8026,
  "Note": 6135,
  "Now": 5305,
  "Num": 3588,
  "Number": 6813,
  "O": 83,
  "OH": 7366,
  "OM": 8426,
  "ON": 2910,
  "OR": 3589,
  "ORE_": 11205,
  "OT": 9850,
  "OU": 6814,
  "Oct": 8027,
  "Of": 11203,
  "Ok": 11204,
  "Om": 4672,
  "Omeg": 4909,
  "Omega": 5602,
  "On": 5306,
  "One": 8427,
  "Op": 8028,
  "Or": 4787,
  "Our": 7367,
  "Out": 8428,
  "P": 84,
  "P.": 8429,
  "PA": 10451,
  "PC": 7672,
  "PI": 11206,
  "PS": 7673,
  "PT": 9851,
  "PU": 8430,
  "Par": 4673,
  "Partition": 1153,
  "Partitions": 1474,
  "Partitions()": 8030,
  "Partitions,": 6344,
  "Parts": 11207,
  "Pe": 10452,
  "Per": 8431,
  "Ph": 4674,
  "Phone": 7368,
  "Pl": 7086,
  "Point": 3722,
  "Pos": 8432,
  "Post": 3122,
  "Posted": 5448,
  "Posts:": 8031,
  "Pr": 6567,
  "Pre": 8029,
  "Pro": 3343,
  "Python": 6343,
  "Q": 85,
  "Qu": 4311,
  "Question": 9287,
  "R": 86,
  "RC": 9852,
  "RDD": 2723,
  "RE": 6345,
  "RL": 9853,
  "Random": 8433,
  "Re": 2053,
  "Read": 9288,
  "Rec": 11208,
  "Reduce": 6346,
  "Reg": 5449,
  "Replacement": 4910,
  "Return": 2005,
  "Returns": 3488,
  "Right": 6815,
  "Row(": 3978,
  "S": 87,
  "S)": 11209,
  "S,": 7087,
  "S.": 3489,
  "SC": 5027,
  "SD": 6568,
  "SE": 5307,
  "SP": 8843,
  "SS": 4579,
  "ST": 3123,
  "ST)": 9854,
  "Sample": 8844,
  "Sc": 4675,
  "Se": 3168,
  "See": 9855,
  "Serializer": 5945,
  "Set": 7088,
  "Sh": 7369,
  "Sim": 9289,
  "Since": 10453,
  "Size": 4312,
  "So": 5308,
  "Sp": 4476,
  "St": 1118,
  "Stat": 10454,
  "StorageLevel": 6816,
  "Str": 8032,
  "Stream": 2521,
  "String": 6569,
  "StructField": 8434,
  "StructType": 11210,
  "Sub": 5309,
  "T": 88,
  "T)": 9290,
  "TC": 9856,
  "Task": 10455,
  "Te": 7674,
  "TeX": 11211,
  "Text": 9857,
  "Th": 1151,
  "Thank": 9858,
  "Thanks": 10458,
  "That": 6347,
  "The": 707,
  "Then": 8436,
  "There": 4477,
  "Theta": 5774,
  "This": 1633,
  "Time": 7370,
  "Title": 9291,
  "To": 3088,
  "Top": 7371,
  "Tr": 2314,
  "Traceback": 10459,
  "Train": 7089,
  "Tree": 10456,
  "Trees": 8435,
  "True": 3221,
  "Try": 10457,
  "Type": 1229,
  "Type(": 6348,
  "Type()": 6817,
  "Type(),": 8033,
  "Type)": 10460,
  "Type,": 8034,
  "Type:": 7372,
  "U": 89,
  "UE": 11212,
  "UN": 11213,
  "Un": 3169,
  "Unit": 10462,
  "Up": 10461,
  "Us": 8437,
  "V": 90,
  "VI": 11214,
  "VM": 8845,
  "Val": 5775,
  "Value": 3045,
  "Values": 6349,
  "Vector": 5776,
  "View": 7373,
  "W": 91,
  "We": 1847,
  "Wh": 4478,
  "What": 4386,
  "When": 4133,
  "While": 10463,
  "Why": 9859,
  "Window": 5946,
  "With": 3170,
  "WithIndex": 7090,
  "X": 92,
  "Y": 93,
  "YT": 11215,
  "You": 4226,
  "Z": 94,
  "[": 95,
  "[\"": 7675,
  "[('a',": 9292,
  "[0": 2381,
  "[0,": 8846,
  "[0]": 3850,
  "[0],": 7091,
  "[1": 2357,
  "[1,": 7676,
  "[1]": 3344,
  "[Row(": 4313,
  "[Row(age=": 8438,
  "[Row(age=2,": 11217,
  "[Row(name": 8847,
  "[S": 11216,
  "[Theta": 8035,
  "[Theta]": 9294,
  "[[": 9860,
  "[\\": 8036,
  "[\\rot": 11218,
  "[\\rotate": 11219,
  "[\\rotatebox{": 11220,
  "[\\rotatebox{90": 11221,
  "[i": 9293,
  "[ÃĹ": 3925,
  "[ÃĹ3],": 7677,
  "[ÃĹ4],": 11222,
  "\\": 96,
  "\\,": 6570,
  "\\[Theta]": 11223,
  "\\\\": 6136,
  "\\\\n": 8439,
  "\\b": 2407,
  "\\bar": 8848,
  "\\begin": 5450,
  "\\begin{": 7375,
  "\\boldsymbol": 8037,
  "\\c": 5310,
  "\\cdot": 10466,
  "\\end": 5947,
  "\\end{": 10467,
  "\\frac{": 1648,
  "\\frac{1}{": 7376,
  "\\frac{\\": 5028,
  "\\gant": 5948,
  "\\gantt": 8038,
  "\\ganttbar": 8039,
  "\\ge": 11224,
  "\\in": 2639,
  "\\infty": 4388,
  "\\left": 7374,
  "\\left(": 4387,
  "\\n": 2358,
  "\\n\"": 8040,
  "\\partial": 10464,
  "\\phi": 9295,
  "\\pi": 3784,
  "\\r": 6137,
  "\\rangle": 7092,
  "\\right": 1431,
  "\\right)": 1848,
  "\\right)$": 4389,
  "\\sin": 11225,
  "\\sqrt{": 4479,
  "\\sqrt{1+": 5603,
  "\\sqrt{1+t": 9862,
  "\\sqrt{1+t}": 9298,
  "\\text{": 9296,
  "\\theta": 5777,
  "\\times": 9861,
  "\\to": 10465,
  "\\us": 9297,
  "\\usep": 9299,
  "\\usepackage": 9300,
  "\\usepackage{": 11226,
  "\\{": 7678,
  "\\{N": 11227,
  "\\}": 6571,
  "]": 97,
  "])": 1705,
  "]),": 7679,
  "]).": 5166,
  "],": 1424,
  "].": 3490,
  "]]": 4788,
  "]{": 7680,
  "^": 98,
  "^0": 6572,
  "^2": 1380,
  "^2x": 8849,
  "^3": 8440,
  "^d": 9301,
  "^k": 9302,
  "^n": 6350,
  "^p": 6818,
  "^{": 1131,
  "^{-1}": 11228,
  "^{2}": 6819,
  "_": 99,
  "_0": 3491,
  "_1": 3979,
  "_1,": 8850,
  "_2": 2497,
  "_2$": 8852,
  "_4": 9863,
  "_F": 4480,
  "__": 2073,
  "____": 10471,
  "_as": 8041,
  "_c": 5029,
  "_con": 3492,
  "_conf.": 9303,
  "_convert": 7378,
  "_convert_to_vector": 10472,
  "_d": 1486,
  "_dat": 5311,
  "_data": 7093,
  "_datatype": 7682,
  "_dir": 7094,
  "_doc": 9304,
  "_doc__": 9865,
  "_f": 9864,
  "_face": 7681,
  "_face_locations": 9866,
  "_from": 11229,
  "_h": 7377,
  "_hash": 9305,
  "_i": 3260,
  "_i$": 8442,
  "_im": 6351,
  "_inf": 8851,
  "_items": 10468,
  "_j": 1035,
  "_java": 9867,
  "_jvm.": 10473,
  "_k": 6352,
  "_l": 2382,
  "_level": 8441,
  "_limit": 10474,
  "_loc": 7095,
  "_local": 6820,
  "_localize": 8853,
  "_locations": 7683,
  "_m": 2824,
  "_memory": 5030,
  "_minimum": 10469,
  "_minimum_p": 10475,
  "_model": 9868,
  "_n": 2189,
  "_name": 10470,
  "_of": 11230,
  "_of_t": 11231,
  "_of_times": 11232,
  "_of_times_to_": 11233,
  "_of_times_to_up": 11234,
  "_of_times_to_upsample": 11235,
  "_p": 2879,
  "_path": 6353,
  "_s": 1479,
  "_spill": 8854,
  "_st": 2825,
  "_storage_level": 10476,
  "_stream": 10477,
  "_string": 8855,
  "_t": 1438,
  "_time": 10478,
  "_to_": 3723,
  "_to_vector": 8042,
  "_type": 2359,
  "_type_ver": 8443,
  "_type_verifier": 8444,
  "_ver": 5451,
  "_version": 10479,
  "_{": 938,
  "_{0": 8445,
  "_{1}": 9306,
  "_{\\": 8043,
  "_{n": 6354,
  "`": 100,
  "`,": 10480,
  "`.": 4911,
  "``": 2315,
  "``,": 8044,
  "```": 11236,
  "a": 101,
  "a\",": 4481,
  "a',": 5604,
  "a)": 3171,
  "a,": 949,
  "a-": 6355,
  "a.": 1236,
  "aa": 11237,
  "ab": 491,
  "aba": 6574,
  "abase": 8045,
  "abe": 3494,
  "abel": 2849,
  "abeled": 4060,
  "abeledPoint": 4482,
  "abet": 8856,
  "abilities": 7379,
  "ability": 1976,
  "abl": 2640,
  "able": 761,
  "able,": 6141,
  "able.": 8857,
  "able_hash": 9307,
  "abled": 7096,
  "ables": 3124,
  "ably": 3345,
  "abol": 7684,
  "abor": 4314,
  "ac": 369,
  "acc": 10481,
  "ace": 738,
  "acea": 8447,
  "aceae": 6142,
  "aceae,": 11239,
  "aceback": 9869,
  "aced": 5605,
  "aces": 2451,
  "ach": 839,
  "ache": 3172,
  "ached": 4483,
  "acher": 6575,
  "aches": 9870,
  "acing": 9308,
  "acion": 10482,
  "acional": 4134,
  "aciones": 5312,
  "aciÃ³n": 1697,
  "ack": 760,
  "ackage": 8858,
  "acle": 10483,
  "acro": 8046,
  "act": 872,
  "acter": 2998,
  "action": 3926,
  "acy": 8047,
  "ad": 387,
  "ad,": 10484,
  "ada": 1864,
  "adas": 3379,
  "adas,": 8448,
  "adata": 6356,
  "add": 3544,
  "ade": 1698,
  "adel": 10485,
  "adelph": 11240,
  "adelphia": 11241,
  "adem": 4390,
  "ademic": 7685,
  "ades": 5949,
  "adium": 10486,
  "ado": 1266,
  "ado,": 10487,
  "adoop": 6823,
  "ador": 6357,
  "ados": 2911,
  "ae": 3980,
  "af": 3656,
  "aff": 3493,
  "ag": 715,
  "agaz": 11242,
  "age": 666,
  "age,": 5606,
  "age.": 4790,
  "age:": 7686,
  "age=": 5607,
  "ager": 5313,
  "ages": 2279,
  "age|": 9310,
  "aging": 6576,
  "agn": 4135,
  "ago": 11243,
  "ags": 8449,
  "agu": 9309,
  "ague": 8450,
  "ah": 2695,
  "ai": 6138,
  "ail": 1262,
  "ailable": 2826,
  "ailed": 8446,
  "ails": 5167,
  "aily": 8859,
  "aim": 2551,
  "ain": 696,
  "ain,": 11244,
  "ain.": 11245,
  "ained": 9871,
  "ains": 10488,
  "air": 1613,
  "aire": 6821,
  "ais": 3785,
  "ait": 3542,
  "aj": 3724,
  "ak": 971,
  "ake": 1425,
  "aker": 5452,
  "akes": 8860,
  "aking": 8451,
  "al": 298,
  "al,": 2452,
  "al.": 5778,
  "ale": 1606,
  "ales": 2827,
  "alf": 3851,
  "algÃ¨bre": 9311,
  "alias": 8048,
  "align": 2880,
  "ality": 2153,
  "alk": 2850,
  "all": 692,
  "alle": 1744,
  "alled": 9872,
  "allel": 1950,
  "ally": 1203,
  "ally,": 5779,
  "alph": 2912,
  "alpha": 4227,
  "alphag": 10489,
  "als": 2408,
  "alse": 2426,
  "alt": 3927,
  "alth": 2696,
  "alue": 2038,
  "aly": 7380,
  "am": 349,
  "ama": 5780,
  "amb": 1282,
  "ambda": 1794,
  "ambi": 4391,
  "ambiÃ©n": 4677,
  "ame": 580,
  "amed": 4676,
  "ament": 3786,
  "amente": 3495,
  "amer": 10490,
  "ames": 2383,
  "ames,": 9873,
  "amil": 1508,
  "amilton": 7097,
  "amm": 9312,
  "amma": 4315,
  "amment": 11246,
  "amp": 1833,
  "ampions": 8862,
  "ampionship": 9874,
  "ampl": 1865,
  "ample": 1036,
  "amples": 2671,
  "ampling": 5314,
  "amps": 8861,
  "ams": 6824,
  "an": 299,
  "an,": 5031,
  "ana": 6358,
  "anc": 1685,
  "ance": 768,
  "ance,": 5168,
  "anced": 5781,
  "ances": 3496,
  "ancial": 6577,
  "and": 519,
  "anda": 10491,
  "andas": 5952,
  "andas.": 10492,
  "ander": 9875,
  "ando": 3426,
  "andom": 1667,
  "ands": 5032,
  "ane": 5950,
  "aneous": 8452,
  "ang": 920,
  "ange": 1614,
  "angle": 2385,
  "angles": 9876,
  "angu": 11247,
  "ank": 1770,
  "anks": 3928,
  "ann": 2360,
  "anned": 9313,
  "annel": 5782,
  "ano": 5951,
  "ans": 764,
  "ansas": 11248,
  "ant": 573,
  "ant,": 11249,
  "anta": 7687,
  "ante": 2384,
  "antes": 7381,
  "antic": 8453,
  "ants": 2552,
  "any": 2224,
  "anz": 8049,
  "ap": 566,
  "apache": 7688,
  "apan": 8454,
  "ape": 4059,
  "api.": 10493,
  "apon": 11250,
  "app": 2409,
  "appa": 11252,
  "appen": 5953,
  "append": 5315,
  "append(": 9877,
  "approx": 11251,
  "aps": 4228,
  "apter": 3787,
  "ar": 304,
  "ar,": 8863,
  "aramente": 10494,
  "arante": 6359,
  "arb": 8455,
  "arc": 4136,
  "arch": 2190,
  "ard": 777,
  "ard.": 11253,
  "ards": 5954,
  "are": 900,
  "ared": 3424,
  "arent": 4138,
  "ares": 3543,
  "arg": 1147,
  "arge": 2427,
  "arget": 6361,
  "argin": 5453,
  "args": 5783,
  "ari": 922,
  "aria": 10495,
  "aries": 10496,
  "arily": 8456,
  "aring": 6825,
  "ario": 5170,
  "ark": 1155,
  "arl": 3590,
  "arlier": 6362,
  "arly": 2913,
  "armon": 8864,
  "arn": 1906,
  "arness": 7098,
  "arning": 4137,
  "aron": 5169,
  "arqu": 8865,
  "arquÃŃa": 11254,
  "array": 6360,
  "arrier": 6826,
  "arrow": 2410,
  "arrow_type": 6578,
  "arry": 8050,
  "ars": 3222,
  "arse": 8457,
  "art": 460,
  "arter": 7382,
  "arth": 5316,
  "artition": 1009,
  "artment": 4678,
  "arts": 5317,
  "ary": 853,
  "as": 324,
  "as,": 1439,
  "as.": 2094,
  "asc": 5608,
  "ase": 957,
  "ased": 3125,
  "ases": 4484,
  "aset": 2999,
  "ash": 2240,
  "asic": 7689,
  "asing": 6143,
  "ask": 2756,
  "ason": 1890,
  "ass": 703,
  "ass,": 11255,
  "assert": 11257,
  "ast": 728,
  "asta": 6144,
  "aste": 11256,
  "aster": 3346,
  "astic": 5033,
  "asure": 7383,
  "at": 283,
  "at,": 9314,
  "at.": 8051,
  "ata": 676,
  "ataFrame": 1561,
  "atal": 4912,
  "atalog": 9879,
  "ataset": 8052,
  "atch": 1634,
  "atched": 6827,
  "ate": 505,
  "ate,": 7100,
  "ate.": 9880,
  "ated": 786,
  "ated,": 11258,
  "ated.": 9881,
  "ateg": 5784,
  "ately": 3307,
  "ater": 2074,
  "ates": 1188,
  "ateur": 10497,
  "ath": 794,
  "ather": 3981,
  "atic": 7690,
  "ating": 1509,
  "ation": 395,
  "ation,": 1574,
  "ation.": 1699,
  "ation:": 4229,
  "ational": 1456,
  "ations": 882,
  "ations,": 4680,
  "ations.": 6145,
  "ativ": 4061,
  "ative": 1273,
  "atives": 8866,
  "ato": 9878,
  "ator": 965,
  "ators": 5172,
  "atory": 5173,
  "atre": 8867,
  "atro": 8868,
  "ats": 4679,
  "att": 6579,
  "atter": 5171,
  "attle": 7099,
  "attr": 5955,
  "atur": 2614,
  "ature": 2054,
  "atures": 2615,
  "atype": 6828,
  "au": 3425,
  "aul": 6139,
  "ault": 1399,
  "aume": 11238,
  "aur": 6573,
  "aus": 1351,
  "ause": 1965,
  "auss": 7384,
  "aut": 2848,
  "aux": 6140,
  "av": 813,
  "ava": 2046,
  "ave": 610,
  "aveAs": 10498,
  "aven": 6829,
  "aves": 9315,
  "avid": 5034,
  "aving": 3545,
  "avy": 8053,
  "aw": 2786,
  "ax": 1684,
  "ay": 453,
  "ay,": 4791,
  "ays": 1487,
  "az": 2670,
  "aÃ": 6822,
  "aÃ¯": 9882,
  "aÃ±": 4789,
  "b": 102,
  "b\",": 6146,
  "b',": 6363,
  "b,": 11259,
  "bName": 11260,
  "back": 2616,
  "background": 5787,
  "background:#": 5788,
  "ball": 5785,
  "bar": 3852,
  "batch": 4681,
  "be": 2522,
  "begin": 5454,
  "ber": 683,
  "berg": 5318,
  "bers": 2453,
  "bert": 4793,
  "beta": 9883,
  "bit": 4230,
  "bitrary": 8458,
  "bl": 3126,
  "ble": 1139,
  "blem": 1457,
  "bo": 9316,
  "body": 10499,
  "bon": 5174,
  "book": 7691,
  "bos": 11261,
  "bottom": 11262,
  "bound": 7101,
  "bow": 11263,
  "box": 3982,
  "box{": 9884,
  "bre": 3380,
  "bs": 3223,
  "bum": 11264,
  "bur": 5786,
  "but": 4792,
  "by": 4316,
  "c": 103,
  "c)": 4231,
  "c,": 2881,
  "c.": 2055,
  "cal": 2697,
  "call": 7385,
  "call(\"": 9319,
  "can": 9885,
  "cast": 4580,
  "cat": 9886,
  "cc": 878,
  "ccdd": 6147,
  "ccddff": 6148,
  "ccddff;\"": 6149,
  "cciÃ³n": 8459,
  "ccording": 6834,
  "ce": 414,
  "ced": 2337,
  "ceed": 9888,
  "cel": 9317,
  "cember": 8054,
  "cent": 2039,
  "cept": 1432,
  "ception": 4682,
  "cer": 3381,
  "ces": 1056,
  "cess": 1918,
  "ch": 455,
  "ch,": 11265,
  "chan": 4485,
  "chang": 11266,
  "change": 9889,
  "char": 9890,
  "che": 1253,
  "check": 9320,
  "ched": 4062,
  "chema": 5790,
  "cher": 6830,
  "ches": 4581,
  "child": 6150,
  "ching": 10500,
  "chn": 2301,
  "cho": 4392,
  "choose": 6364,
  "chunk": 7692,
  "ci": 1994,
  "cia": 6831,
  "cience": 4582,
  "cient": 9887,
  "cil": 5609,
  "cing": 6580,
  "cipl": 9891,
  "ciÃ³n": 6832,
  "ck": 990,
  "cl": 712,
  "class": 1966,
  "class:`": 2617,
  "cle": 3546,
  "clear": 11267,
  "clos": 9321,
  "close": 6582,
  "close()": 11268,
  "co": 2787,
  "code": 6833,
  "col": 999,
  "cole": 9318,
  "collect": 2175,
  "collect()": 2280,
  "color": 6835,
  "cols": 3984,
  "column": 7102,
  "com": 1211,
  "comb": 7103,
  "come": 5789,
  "comes": 7693,
  "coming": 9892,
  "comm": 9322,
  "comp": 8055,
  "con": 818,
  "cond": 1795,
  "condition": 11269,
  "conf": 7694,
  "conom": 3547,
  "const": 9893,
  "contin": 7386,
  "conv": 9323,
  "cor": 3983,
  "cos": 3173,
  "count": 3174,
  "count()": 8460,
  "cre": 1458,
  "create": 5791,
  "crete": 8869,
  "cs": 3853,
  "csi": 8870,
  "css": 10501,
  "ct": 344,
  "ction": 558,
  "ctions": 2428,
  "ctor": 1304,
  "ctx": 2498,
  "cu": 3382,
  "cuent": 7104,
  "cul": 1532,
  "cular": 6581,
  "cur": 3127,
  "curity": 5455,
  "current": 9324,
  "cus": 3591,
  "d": 104,
  "d-": 6365,
  "d.": 5456,
  "da": 1360,
  "data": 2914,
  "data.": 10502,
  "date": 4583,
  "day": 1324,
  "day,": 3128,
  "day.": 9894,
  "dd": 694,
  "de": 528,
  "def": 754,
  "default": 2075,
  "default:": 3046,
  "deg": 9325,
  "dehÃŃ": 8461,
  "dele": 11271,
  "delta": 7695,
  "der": 911,
  "dered": 6836,
  "dev": 11272,
  "dex": 4232,
  "df": 2109,
  "df,": 6837,
  "df.": 2757,
  "dfrac{": 5610,
  "dict": 11270,
  "dis": 2948,
  "display": 3592,
  "displaystyle": 3788,
  "do": 3657,
  "doc": 5457,
  "document": 6583,
  "document}": 10503,
  "dos": 7696,
  "dot": 3175,
  "down": 8871,
  "draw": 8056,
  "drop": 7697,
  "dstream": 8872,
  "dt": 5458,
  "du": 809,
  "duct": 4913,
  "dx": 5956,
  "e": 105,
  "e,": 1494,
  "e.": 1352,
  "e.g.": 4317,
  "e^{": 10504,
  "ead": 3129,
  "ear": 982,
  "earch": 3789,
  "eatures": 6366,
  "eb": 2225,
  "ec": 1381,
  "ecause": 8874,
  "ect": 773,
  "ection": 6584,
  "ector": 4486,
  "ed": 322,
  "ed,": 2137,
  "ed.": 1510,
  "ed:": 10505,
  "edd": 9326,
  "ederal": 5319,
  "edge": 10506,
  "edia": 8057,
  "edom": 9896,
  "eds": 6367,
  "educe": 5611,
  "ee": 5792,
  "ef": 9895,
  "efficient": 4914,
  "eg": 1210,
  "egin": 3047,
  "ein": 7698,
  "ek": 1640,
  "el": 333,
  "el,": 8875,
  "el.": 9327,
  "elcome": 8462,
  "elength": 8876,
  "eler": 7699,
  "elf": 537,
  "elf.": 659,
  "elif": 2698,
  "eline": 6368,
  "ell": 830,
  "ell,": 9897,
  "elle": 6151,
  "eloc": 8463,
  "els": 8058,
  "else:": 2316,
  "elta": 2851,
  "ely": 1284,
  "ely,": 8464,
  "em": 452,
  "eman": 11273,
  "ember": 3089,
  "emble": 11274,
  "ement": 1160,
  "ements": 8059,
  "emory": 3261,
  "emp": 6585,
  "empl": 7387,
  "emple": 11275,
  "employ": 6838,
  "empt": 5320,
  "ems": 1502,
  "en": 286,
  "en,": 5793,
  "en.": 7105,
  "enc": 1254,
  "ence": 950,
  "ence,": 9328,
  "ences": 8877,
  "encia": 4139,
  "encias": 9898,
  "encies": 8879,
  "ency": 3383,
  "end": 675,
  "endant": 9899,
  "ended": 4795,
  "ender": 7700,
  "ending": 3929,
  "endo": 6369,
  "ends": 6586,
  "ene": 2386,
  "ened": 10507,
  "ener": 1020,
  "eng": 1659,
  "enge": 8465,
  "ength": 2242,
  "ening": 8878,
  "enior": 7106,
  "enn": 4584,
  "ens": 1175,
  "ense": 3000,
  "ension": 2641,
  "ensive": 5175,
  "ent": 341,
  "enta": 10508,
  "ental": 7388,
  "ente": 2123,
  "ential": 3854,
  "entially": 10509,
  "entil": 10510,
  "ention": 6152,
  "ently": 11276,
  "ento": 11277,
  "ents": 1105,
  "ep": 929,
  "eps": 2852,
  "epsilon": 3790,
  "epsilon_F": 7701,
  "eq": 4794,
  "equ": 3725,
  "equiv": 7107,
  "eq}": 7702,
  "er": 279,
  "er\"": 10511,
  "er's": 9329,
  "er,": 1649,
  "er.": 1551,
  "era": 5957,
  "eral": 3855,
  "erator": 2040,
  "erc": 2828,
  "ercial": 8881,
  "ercise": 8060,
  "erd": 9330,
  "ere": 896,
  "ered": 4915,
  "eren": 7703,
  "erg": 2021,
  "erial": 1475,
  "erializ": 1951,
  "erializer": 2338,
  "erializer.": 9900,
  "erical": 6587,
  "eries": 4916,
  "ering": 2499,
  "eringue": 6588,
  "erk": 8880,
  "erm": 1046,
  "erman": 7389,
  "ern": 2191,
  "ero": 1849,
  "eros": 4585,
  "erre": 7108,
  "ers": 615,
  "ers,": 3658,
  "ers.": 3930,
  "erse": 10512,
  "ership": 9331,
  "ersist": 6370,
  "erson": 1977,
  "ert": 1706,
  "ertain": 3497,
  "ertia": 9332,
  "erv": 1073,
  "ery": 6839,
  "es": 290,
  "es)": 9333,
  "es,": 816,
  "es.": 810,
  "es:": 10513,
  "esc": 2882,
  "escription": 5794,
  "ese": 9334,
  "eserializer": 4683,
  "esian": 8466,
  "esp": 10514,
  "ess": 646,
  "ession": 5958,
  "est": 445,
  "est,": 8061,
  "est.": 9335,
  "est:": 11278,
  "este": 11279,
  "ested": 8062,
  "ester": 8882,
  "estion": 1967,
  "estions": 4796,
  "estring": 5176,
  "et": 345,
  "et.": 4684,
  "eta": 4393,
  "eter": 2523,
  "eterm": 5795,
  "eters": 6371,
  "eth": 1145,
  "ethod": 1716,
  "etic": 4233,
  "etime": 6589,
  "etime64": 10515,
  "eting": 3384,
  "ets": 1968,
  "ette": 5959,
  "eturn": 1850,
  "etwork": 2642,
  "ety": 3385,
  "eur": 8873,
  "ever": 2241,
  "ever,": 3176,
  "ew": 1488,
  "ex": 1394,
  "except": 8883,
  "exo": 9901,
  "exp": 7704,
  "ext": 3985,
  "ey": 1995,
  "f": 106,
  "f.": 1132,
  "face": 2588,
  "famil": 9902,
  "familia": 11280,
  "fect": 4685,
  "fer": 1907,
  "fere": 1049,
  "feren": 3659,
  "ference": 2883,
  "ferences": 5614,
  "ferent": 9336,
  "fess": 9903,
  "ff": 815,
  "ffect": 2949,
  "ffic": 2138,
  "fficial": 11281,
  "fficient": 3048,
  "fic": 2226,
  "ficie": 7110,
  "ficult": 5615,
  "field": 4234,
  "fil": 7109,
  "file": 3856,
  "fill": 8884,
  "filter": 9904,
  "fin": 3791,
  "finition": 8887,
  "fit": 5960,
  "fix": 5961,
  "fl": 4235,
  "float": 8885,
  "flow": 8063,
  "fo": 4140,
  "fol": 6590,
  "folder": 11282,
  "for": 733,
  "ford": 5616,
  "fore": 1615,
  "form": 904,
  "format": 11283,
  "formation": 2095,
  "fort": 5612,
  "fr": 827,
  "frac": 935,
  "frac{": 983,
  "frak": 5613,
  "frame": 6841,
  "frique": 8064,
  "from": 3548,
  "front": 11284,
  "fs": 8467,
  "ft": 769,
  "fter": 1585,
  "fty": 4063,
  "ful": 2213,
  "fun": 8886,
  "func": 2643,
  "func:`": 5035,
  "function": 6840,
  "g": 107,
  "g,": 7390,
  "g.": 2139,
  "g_path": 10516,
  "gal": 8888,
  "gan": 2096,
  "gant": 4797,
  "ge": 471,
  "geb": 3793,
  "gebra": 4394,
  "ged": 9337,
  "gen": 4686,
  "gent": 7705,
  "geq": 6842,
  "ger": 2227,
  "gers": 4586,
  "ges": 7706,
  "get": 1526,
  "getNum": 9338,
  "getNumPartitions()": 9906,
  "gether": 5177,
  "gg": 2884,
  "gh": 936,
  "ghan": 11285,
  "gin": 3427,
  "ging": 8065,
  "gl": 5796,
  "gn": 7111,
  "gne": 10517,
  "go": 5797,
  "gor": 1700,
  "gorith": 2699,
  "gr": 1052,
  "gram": 2076,
  "ground": 3792,
  "group": 4487,
  "gs": 9905,
  "gÃ¨bre": 8468,
  "h": 108,
  "h,": 10518,
  "haps": 6591,
  "has": 9907,
  "hat": 1552,
  "he": 274,
  "head": 3001,
  "hed": 1476,
  "height": 6592,
  "hel": 8889,
  "hemat": 2618,
  "hen": 1834,
  "hent": 11288,
  "her": 559,
  "here": 2619,
  "hes": 4488,
  "hest": 5321,
  "hetic": 8890,
  "hib": 5798,
  "hing": 11286,
  "hip": 3386,
  "hn": 11287,
  "ho": 3549,
  "hom": 9339,
  "hood": 8066,
  "hor": 3660,
  "hors": 10519,
  "how": 5178,
  "ht": 6372,
  "html": 7708,
  "https://": 10520,
  "hÃŃ": 7707,
  "i": 109,
  "i)": 3661,
  "i,": 3090,
  "i-": 4587,
  "i.": 2829,
  "ia": 636,
  "ia,": 2644,
  "ia.": 3794,
  "ial": 587,
  "ially": 2645,
  "iam": 7391,
  "ian": 1146,
  "iance": 8067,
  "iano": 9343,
  "ians": 8469,
  "iant": 10521,
  "iar": 7392,
  "ias": 2454,
  "ib": 765,
  "iber": 8470,
  "ibility": 5800,
  "ible": 1413,
  "ibrary": 4395,
  "ic": 326,
  "ic,": 10524,
  "ica": 2317,
  "ica,": 11289,
  "ica.": 7709,
  "ical": 739,
  "ically": 2361,
  "ican": 3430,
  "icare": 9910,
  "icas": 4589,
  "ice": 863,
  "iced": 11290,
  "ices": 3263,
  "ich": 762,
  "icha": 7712,
  "icial": 4236,
  "ician": 7710,
  "icious": 8893,
  "icity": 10525,
  "iciÃ³n": 6843,
  "ick": 1176,
  "ickle": 8895,
  "ickleSerializer": 11291,
  "icle": 9344,
  "ico": 2950,
  "ico,": 7711,
  "icon": 8069,
  "icos": 5179,
  "ics": 1289,
  "ics,": 6594,
  "ics.": 8894,
  "ict": 1237,
  "icture": 8471,
  "icular": 9345,
  "id": 389,
  "ida": 3498,
  "idad": 1891,
  "idades": 9911,
  "idas": 8472,
  "idate": 5180,
  "idd": 5322,
  "ide": 800,
  "ided": 4064,
  "idence": 4237,
  "ident": 1625,
  "ideo": 5036,
  "ider": 1919,
  "idered": 5963,
  "ides": 3857,
  "iding": 5962,
  "ido": 2411,
  "idos": 6373,
  "ids": 5617,
  "idth": 5323,
  "ie": 670,
  "ie,": 6374,
  "ied": 1198,
  "ief": 5801,
  "iel": 1148,
  "ield": 1225,
  "iem": 3428,
  "iempo": 9912,
  "ien": 1586,
  "ience": 2724,
  "iene": 9913,
  "ienne": 11292,
  "ient": 952,
  "iente": 7113,
  "ientific": 7393,
  "iento": 7713,
  "ients": 7714,
  "ientÃŃfic": 10527,
  "ier": 1089,
  "ierra": 8473,
  "iers": 6593,
  "iert": 8896,
  "ies": 651,
  "ies,": 3050,
  "ies.": 3550,
  "iest": 9908,
  "iet": 9340,
  "ieve": 4141,
  "ieved": 10526,
  "iew": 1459,
  "if": 412,
  "ife": 3986,
  "ifer": 9914,
  "iff": 5964,
  "ifferent": 9915,
  "ific": 1274,
  "ification": 5037,
  "ified": 1806,
  "ifier": 3987,
  "ifies": 9346,
  "ifol": 10528,
  "ifold": 3593,
  "iform": 5460,
  "ift": 5461,
  "ifts": 7715,
  "iful": 10529,
  "ify": 3795,
  "ifying": 7716,
  "ig": 393,
  "iga": 6844,
  "igen": 7717,
  "igh": 526,
  "ighb": 6153,
  "ighbors": 9347,
  "ight": 577,
  "ights": 3662,
  "igin": 9916,
  "igma": 4142,
  "ign": 854,
  "igon": 7394,
  "igonometry": 9918,
  "igu": 3091,
  "igual": 9917,
  "igure": 4238,
  "ii": 8891,
  "ij": 4489,
  "ik": 1553,
  "ike": 1097,
  "iki": 8474,
  "ikip": 9919,
  "il": 359,
  "il,": 11293,
  "ilar": 3431,
  "ild": 1345,
  "ile": 801,
  "ile,": 10531,
  "iled": 4143,
  "iler": 8475,
  "iles": 4687,
  "ili": 11294,
  "ilib": 10530,
  "iling": 7718,
  "ilities": 4065,
  "ility": 1448,
  "ill": 562,
  "illa": 10532,
  "ille": 8897,
  "illed": 3796,
  "ilon": 3432,
  "ilos": 9920,
  "ilt": 6154,
  "ily": 3433,
  "im": 373,
  "imal": 3051,
  "imate": 3347,
  "imation": 9348,
  "imb": 6375,
  "ime": 781,
  "imension": 2758,
  "iment": 2951,
  "imental": 11297,
  "iments": 11295,
  "imes": 1707,
  "imest": 3264,
  "imestamp": 4239,
  "imestamps": 11298,
  "imin": 8476,
  "imit": 1796,
  "imp": 11296,
  "import": 5965,
  "ims": 9921,
  "imum": 2111,
  "in": 272,
  "in,": 4688,
  "in.": 10533,
  "ina": 3002,
  "ina,": 6155,
  "inal": 2302,
  "inant": 7114,
  "inary": 3663,
  "inas": 11299,
  "ination": 4917,
  "inc": 2243,
  "ince": 1745,
  "inci": 11300,
  "incip": 3387,
  "inct": 5038,
  "ind": 740,
  "indow": 1784,
  "ine": 663,
  "ine,": 7115,
  "ine.": 8071,
  "inear": 6845,
  "ined": 1717,
  "ines": 2759,
  "iness": 3348,
  "inf": 3178,
  "info.": 9923,
  "ing": 325,
  "ing,": 1500,
  "ing.": 1771,
  "ingle": 2281,
  "ings": 2056,
  "ington": 8477,
  "ingu": 9349,
  "ining": 11301,
  "initial": 5039,
  "initialModel": 8478,
  "ink": 1298,
  "inn": 8070,
  "inner": 7719,
  "ino": 3265,
  "inos": 6376,
  "input": 9922,
  "ins": 1936,
  "inst": 1686,
  "instance": 1880,
  "int": 642,
  "inter": 5618,
  "ints": 9350,
  "iny": 11302,
  "io": 1069,
  "io,": 8068,
  "iod": 3429,
  "iol": 3726,
  "iom": 9341,
  "ion": 312,
  "ion,": 4689,
  "ion.": 3434,
  "ional": 1445,
  "iones": 2788,
  "ions": 1433,
  "ior": 2429,
  "ios": 3177,
  "iour": 10522,
  "ious": 1908,
  "ip": 725,
  "ipart": 8898,
  "ipe": 4588,
  "ipes": 9351,
  "ips": 4690,
  "iqu": 2110,
  "ique": 1521,
  "ique.": 11303,
  "iques": 4144,
  "iques,": 10534,
  "ir": 465,
  "ira": 5799,
  "iral": 8899,
  "irc": 2339,
  "ird": 2952,
  "ire": 910,
  "irect": 7720,
  "ired": 3262,
  "ires": 3727,
  "irit": 11304,
  "irm": 5181,
  "irst": 1032,
  "irt": 4318,
  "is": 294,
  "is,": 6377,
  "is.": 8900,
  "is_": 8479,
  "isa": 10535,
  "isation": 7116,
  "ise": 968,
  "ise.": 11306,
  "isect": 9924,
  "ised": 4490,
  "isf": 6846,
  "ish": 1477,
  "ished": 2430,
  "isher": 8480,
  "ishing": 7395,
  "ising": 5619,
  "ision": 2112,
  "isions": 11305,
  "isk": 4590,
  "isl": 10536,
  "ism": 1937,
  "ismo": 10537,
  "ison": 5040,
  "iss": 1822,
  "ission": 2789,
  "ist": 463,
  "ista": 10538,
  "istan": 7721,
  "istance": 5462,
  "iste": 8482,
  "istem": 4798,
  "ister": 5966,
  "istic": 2760,
  "istical": 9925,
  "istics": 5041,
  "istoire": 7117,
  "istor": 2830,
  "istoria": 10539,
  "istory": 5967,
  "istry": 7722,
  "ists": 3499,
  "istÃ¡n": 9926,
  "isÃ©": 8481,
  "it": 297,
  "ita": 10540,
  "itable": 10541,
  "ital": 3797,
  "itation": 8483,
  "itch": 6847,
  "itche": 9927,
  "ite": 867,
  "ite,": 8484,
  "ite.": 7396,
  "itect": 4591,
  "ited": 2620,
  "itely": 8072,
  "items": 3349,
  "iter": 5042,
  "ites": 5620,
  "ith": 450,
  "ither": 3052,
  "iti": 5043,
  "itial": 1952,
  "ities": 1607,
  "ition": 612,
  "ition.": 6157,
  "itional": 7397,
  "itive": 2412,
  "itle": 3266,
  "ito": 10542,
  "itor": 3988,
  "its": 2192,
  "itte": 6156,
  "itted": 9352,
  "ittee": 7118,
  "itude": 4491,
  "ity": 620,
  "ity,": 4691,
  "ity.": 8901,
  "itÃ©": 4319,
  "ium": 2700,
  "ius": 8892,
  "iv": 551,
  "ival": 3003,
  "ive": 641,
  "ive.": 9928,
  "ived": 4320,
  "ively": 5324,
  "iven": 1465,
  "iver": 1480,
  "ivers": 2140,
  "iversity": 3350,
  "ives": 2553,
  "ivid": 3224,
  "ividual": 3728,
  "iving": 4240,
  "ivity": 5463,
  "ix": 1543,
  "iy": 9909,
  "iz": 590,
  "izado": 11307,
  "ization": 2672,
  "ize": 923,
  "ized": 2701,
  "izes": 6848,
  "izing": 6378,
  "i}": 7112,
  "iÃ¨": 3049,
  "iÃ¨me": 8902,
  "iÃ¨re": 5464,
  "iÃ©": 9342,
  "iÃ±": 10523,
  "iÃ³": 5459,
  "iÃ³n": 1092,
  "j": 110,
  "ja": 9353,
  "jas": 5621,
  "java": 5182,
  "jc": 9354,
  "jdf": 6379,
  "ject": 1119,
  "jed": 6849,
  "jedrez": 8903,
  "jo": 7723,
  "join": 4145,
  "jor": 4799,
  "joy": 7119,
  "julia": 11308,
  "julia>": 11309,
  "k": 111,
  "k,": 7724,
  "k]": 10543,
  "ke": 561,
  "ken": 10544,
  "key": 2853,
  "key,": 9355,
  "kin": 5968,
  "known": 10545,
  "ks": 4321,
  "ky": 9929,
  "l": 112,
  "la": 8485,
  "lam": 3989,
  "lambda": 4692,
  "land": 2193,
  "land,": 9930,
  "lap": 10546,
  "ld": 619,
  "le": 310,
  "le,": 6595,
  "le.": 5803,
  "learn": 8486,
  "lease": 2387,
  "leb": 7726,
  "lect": 976,
  "lection": 3931,
  "lections": 11310,
  "led": 1014,
  "ledge": 9358,
  "left": 1053,
  "left(": 1565,
  "leg": 4493,
  "lege": 4918,
  "lement": 8074,
  "leq": 7120,
  "ler": 4492,
  "les": 1305,
  "les.": 10547,
  "less": 3004,
  "let": 3351,
  "lev": 4241,
  "levant": 11311,
  "level": 4693,
  "lex": 4694,
  "ley": 4695,
  "lg": 8073,
  "lib": 5465,
  "light": 5802,
  "lim": 6158,
  "limit": 7725,
  "lin": 5969,
  "line": 2214,
  "linear": 9359,
  "ling": 5325,
  "lish": 6159,
  "list": 5466,
  "ll": 1061,
  "llib": 7727,
  "ln": 9356,
  "lo": 986,
  "load": 3664,
  "loat": 4696,
  "log": 2500,
  "lood": 5622,
  "lope": 5970,
  "lor": 9357,
  "lores": 7121,
  "loresc": 8905,
  "low": 1065,
  "lt": 5183,
  "lu": 6160,
  "ly": 435,
  "ly,": 4146,
  "ly.": 5184,
  "lying": 6380,
  "lÃ©": 8904,
  "m": 113,
  "m,": 8906,
  "m.": 2340,
  "ma": 937,
  "mail": 6597,
  "make": 4919,
  "mall": 2006,
  "man": 1881,
  "man,": 11313,
  "mand": 5185,
  "mann": 11314,
  "map": 1718,
  "map(lambda": 10550,
  "mark": 3308,
  "market": 11315,
  "marks": 9933,
  "mary": 3932,
  "mas": 5804,
  "mat": 1797,
  "math": 1382,
  "mathb": 2244,
  "mathbb": 2501,
  "mathbb{": 3729,
  "mathbb{R": 5047,
  "mathbb{R}": 8487,
  "mathbf": 10551,
  "mathcal": 6850,
  "mathcal{": 9934,
  "mathfrak": 5623,
  "mathrm": 5046,
  "mathrm{": 5467,
  "mation": 9931,
  "max": 3665,
  "maz": 8078,
  "mb": 2047,
  "mber": 4147,
  "mbol": 2589,
  "me": 1687,
  "means": 10552,
  "med": 3551,
  "medi": 5048,
  "memory": 10548,
  "men": 11312,
  "ment": 584,
  "ment,": 5805,
  "ment.": 4148,
  "mente": 2478,
  "ments": 1512,
  "mer": 1387,
  "merg": 5468,
  "merge": 6382,
  "mes": 5044,
  "met": 2854,
  "mic": 8075,
  "min": 2260,
  "ming": 6596,
  "minimum": 8079,
  "minist": 6162,
  "mir": 10549,
  "mis": 9932,
  "mission": 6381,
  "mit": 3435,
  "ml": 4322,
  "mllib": 7728,
  "mllib.": 9935,
  "mod": 8076,
  "model": 7729,
  "mon": 2261,
  "more": 6161,
  "most": 3858,
  "mp": 3798,
  "ms": 8077,
  "mu": 5045,
  "my": 5971,
  "n": 114,
  "n't": 1746,
  "n,": 6851,
  "n.": 8488,
  "n_": 10553,
  "na": 2097,
  "nam": 10554,
  "name": 1388,
  "name,": 5186,
  "nce": 1554,
  "nd": 630,
  "nder": 7398,
  "ne": 914,
  "ner": 1495,
  "nes": 3130,
  "ness": 2318,
  "net": 8489,
  "neur": 11317,
  "new": 5806,
  "next": 11318,
  "ney": 5050,
  "ng": 1608,
  "ning": 1440,
  "nn": 4066,
  "no": 5624,
  "norm": 11316,
  "not": 2022,
  "note": 8907,
  "nov": 7122,
  "now": 1077,
  "nown": 6598,
  "nt": 597,
  "null": 7730,
  "null|": 11319,
  "num": 1920,
  "numPartitions": 5469,
  "number": 11320,
  "ny": 9360,
  "nâĢĻt": 5049,
  "o": 115,
  "o,": 1007,
  "o.": 1496,
  "oad": 8080,
  "ob": 892,
  "obal": 6600,
  "ober": 8908,
  "obier": 11323,
  "obile": 8082,
  "obj": 4149,
  "obj,": 8084,
  "object": 8083,
  "obre": 7399,
  "oc": 544,
  "ocal": 3005,
  "oci": 2048,
  "ocial": 4150,
  "ock": 1361,
  "ock_inf": 10555,
  "ocket": 7732,
  "ocol": 6601,
  "od": 454,
  "oday": 8910,
  "ode": 1021,
  "odel": 961,
  "odes": 4067,
  "oding": 9361,
  "odore": 9936,
  "ody": 3933,
  "oe": 8081,
  "oes": 4697,
  "of": 2124,
  "off": 6599,
  "og": 654,
  "ogle": 8085,
  "ogn": 3990,
  "ograf": 10556,
  "ogram": 7733,
  "ograph": 3388,
  "ographic": 7734,
  "ographicLocation": 10557,
  "oh": 2166,
  "ohn": 3006,
  "ohol": 10558,
  "oid": 3131,
  "oide": 11321,
  "oin": 2362,
  "oined": 4800,
  "oined:": 6853,
  "oint": 908,
  "oire": 5326,
  "ok": 846,
  "oky": 9937,
  "ol": 357,
  "ola": 4592,
  "old": 1129,
  "oldsymbol": 6164,
  "ole": 1807,
  "olean": 7400,
  "oles": 6163,
  "olid": 7735,
  "oliday": 10559,
  "oll": 5972,
  "olog": 1395,
  "ological": 6165,
  "ology": 3092,
  "ologÃŃa": 6166,
  "oluc": 11324,
  "olution": 2590,
  "olve": 6383,
  "om": 335,
  "oman": 8490,
  "omas": 10560,
  "omat": 5807,
  "omax": 10561,
  "omb": 2341,
  "ombre": 5051,
  "ome": 756,
  "omen": 3934,
  "omet": 2126,
  "ometimes": 6385,
  "ometric": 5974,
  "ometry": 4920,
  "omial": 5327,
  "omin": 5973,
  "omm": 4801,
  "omor": 7123,
  "omp": 6384,
  "on": 275,
  "on't": 9938,
  "on,": 3267,
  "on.": 7736,
  "ona": 7401,
  "onal": 9362,
  "onas": 8491,
  "ond": 3799,
  "one": 664,
  "ones": 3730,
  "oney": 4802,
  "ong": 916,
  "ons": 3132,
  "ont": 1325,
  "ony": 7737,
  "onym": 8911,
  "oo": 7731,
  "ood": 2125,
  "ook": 972,
  "ooking": 5328,
  "ool": 1616,
  "oop": 11322,
  "oot": 2673,
  "op": 652,
  "ope": 6852,
  "open": 8086,
  "operator": 11325,
  "oph": 7124,
  "opl": 8909,
  "ople": 1882,
  "opt": 3935,
  "optional": 10562,
  "opy": 4494,
  "or": 288,
  "or,": 4803,
  "or.": 11326,
  "orage": 2790,
  "orageLevel": 4698,
  "orage_level": 9363,
  "ord": 870,
  "order": 6602,
  "ordin": 4496,
  "ording": 3352,
  "ore": 594,
  "ored": 4396,
  "orem": 2953,
  "ores": 3436,
  "orest": 11328,
  "org": 4151,
  "org.": 7402,
  "org.apache": 7740,
  "org.apache.spark.": 10563,
  "org/": 5975,
  "organ": 5625,
  "orial": 5626,
  "ories": 7738,
  "oring": 7125,
  "ork": 864,
  "orld": 2524,
  "orm": 1544,
  "orn": 4495,
  "orney": 11327,
  "orra": 7739,
  "ors": 1835,
  "ort": 567,
  "orte": 4921,
  "orth": 3053,
  "ory": 1026,
  "os": 380,
  "os,": 1808,
  "os.": 2113,
  "ose": 960,
  "osen": 8087,
  "osh": 9364,
  "osp": 7126,
  "oss": 6386,
  "ost": 745,
  "ot": 386,
  "ota": 6854,
  "otal": 8492,
  "ote": 2431,
  "oth": 4922,
  "other": 1725,
  "ots": 4923,
  "ottom": 8912,
  "ou": 331,
  "oud": 5808,
  "ough": 1396,
  "ought": 7404,
  "ould": 708,
  "oun": 2245,
  "ounce": 9939,
  "ouncil": 6387,
  "ound": 1076,
  "ount": 1001,
  "ounter": 6855,
  "our": 729,
  "oura": 11329,
  "ourbon": 10565,
  "ourbonna": 11330,
  "ourc": 8913,
  "ource": 2525,
  "ources": 6603,
  "ourier": 8493,
  "ourn": 4397,
  "ournal": 6857,
  "ours": 3133,
  "ourse": 3732,
  "ourt": 6856,
  "ous": 951,
  "ouse": 3594,
  "out": 891,
  "outer": 7403,
  "outh": 3731,
  "ouvern": 10564,
  "ov": 1329,
  "ov.": 11331,
  "ove": 1335,
  "oved": 8914,
  "ovember": 6604,
  "over": 3309,
  "overed": 10566,
  "ow": 408,
  "ow(": 2455,
  "ower": 1892,
  "own": 1921,
  "ox": 1719,
  "oy": 1513,
  "oz": 5470,
  "p": 116,
  "p,": 5809,
  "p.": 4152,
  "pG": 7741,
  "pag": 10567,
  "par": 639,
  "parallel": 2176,
  "parallelize": 2215,
  "param": 1037,
  "park": 1587,
  "park.": 2502,
  "parse": 3859,
  "parseVector": 9940,
  "parseVector(2,": 11333,
  "part": 1617,
  "partial": 4593,
  "partition": 3500,
  "path": 2194,
  "path.": 6388,
  "pdata": 8494,
  "pe": 438,
  "pec": 992,
  "pect": 1247,
  "pected": 7406,
  "ped": 3936,
  "peed": 10570,
  "pen": 1675,
  "pend": 1489,
  "pendent": 3134,
  "per": 678,
  "perio": 9941,
  "pert": 8495,
  "perty": 8915,
  "ph": 886,
  "phi": 4398,
  "phism": 9365,
  "pi": 1836,
  "pill": 8088,
  "ping": 3268,
  "pir": 7127,
  "pl": 524,
  "plac": 2503,
  "place": 3389,
  "placement": 3437,
  "plan": 4243,
  "planation:": 8089,
  "play": 2456,
  "ple": 589,
  "plement": 3135,
  "ples": 5329,
  "plic": 1555,
  "plication": 8496,
  "plicit": 8497,
  "plied": 11334,
  "plies": 6389,
  "plit": 2457,
  "plitude": 8916,
  "plot": 7407,
  "ploy": 3353,
  "ply": 2246,
  "pm": 3501,
  "po": 4242,
  "point": 2725,
  "points[": 9942,
  "pon": 1383,
  "pond": 2674,
  "ponent": 8917,
  "por": 2114,
  "porary": 7743,
  "porate": 11335,
  "port": 743,
  "ports": 6605,
  "pos": 1478,
  "pose": 3991,
  "posed": 5330,
  "posit": 8918,
  "position": 7408,
  "pr": 1384,
  "pre": 2591,
  "prec": 6167,
  "precated": 7744,
  "preci": 9943,
  "pres": 1142,
  "press": 5627,
  "pression": 2432,
  "pret": 7128,
  "pri": 11332,
  "print": 4323,
  "prise": 9366,
  "pro": 1140,
  "produ": 9367,
  "prox": 5628,
  "ps": 1641,
  "psi": 9368,
  "pt": 702,
  "ption": 6606,
  "pty": 7745,
  "publ": 7742,
  "publique": 8919,
  "put": 1181,
  "py": 7405,
  "py.": 10568,
  "python": 10569,
  "q": 117,
  "q.": 9944,
  "qu": 409,
  "quad": 9369,
  "quare": 3992,
  "que": 1057,
  "quence": 2791,
  "ques": 7129,
  "queÃ±": 11336,
  "r": 118,
  "r,": 10571,
  "r.": 5052,
  "ra": 425,
  "rab": 6609,
  "ract": 1588,
  "racted": 10574,
  "raction": 2196,
  "racture": 9371,
  "rad": 5331,
  "raf": 7746,
  "raft": 5810,
  "rain": 2569,
  "raise": 2228,
  "rak": 5054,
  "ral": 2195,
  "ram": 3937,
  "rame": 1362,
  "ran": 1275,
  "rand": 2954,
  "random": 6607,
  "rang": 9945,
  "range": 5471,
  "rank": 5977,
  "rant": 6390,
  "rap": 2955,
  "raph": 1816,
  "raq": 6391,
  "rary": 3269,
  "ras": 5053,
  "rat": 4324,
  "ratic": 11339,
  "ration": 3733,
  "raw": 3007,
  "rawn": 11338,
  "ray": 1772,
  "rayType(": 9372,
  "rb": 4497,
  "rd": 10572,
  "rdd": 1511,
  "rdd.": 7411,
  "rdd_d": 5187,
  "rdd_deserializer": 5629,
  "rdd_deserializer)": 8499,
  "re": 277,
  "re,": 8921,
  "read": 1785,
  "ready": 3390,
  "ream": 1356,
  "reat": 1688,
  "reate": 8091,
  "rec": 4594,
  "rect": 2458,
  "red": 722,
  "redict": 2702,
  "redit": 5472,
  "reduce": 3938,
  "reduce(": 9950,
  "reduceByKey": 10575,
  "ree": 1022,
  "reen": 4068,
  "rees": 5055,
  "ref": 11340,
  "reg": 2761,
  "regate": 7412,
  "rel": 3502,
  "related": 9951,
  "rem": 5978,
  "reme": 9949,
  "ren": 2433,
  "rence": 8092,
  "rent": 1626,
  "replace": 6168,
  "replace(\"": 10576,
  "requ": 6169,
  "res": 484,
  "res,": 8922,
  "resh": 3800,
  "reshold": 6393,
  "respond": 3310,
  "ress": 2057,
  "ression": 2762,
  "rest": 2154,
  "ret": 691,
  "retty": 3860,
  "return": 780,
  "rew": 6392,
  "rez": 8093,
  "rho": 6608,
  "ri": 501,
  "rian": 11341,
  "rib": 1122,
  "ribe": 11342,
  "ric": 939,
  "rica": 9374,
  "rical": 9370,
  "rices": 4701,
  "riche": 10577,
  "rict": 3994,
  "ricult": 11343,
  "rid": 3093,
  "ridge": 5980,
  "rie": 4244,
  "ried": 4699,
  "rieg": 5473,
  "riend": 4245,
  "rier": 3993,
  "ries": 6394,
  "rig": 8920,
  "right": 966,
  "rim": 7409,
  "ring": 1066,
  "rior": 5979,
  "rip": 4700,
  "ripciÃ³n": 9375,
  "ript": 2413,
  "ription": 4595,
  "rique": 6395,
  "ris": 8090,
  "rist": 3734,
  "rit": 1285,
  "rite": 5976,
  "riter": 9953,
  "ritical": 6610,
  "rium": 9952,
  "riv": 2703,
  "rive": 8500,
  "rix": 2704,
  "riz": 9373,
  "rm": 1996,
  "ro": 347,
  "roc": 9376,
  "rod": 10578,
  "rodu": 3008,
  "roduction": 7130,
  "rol": 2855,
  "roll": 5630,
  "rollo": 9954,
  "rom": 575,
  "ron": 1701,
  "rop": 1893,
  "rope": 3552,
  "ropical": 10579,
  "ror": 1426,
  "ros": 1336,
  "rosc": 10580,
  "rosive": 11344,
  "ross": 2459,
  "rot": 7413,
  "rote": 9377,
  "rou": 770,
  "rough": 1733,
  "rought": 8501,
  "round": 1562,
  "roup": 1389,
  "row": 931,
  "rown": 3666,
  "rows": 3270,
  "rror": 2167,
  "rs": 10573,
  "rt": 1997,
  "ru": 885,
  "ruary": 5981,
  "ruct": 1397,
  "ructField": 6858,
  "ructType": 4924,
  "ruction": 4498,
  "rug": 5332,
  "rum": 11337,
  "rv": 8498,
  "ry": 927,
  "ry,": 5056,
  "ryst": 7131,
  "rÃ¡": 9946,
  "rÃ©": 9947,
  "rÃ³": 7410,
  "rÃ³gen": 10581,
  "rÃŃa": 9948,
  "s": 119,
  "s\"": 5982,
  "s)": 1702,
  "s,": 530,
  "s.": 514,
  "s.\"": 11346,
  "s...": 10584,
  "s/": 7132,
  "s:": 1219,
  "s://": 6860,
  "s?": 6170,
  "s[": 4804,
  "s]": 7133,
  "sal": 10582,
  "sample": 4925,
  "sc": 1758,
  "scill": 9955,
  "script": 11347,
  "se": 496,
  "se:": 2262,
  "sec": 3995,
  "sect": 8924,
  "section": 5811,
  "secutive": 8926,
  "see": 7416,
  "seed": 8925,
  "sel": 5333,
  "select": 4246,
  "self": 5057,
  "self.": 2141,
  "self._": 9378,
  "seq": 6171,
  "sequ": 8503,
  "sequence": 6172,
  "ser": 6859,
  "serv": 3801,
  "set": 1627,
  "seud": 6861,
  "sh": 1759,
  "ship": 8094,
  "show": 4596,
  "show()": 5334,
  "side": 7414,
  "sider": 7747,
  "sigma": 4805,
  "sign": 8502,
  "sin": 2319,
  "sion": 823,
  "size": 8923,
  "sk": 7415,
  "so": 1093,
  "so,": 10583,
  "son": 2554,
  "sort": 6396,
  "sp": 3391,
  "spark": 7748,
  "spark_type": 9956,
  "split": 11345,
  "sq": 1410,
  "sql": 2247,
  "sql.": 5188,
  "sql_": 3667,
  "sql_ctx": 3735,
  "sqrt": 2342,
  "sqrt{": 2956,
  "st": 351,
  "stances": 8095,
  "stand": 3009,
  "start": 6862,
  "stat": 9957,
  "stead": 11348,
  "stem": 6612,
  "stit": 4500,
  "str": 3136,
  "stra": 8096,
  "stract": 3996,
  "stream": 3861,
  "string": 6863,
  "stro": 8504,
  "stron": 5189,
  "stronom": 5983,
  "struct": 7134,
  "sts": 9958,
  "style": 2957,
  "su": 6611,
  "sub": 4499,
  "subset": 7135,
  "suite": 9379,
  "sum": 3225,
  "sum_{": 9380,
  "summary": 10585,
  "sure": 5474,
  "sw": 1978,
  "sy": 3595,
  "symbol": 5984,
  "t": 120,
  "t.": 9381,
  "ta": 1085,
  "table": 7417,
  "tain": 3997,
  "taint": 9959,
  "take": 9382,
  "tal": 2177,
  "tat": 8505,
  "te": 535,
  "ted": 2263,
  "ten": 1894,
  "tenec": 11349,
  "tension": 10589,
  "ter": 486,
  "tered": 10588,
  "term": 6865,
  "tern": 1466,
  "ternal": 4926,
  "ters": 4399,
  "tes": 5985,
  "tex": 6173,
  "text": 1390,
  "textcolor": 9383,
  "text{": 3311,
  "th": 616,
  "th,": 4503,
  "that": 8507,
  "the": 1454,
  "ther": 859,
  "there": 11350,
  "theta": 3668,
  "thing": 3596,
  "though": 6397,
  "tic": 1400,
  "tical": 6864,
  "ticle": 4504,
  "tics": 10586,
  "til": 4325,
  "time": 5190,
  "times": 3736,
  "tin": 5058,
  "ting": 1726,
  "tle": 2282,
  "to": 771,
  "to_": 3271,
  "tom": 2570,
  "ton": 2343,
  "top": 4501,
  "top,": 11351,
  "tr": 2168,
  "train": 10587,
  "trans": 8508,
  "transform": 10591,
  "tras": 9384,
  "tre": 7418,
  "true": 10590,
  "try": 8506,
  "try:": 9385,
  "ts": 2792,
  "tt": 2248,
  "ttp": 3392,
  "ttp://": 5060,
  "ttps://": 6866,
  "ty": 1618,
  "typ": 7136,
  "type": 4502,
  "types": 11352,
  "tz": 5059,
  "t}": 3802,
  "u": 121,
  "u'": 2592,
  "u,": 11353,
  "ual": 888,
  "ually": 2115,
  "uan": 11354,
  "uary": 3998,
  "ub": 842,
  "ubl": 1401,
  "ublic": 2142,
  "uc": 1909,
  "uce": 2363,
  "uch": 8509,
  "uck": 3312,
  "ucle": 8927,
  "ud": 717,
  "ude": 1650,
  "udes": 10593,
  "udget": 11357,
  "udo": 8510,
  "ue": 550,
  "ued": 2915,
  "uel": 4597,
  "uer": 6867,
  "ues": 1161,
  "uest": 2763,
  "uestions": 8928,
  "uf": 6613,
  "ufact": 8098,
  "uff": 4069,
  "uffle": 9386,
  "ug": 1575,
  "ui": 11355,
  "uis": 4806,
  "uit": 5812,
  "uj": 3354,
  "uk": 8097,
  "ul": 415,
  "ula": 3010,
  "ular": 1276,
  "ulas": 6868,
  "ulate": 10594,
  "ulation": 3597,
  "ule": 4702,
  "ules": 6869,
  "ulff": 10595,
  "ulia": 10596,
  "ull": 1315,
  "ult": 674,
  "ulti": 1979,
  "ulus": 11358,
  "uly": 10597,
  "um": 404,
  "um.": 10598,
  "uman": 3011,
  "umb": 4928,
  "ume": 3012,
  "ument": 2023,
  "uments": 3355,
  "ummary": 9961,
  "umn": 1141,
  "ump": 5813,
  "un": 367,
  "una": 9962,
  "unc": 1193,
  "uncate": 11360,
  "unch": 4808,
  "unction": 2856,
  "und": 2283,
  "une": 3313,
  "unic": 3137,
  "unicip": 8931,
  "union": 9963,
  "unities": 8929,
  "unity": 3999,
  "unk": 4000,
  "unque": 7137,
  "unt": 8930,
  "unto": 11359,
  "up": 753,
  "uper": 9960,
  "uple": 4400,
  "uples": 10592,
  "upport": 5631,
  "upported": 10599,
  "uppose": 11361,
  "ur": 378,
  "ura": 4809,
  "ural": 5061,
  "uras": 8932,
  "uration": 3356,
  "uration,": 6398,
  "urb": 5191,
  "ure": 746,
  "ure,": 8511,
  "ured": 4927,
  "ures": 1556,
  "uring": 2229,
  "urity": 11362,
  "urn": 602,
  "uro": 11356,
  "urs": 2460,
  "urther": 5475,
  "ury": 8099,
  "us": 406,
  "us,": 7138,
  "usage": 11363,
  "use": 3803,
  "used": 4247,
  "used_memory": 6614,
  "ush": 5632,
  "usiness": 9964,
  "using": 9387,
  "usion": 6870,
  "uss": 5335,
  "ust": 705,
  "uster": 5814,
  "ustom": 3438,
  "ustr": 8933,
  "ut": 381,
  "ute": 1760,
  "uted": 5986,
  "utes": 4598,
  "uth": 7750,
  "util": 3439,
  "ution": 973,
  "utive": 6174,
  "utor": 10600,
  "utral": 11364,
  "ux": 2303,
  "uy": 4807,
  "uz": 7749,
  "v": 122,
  "va": 8512,
  "val": 1123,
  "valu": 3440,
  "value": 2958,
  "values": 7140,
  "var": 10601,
  "vari": 4001,
  "variance": 8513,
  "ve": 385,
  "vec": 6175,
  "vector": 5192,
  "ved": 3393,
  "vel": 993,
  "velop": 2216,
  "ven": 2169,
  "vent": 2284,
  "vention": 7751,
  "venue": 6176,
  "ver": 422,
  "verage": 2726,
  "vergne": 11365,
  "vern": 3599,
  "vers": 4505,
  "verse": 5062,
  "version": 8934,
  "vert": 3179,
  "verter": 4930,
  "very": 1067,
  "ves": 3737,
  "vest": 5987,
  "vi": 8100,
  "view": 2077,
  "ving": 4810,
  "vious": 3598,
  "vir": 3804,
  "viron": 4506,
  "vis": 7139,
  "vm.": 4929,
  "vo": 4811,
  "w": 123,
  "war": 6177,
  "ward": 1798,
  "ware": 3669,
  "wargs": 8514,
  "way": 3013,
  "ways": 4326,
  "we": 1205,
  "ween": 1668,
  "weet": 10602,
  "well": 11366,
  "wh": 4248,
  "when": 11367,
  "where": 3441,
  "which": 9388,
  "while": 8935,
  "wide": 11368,
  "window": 7419,
  "wise": 2959,
  "wise,": 8936,
  "with": 2793,
  "withReplacement": 6871,
  "wn": 2155,
  "wo": 1040,
  "word": 4401,
  "work": 1938,
  "ww": 4249,
  "www": 8101,
  "www.": 10603,
  "x": 124,
  "x)": 4703,
  "x,": 3226,
  "x.": 8937,
  "x^2": 7141,
  "xi": 10604,
  "xim": 4327,
  "xt": 860,
  "xual": 9389,
  "y": 125,
  "y)": 7420,
  "y,": 1162,
  "y.": 1472,
  "y_{": 5476,
  "y_{t": 7142,
  "ycl": 5336,
  "ycle": 8102,
  "ycling": 11369,
  "yd": 5193,
  "yield": 6872,
  "ying": 2461,
  "yl": 8103,
  "yle": 1669,
  "ym": 4402,
  "yn": 2462,
  "ynam": 5633,
  "yp": 1969,
  "ype": 709,
  "ypes": 8515,
  "ys": 1034,
  "ys.": 9965,
  "ysis": 3180,
  "yspark.": 4153,
  "yth": 2571,
  "ython": 2857,
  "z": 126,
  "z,": 3939,
  "z-": 10605,
  "z.": 9390,
  "za": 5634,
  "ze": 5635,
  "zero": 10606,
  "zip": 10607,
  "zone": 3600,
  "zy": 9391,
  "{": 127,
  "{\\": 1922,
  "{\\frac": 8104,
  "{align": 3181,
  "{align*": 4704,
  "{align*}": 5194,
  "{align}": 8105,
  "{b": 6615,
  "{m": 11370,
  "{n": 6873,
  "{n}_{": 9392,
  "{x": 5337,
  "{y": 8516,
  "{{n}_{": 10608,
  "|": 128,
  "|-": 1823,
  "|V": 11371,
  "|age|": 9393,
  "||": 1337,
  "||---": 8517,
  "||1,": 9394,
  "||10/2011|": 11372,
  "||David": 11373,
  "||The": 9395,
  "}": 129,
  "}$": 1068,
  "}$$": 4002,
  "}$,": 8106,
  "}$.": 6178,
  "}(l": 10609,
  "})": 4328,
  "}+": 11374,
  "},": 2858,
  "}.": 9396,
  "}\\": 1953,
  "}\\,": 8518,
  "}\\left(": 10610,
  "}\\right)": 9397,
  "}]": 5063,
  "}^{": 2024,
  "}^{2}": 4250,
  "}^{3}": 8107,
  "}^{\\infty": 7752,
  "}^{\\infty}": 9398,
  "}_{": 2859,
  "}{": 803,
  "}{2}": 5338,
  "}{2}$": 11375,
  "}{3}": 9966,
  "}{\\": 3357,
  "}}": 2197,
  "}}$$": 10611,
  "}}{": 5195,
  "~": 130,
  "¡": 165,
  "¡à¤¼": 3182,
  "¡à¦¼": 1217,
  "¢": 166,
  "¢âĤ¬": 10612,
  "£": 167,
  "£à¦¿à¦ľ": 8519,
  "£å": 9967,
  "¤": 168,
  "¤à¯į": 4329,
  "¤à¯įà®¤": 1727,
  "¥": 169,
  "¦": 170,
  "§": 171,
  "§à¥": 1255,
  "§à§": 1111,
  "¨": 172,
  "¨à§įà¦¤": 3054,
  "¨à®¿à®²": 5339,
  "¨à®ķà®°": 3940,
  "¨à¯įà®¤": 507,
  "¨à¯įà®¤à¯ģ": 1385,
  "©": 173,
  "©à¯įà®©": 2178,
  "©à¯įà®©à®Ł": 7753,
  "ª": 174,
  "ªà§Ń": 9399,
  "ªà¯į": 945,
  "ªà¯įà®ª": 418,
  "ªà¯įà®ªà®Ł": 591,
  "ªà¯įà®ªà®Łà¯įà®Ł": 7143,
  "«": 175,
  "«à¤¼": 9968,
  "¬": 176,
  "®": 178,
  "®à®¾à®©": 8108,
  "®à¯į": 348,
  "®à¯į,": 8109,
  "¯": 179,
  "¯à¥": 2463,
  "¯à¦": 400,
  "¯à¦¼": 419,
  "¯à§": 1747,
  "°": 180,
  "°à¯ģà®µ": 8520,
  "±": 181,
  "²": 182,
  "²à¯į": 7754,
  "³": 183,
  "´": 184,
  "µ": 185,
  "µà¯ģà®®à¯į": 4599,
  "¶": 186,
  "¶à¤¨": 3442,
  "¶à¦¨": 8521,
  "·": 187,
  "·à¥įà¤Ł": 1170,
  "·à¥įà¤Łà¥įà¤°": 1527,
  "·à§įà¦ł": 8110,
  "¸": 188,
  "¸à¯į": 1619,
  "¸à¯įà®¤": 4330,
  "¹": 189,
  "¹à¤¾à¤¸": 2156,
  "º": 190,
  "»": 191,
  "¼": 192,
  "½": 193,
  "¾": 194,
  "¿": 195,
  "À": 196,
  "Á": 197,
  "Â": 198,
  "Â°": 9400,
  "Â²": 9401,
  "Â¶": 7421,
  "Â»": 2794,
  "Â»,": 7144,
  "Âł": 608,
  "ÂłÂł": 4600,
  "ÂłĠ": 1200,
  "ÂłĠÂłĠ": 2479,
  "ÂłĠÂłĠÂłĠÂłĠ": 4931,
  "ÂłĠÂłĠÂłĠÂłĠÂłĠÂłĠÂłĠÂłĠ": 9402,
  "Ã": 199,
  "Ã¡": 802,
  "Ã¡ce": 5064,
  "Ã¡ceas": 7146,
  "Ã¡ct": 5815,
  "Ã¡l": 8523,
  "Ã¡n": 3014,
  "Ã¡nt": 11376,
  "Ã¡s": 2025,
  "Ã¡tic": 5636,
  "Ã¢": 4403,
  "Ã¢âĤ¬": 8524,
  "Ã§": 5340,
  "Ã¨": 1326,
  "Ã¨bre": 7422,
  "Ã¨re": 6874,
  "Ã¨s": 5196,
  "Ã©": 440,
  "Ã©b": 10614,
  "Ã©c": 5477,
  "Ã©ct": 10615,
  "Ã©d": 7755,
  "Ã©e": 2593,
  "Ã©es": 5478,
  "Ã©l": 4813,
  "Ã©mat": 6875,
  "Ã©n": 2264,
  "Ã©ner": 4154,
  "Ã©nie": 10617,
  "Ã©pend": 11377,
  "Ã©r": 5637,
  "Ã©ri": 11378,
  "Ã©ric": 3015,
  "Ã©rica": 4601,
  "Ã©s": 2285,
  "Ã©t": 3227,
  "Ã©tal": 10616,
  "Ã©tic": 8112,
  "Ãª": 6616,
  "Ã®": 10613,
  "Ã±": 1824,
  "Ã³": 723,
  "Ã³d": 8113,
  "Ã³dig": 9403,
  "Ã³g": 7147,
  "Ã³m": 6876,
  "Ã³n": 994,
  "Ã³p": 11379,
  "Ã´": 6617,
  "Ã¶": 8111,
  "Ã¹": 8522,
  "Ãº": 2916,
  "Ãºn": 6877,
  "Ãī": 4812,
  "Ãīcole": 11380,
  "ÃĹ": 2198,
  "ÃĹC": 4251,
  "ÃĹC9": 7423,
  "Ãł": 7145,
  "ÃŃ": 749,
  "ÃŃa": 1620,
  "ÃŃa,": 8938,
  "ÃŃan": 10618,
  "ÃŃas": 11381,
  "ÃŃcul": 5638,
  "ÃŃfic": 7756,
  "ÃŃm": 9404,
  "ÃŃn": 9405,
  "ÃŃo": 8939,
  "ÃŃs": 3601,
  "ÃŃst": 9406,
  "ÃŃtic": 7148,
  "Ä": 200,
  "Å": 201,
  "Æ": 202,
  "Ç": 203,
  "È": 204,
  "É": 205,
  "Ê": 206,
  "Ë": 207,
  "Ì": 208,
  "Í": 209,
  "Î": 210,
  "Î±": 5988,
  "Î½": 11382,
  "Î¿": 8940,
  "Ï": 211,
  "Ïģ": 7757,
  "ÏĤ": 11383,
  "Ïĥ": 8525,
  "ÏĦ": 9407,
  "Ð": 212,
  "Ñ": 213,
  "Ò": 214,
  "Ó": 215,
  "Ô": 216,
  "Õ": 217,
  "Ö": 218,
  "×": 219,
  "Ø": 220,
  "Ù": 221,
  "Ú": 222,
  "Û": 223,
  "Ü": 224,
  "Ý": 225,
  "Þ": 226,
  "ß": 227,
  "à": 228,
  "à¤": 261,
  "à¤¡": 865,
  "à¤¡à¤¼": 1346,
  "à¤¡à¥Ģ": 8526,
  "à¤¢": 2265,
  "à¤¢à¤¼": 2480,
  "à¤£": 747,
  "à¤£à¥Ģ": 9408,
  "à¤£à¥įà¤¡": 2344,
  "à¤¤": 352,
  "à¤¤à¤¨": 6179,
  "à¤¤à¤¨à¥įà¤¤à¥įà¤°": 9970,
  "à¤¤à¤®": 6399,
  "à¤¤à¤°": 6400,
  "à¤¤à¤¾": 905,
  "à¤¤à¤¾à¤ĵà¤Ĥ": 5479,
  "à¤¤à¤¿": 2364,
  "à¤¤à¤¿à¤": 1419,
  "à¤¤à¤¿à¤°": 11387,
  "à¤¤à¤¿à¤µ": 11388,
  "à¤¤à¤¿à¤·": 10619,
  "à¤¤à¤¿à¤¹à¤¾à¤¸": 2157,
  "à¤¤à¤¿à¤¹à¤¾à¤¸à¤¿à¤ķ": 9971,
  "à¤¤à¤¿à¤ķ": 4602,
  "à¤¤à¤¿à¤ķà¥Ģ": 7149,
  "à¤¤à¤ĥ": 5989,
  "à¤¤à¥Ģ": 1866,
  "à¤¤à¥ģ": 8527,
  "à¤¤à¥ĩ": 1321,
  "à¤¤à¥įà¤¤": 1194,
  "à¤¤à¥įà¤¤à¤°": 8941,
  "à¤¤à¥įà¤¤à¤¾": 8528,
  "à¤¤à¥įà¤¤à¤¿": 7150,
  "à¤¤à¥įà¤¤à¥Ģà¤¸": 6621,
  "à¤¤à¥įà¤¤à¥Ģà¤¸à¤Ĺà¤¢à¤¼": 6878,
  "à¤¤à¥įà¤¤à¥įà¤µ": 8942,
  "à¤¤à¥įà¤¨": 9969,
  "à¤¤à¥įà¤®": 6619,
  "à¤¤à¥įà¤¯": 2594,
  "à¤¤à¥įà¤¯à¤¾": 11386,
  "à¤¤à¥įà¤¯à¤¾à¤¦à¤¿": 8943,
  "à¤¤à¥įà¤°": 1002,
  "à¤¤à¥įà¤µ": 6620,
  "à¤¥": 979,
  "à¤¥à¤®": 5065,
  "à¤¥à¤¾": 1708,
  "à¤¦": 495,
  "à¤¦à¤°à¥įà¤¶à¤¨": 10620,
  "à¤¦à¤¾": 7151,
  "à¤¦à¤¾à¤¨": 6180,
  "à¤¦à¤¾à¤¯": 9409,
  "à¤¦à¤¾à¤¸": 6622,
  "à¤¦à¤¿à¤ķ": 6623,
  "à¤¦à¥Ģ": 2365,
  "à¤¦à¥ĩà¤µ": 8114,
  "à¤¦à¥ĩà¤¶": 1773,
  "à¤¦à¥įà¤§": 1980,
  "à¤¦à¥įà¤¯": 5639,
  "à¤¦à¥įà¤¯à¥ĭà¤Ĺ": 11389,
  "à¤¦à¥įà¤°": 2796,
  "à¤¦à¥įà¤µ": 10621,
  "à¤§": 695,
  "à¤§à¤¾à¤¨": 1910,
  "à¤§à¥Ģ": 6401,
  "à¤§à¥įà¤¯": 2595,
  "à¤¨": 346,
  "à¤¨,": 9410,
  "à¤¨à¤¾": 1199,
  "à¤¨à¤¾à¤¥": 9972,
  "à¤¨à¤¾à¤®": 9411,
  "à¤¨à¤¾à¤Ĺà¤°à¥Ģ": 8115,
  "à¤¨à¤¿à¤ķ": 6879,
  "à¤¨à¥Ģ": 3553,
  "à¤¨à¥Ģà¤¤": 5640,
  "à¤¨à¥Ģà¤¤à¤¿": 8116,
  "à¤¨à¥ĩ": 819,
  "à¤¨à¥ĭà¤Ĥ": 4331,
  "à¤¨à¥įà¤¤": 5641,
  "à¤¨à¥įà¤¤à¥įà¤°": 11390,
  "à¤¨à¥įà¤¥": 5990,
  "à¤¨à¥įà¤¦": 1895,
  "à¤¨à¥įà¤¦à¤°à¥įà¤Ń": 10623,
  "à¤¨à¥įà¤¦à¥ĩ": 10624,
  "à¤¨à¥įà¤¦à¥įà¤°": 3314,
  "à¤¨à¥įà¤§": 3942,
  "à¤¨à¥įà¤¨": 6880,
  "à¤¨à¥įà¤¯": 10622,
  "à¤ª": 498,
  "à¤ªà¤¤à¤¿": 8529,
  "à¤ªà¤¨": 1690,
  "à¤ªà¤¨à¤¿à¤·à¤¦": 2621,
  "à¤ªà¤¨à¤¿à¤·à¤¦à¥į": 4070,
  "à¤ªà¤¨à¥Ģ": 5642,
  "à¤ªà¤°": 5341,
  "à¤ªà¤¾à¤²": 3670,
  "à¤ªà¥ģà¤°": 3503,
  "à¤ªà¥ģà¤°,": 8944,
  "à¤ªà¥Ĥ": 3228,
  "à¤ªà¥Ĥà¤°à¥įà¤£": 6181,
  "à¤ªà¥Ĥà¤°à¥įà¤µ": 6402,
  "à¤ªà¥ĩ": 10625,
  "à¤ªà¥įà¤¤": 11391,
  "à¤ªà¥įà¤°": 2026,
  "à¤ªà¥įà¤°à¤¦à¥ĩà¤¶": 11392,
  "à¤ªà¥įà¤°à¥Īà¤²": 9412,
  "à¤«": 1434,
  "à¤«à¤²": 5066,
  "à¤«à¤¼": 2481,
  "à¤«à¤¼à¥įà¤Ł": 10626,
  "à¤¬": 660,
  "à¤¬à¤¨à¥įà¤§": 9973,
  "à¤¬à¤°": 4404,
  "à¤¬à¤Ĥà¤§": 5816,
  "à¤¬à¥įà¤¦": 1939,
  "à¤®": 427,
  "à¤®à¤£": 11393,
  "à¤®à¤¨": 2797,
  "à¤®à¤¨à¥įà¤¤à¥įà¤°à¥Ģ": 8117,
  "à¤®à¤¹": 5817,
  "à¤®à¤¹à¤¾à¤¦à¥įà¤µà¥Ģà¤ª": 10627,
  "à¤®à¤¾à¤¨": 2435,
  "à¤®à¤¾à¤¨à¤¸": 7425,
  "à¤®à¤¿à¤ķ": 11394,
  "à¤®à¤Ĥà¤¤à¥įà¤°": 4252,
  "à¤®à¤Ĥà¤¤à¥įà¤°à¥Ģ": 4932,
  "à¤®à¥Ģ": 9974,
  "à¤®à¥ģ": 6624,
  "à¤®à¥ģà¤¨à¤¾": 11396,
  "à¤®à¥ģà¤ĸ": 2764,
  "à¤®à¥ĩ": 9975,
  "à¤®à¥ĩà¤Ĥ": 2127,
  "à¤®à¥į": 11395,
  "à¤®à¥įà¤¬": 3094,
  "à¤®à¥įà¤¬à¤°": 6881,
  "à¤®à¥įà¤¬à¤Ī": 7426,
  "à¤®à¥įà¤®": 8945,
  "à¤¯": 503,
  "à¤¯à¤¨": 3805,
  "à¤¯à¤°": 10628,
  "à¤¯à¤¾": 8946,
  "à¤¯à¤¾à¤®à¤¿": 6625,
  "à¤¯à¤Ĥ": 9413,
  "à¤¯à¥Ģ": 8530,
  "à¤¯à¥ģ": 2622,
  "à¤¯à¥ģà¤ķà¥įà¤¤": 3504,
  "à¤¯à¥ĩ": 9414,
  "à¤¯à¥ĭà¤Ĺ": 3138,
  "à¤°": 329,
  "à¤°,": 7427,
  "à¤°à¤£": 3315,
  "à¤°à¤¤": 7758,
  "à¤°à¤¬": 4603,
  "à¤°à¤®": 3806,
  "à¤°à¤®à¥įà¤Ń": 7428,
  "à¤°à¤²": 5067,
  "à¤°à¤µ": 9976,
  "à¤°à¤¸": 9977,
  "à¤°à¤¾": 3183,
  "à¤°à¤¾à¤¤": 4508,
  "à¤°à¤¾à¤®": 9978,
  "à¤°à¤¾à¤·à¥įà¤Łà¥įà¤°à¥Ģà¤¯": 8947,
  "à¤°à¤¾à¤ľà¥įà¤¯": 11397,
  "à¤°à¤¿à¤¤": 9415,
  "à¤°à¤¿à¤ķ": 11398,
  "à¤°à¥Ģ": 1113,
  "à¤°à¥Ģ,": 7429,
  "à¤°à¥Ģà¤ķà¤¾": 10629,
  "à¤°à¥ĩ": 2555,
  "à¤°à¥įà¤": 555,
  "à¤°à¥įà¤£": 3229,
  "à¤°à¥įà¤¤": 3807,
  "à¤°à¥įà¤¤à¤®à¤¾à¤¨": 5992,
  "à¤°à¥įà¤¥": 1786,
  "à¤°à¥įà¤¥à¤¿à¤ķ": 8120,
  "à¤°à¥įà¤¦": 7759,
  "à¤°à¥įà¤¦à¥Ĥ": 11399,
  "à¤°à¥įà¤ª": 8118,
  "à¤°à¥įà¤ªà¤¯à¤¾à¤®à¤¿": 10631,
  "à¤°à¥įà¤®": 1566,
  "à¤°à¥įà¤¯": 6182,
  "à¤°à¥įà¤°": 9416,
  "à¤°à¥įà¤°à¤«à¤¼": 10632,
  "à¤°à¥įà¤µ": 1230,
  "à¤°à¥įà¤¶à¤¨": 4332,
  "à¤°à¥įà¤·": 4705,
  "à¤°à¥įà¤¸": 10630,
  "à¤°à¥įà¤ķ": 5991,
  "à¤°à¥įà¤Ĺ": 4253,
  "à¤°à¥įà¤Ĺà¤¤": 7430,
  "à¤°à¥įà¤ľ": 8119,
  "à¤°à¥įà¤Ń": 5643,
  "à¤²": 447,
  "à¤²,": 10633,
  "à¤²à¤¬": 11400,
  "à¤²à¤¾": 2526,
  "à¤²à¤¿à¤ı": 11401,
  "à¤²à¤Ĺ": 9979,
  "à¤²à¥Ģ": 3055,
  "à¤²à¥ĩ": 4816,
  "à¤²à¥Īà¤Ĥà¤¡": 8121,
  "à¤²à¥ĭà¤Ĥ": 7431,
  "à¤²à¥įà¤²": 5480,
  "à¤²à¥įà¤²à¥ĩà¤ĸ": 7152,
  "à¤µ": 483,
  "à¤µà¤°à¥Ģ": 5818,
  "à¤µà¤²": 6882,
  "à¤µà¤¾": 6403,
  "à¤µà¤¾à¤¦": 6404,
  "à¤µà¤¾à¤¨": 4933,
  "à¤µà¤¾à¤°": 6626,
  "à¤µà¤¾à¤¹": 9980,
  "à¤µà¤¾à¤Ĥ": 11402,
  "à¤µà¤¿à¤¦": 6183,
  "à¤µà¤¿à¤¦à¥įà¤¯à¤¾à¤²à¤¯": 8531,
  "à¤µà¤¿à¤§": 10634,
  "à¤µà¤Ĥ": 1825,
  "à¤µà¥Ģ": 6405,
  "à¤µà¥Ģà¤Ĥ": 3272,
  "à¤µà¥ĩ": 5993,
  "à¤µà¥ĩà¤¦": 8948,
  "à¤µà¥įà¤¯": 5481,
  "à¤µà¥įà¤¯à¤µ": 10635,
  "à¤¶": 583,
  "à¤¶à¤°à¥įà¤°à¤«à¤¼": 10636,
  "à¤¶à¤²": 7760,
  "à¤¶à¤¾à¤¸": 3358,
  "à¤¶à¤¾à¤¸à¥įà¤¤à¥įà¤°": 5819,
  "à¤¶à¤¿à¤¯à¤¾": 3602,
  "à¤¶à¥įà¤¯": 8532,
  "à¤¶à¥įà¤ļ": 2249,
  "à¤¶à¥įà¤ļà¤¿à¤®": 2414,
  "à¤·": 1689,
  "à¤·à¥įà¤£": 5342,
  "à¤·à¥įà¤Ł": 2860,
  "à¤¸": 392,
  "à¤¸à¤¨": 9981,
  "à¤¸à¤®": 5482,
  "à¤¸à¤¾": 3738,
  "à¤¸à¤¾à¤Ī": 9417,
  "à¤¸à¤¿à¤¤": 9418,
  "à¤¸à¤¿à¤¦à¥įà¤§": 5820,
  "à¤¸à¤Ĥ": 2705,
  "à¤¸à¤Ĥà¤ĸà¥įà¤¯à¤¾": 4604,
  "à¤¸à¤Ń": 5197,
  "à¤¸à¤Ńà¤¾": 5995,
  "à¤¸à¥Ģ": 2366,
  "à¤¸à¥Ĥ": 8949,
  "à¤¸à¥Ĥà¤¤à¥įà¤°": 8950,
  "à¤¸à¥ĩ": 1133,
  "à¤¸à¥įà¤¤": 2675,
  "à¤¸à¥įà¤¥": 1826,
  "à¤¸à¥įà¤¥à¤¾": 5483,
  "à¤¸à¥įà¤¥à¤¾à¤¨": 4817,
  "à¤¸à¥įà¤¥à¤¿à¤¤": 5644,
  "à¤¸à¥įà¤ª": 7432,
  "à¤¸à¥įà¤¯": 4509,
  "à¤¸à¥įà¤µ": 5994,
  "à¤¸à¥įà¤ķ": 1998,
  "à¤¸à¥įà¤ķà¥ĥà¤¤": 2199,
  "à¤¸à¥įà¤ķà¥ĥà¤¤à¤¿à¤ķ": 9419,
  "à¤¸à¥įà¤Ł": 4071,
  "à¤¸à¥įà¤Łà¥įà¤°": 8122,
  "à¤¸à¥įà¤Łà¥įà¤°à¥ĩà¤²": 8533,
  "à¤¹": 446,
  "à¤¹à¤°": 2320,
  "à¤¹à¤²": 2079,
  "à¤¹à¤¾à¤°": 5068,
  "à¤¹à¤¿à¤¨à¥įà¤¦": 7433,
  "à¤¹à¤¿à¤¨à¥įà¤¦à¥Ģ": 10638,
  "à¤¹à¤¿à¤Ĥ": 10637,
  "à¤¹à¥Ģà¤Ĥ": 2321,
  "à¤¹à¥įà¤®": 6627,
  "à¤¼": 699,
  "à¤¾": 276,
  "à¤¾,": 1883,
  "à¤¾à¤": 289,
  "à¤¾à¤¡à¤¼": 6883,
  "à¤¾à¤¡à¤¼à¥Ģ": 10639,
  "à¤¾à¤£": 1954,
  "à¤¾à¤£à¤¿à¤ķ": 11404,
  "à¤¾à¤£à¥įà¤¡": 11405,
  "à¤¾à¤¤": 726,
  "à¤¾à¤¤à¤¨": 8534,
  "à¤¾à¤¤à¤¾": 3943,
  "à¤¾à¤¤à¥įà¤®": 3862,
  "à¤¾à¤¤à¥įà¤®à¤ķ": 5645,
  "à¤¾à¤¤à¥įà¤°": 4706,
  "à¤¾à¤¥": 1670,
  "à¤¾à¤¦": 909,
  "à¤¾à¤¦à¤¿": 7153,
  "à¤¾à¤¦à¥Ģ": 4405,
  "à¤¾à¤¦à¥ĩà¤¶": 5343,
  "à¤¾à¤¦à¥įà¤µà¥Ģà¤ª": 5069,
  "à¤¾à¤§": 2765,
  "à¤¾à¤§à¥įà¤¯": 11406,
  "à¤¾à¤¨": 477,
  "à¤¾à¤¨,": 9420,
  "à¤¾à¤¨à¤¾": 4510,
  "à¤¾à¤¨à¥Ģ": 4406,
  "à¤¾à¤¨à¥ĩ": 4072,
  "à¤¾à¤¨à¥įà¤¤": 4511,
  "à¤¾à¤¨à¥įà¤¯": 10640,
  "à¤¾à¤ª": 1363,
  "à¤¾à¤ªà¤¾à¤¨": 7435,
  "à¤¾à¤ªà¥įà¤¤": 4073,
  "à¤¾à¤¬": 1528,
  "à¤¾à¤¬à¤¾à¤¦": 11407,
  "à¤¾à¤¬à¥įà¤¦": 3863,
  "à¤¾à¤®": 879,
  "à¤¾à¤®à¤¿": 6184,
  "à¤¾à¤®à¥Ģ": 9421,
  "à¤¾à¤¯": 1018,
  "à¤¾à¤¯à¤£": 9982,
  "à¤¾à¤¯à¤¾": 3864,
  "à¤¾à¤¯à¤ķ": 5070,
  "à¤¾à¤¯à¥Ģ": 10641,
  "à¤¾à¤°": 428,
  "à¤¾à¤°,": 10642,
  "à¤¾à¤°à¤£": 4512,
  "à¤¾à¤°à¤¤": 861,
  "à¤¾à¤°à¤¸à¥Ģ": 8535,
  "à¤¾à¤°à¤¾": 2322,
  "à¤¾à¤°à¤ĸ": 5646,
  "à¤¾à¤°à¤ľà¥Ģ": 11408,
  "à¤¾à¤°à¥Ģ": 3394,
  "à¤¾à¤°à¥ĩ": 7436,
  "à¤¾à¤°à¥ĭà¤Ĥ": 5821,
  "à¤¾à¤°à¥įà¤¥": 9422,
  "à¤¾à¤²": 737,
  "à¤¾à¤²à¤¯": 3359,
  "à¤¾à¤²à¥Ģ": 6406,
  "à¤¾à¤µ": 1238,
  "à¤¾à¤µà¤¾": 9423,
  "à¤¾à¤µà¥įà¤¯": 4934,
  "à¤¾à¤¶": 2885,
  "à¤¾à¤·": 1402,
  "à¤¾à¤·à¥įà¤Łà¥įà¤°": 4333,
  "à¤¾à¤·à¥įà¤Łà¥įà¤°à¥Ģà¤¯": 5996,
  "à¤¾à¤¸": 784,
  "à¤¾à¤¸à¤¤": 11409,
  "à¤¾à¤¹": 1220,
  "à¤¾à¤¹à¤¿à¤¤": 3316,
  "à¤¾à¤¹à¤¿à¤¤à¥įà¤¯": 3603,
  "à¤¾à¤¹à¥Įà¤°": 8951,
  "à¤¾à¤ģ": 1299,
  "à¤¾à¤ģà¤¸": 9424,
  "à¤¾à¤ģà¤Ĺ": 11410,
  "à¤¾à¤ģà¤ļ": 6407,
  "à¤¾à¤Ĥ": 1041,
  "à¤¾à¤Ĥà¤¤": 3944,
  "à¤¾à¤Ĥà¤¶": 11411,
  "à¤¾à¤Ĥà¤Ĺ": 2727,
  "à¤¾à¤Ĥà¤Ĺà¥įà¤°à¥ĩ": 6185,
  "à¤¾à¤Ĥà¤Ĺà¥įà¤²": 4707,
  "à¤¾à¤ĩ": 3273,
  "à¤¾à¤ĩà¤ķà¥įà¤°": 11412,
  "à¤¾à¤Ī": 1761,
  "à¤¾à¤ī": 11403,
  "à¤¾à¤ı": 2367,
  "à¤¾à¤ıà¤ģ": 3274,
  "à¤¾à¤ıà¤Ĥ": 8952,
  "à¤¾à¤ĵà¤Ĥ": 1651,
  "à¤¾à¤ķ": 1239,
  "à¤¾à¤ķà¤¿à¤¸à¥įà¤¤à¤¾à¤¨": 2415,
  "à¤¾à¤ķà¥ĥà¤¤": 5997,
  "à¤¾à¤ķà¥įà¤¯": 10643,
  "à¤¾à¤ķà¥įà¤·": 8536,
  "à¤¾à¤ĸ": 3443,
  "à¤¾à¤ĸà¥įà¤¯à¤¾": 11413,
  "à¤¾à¤Ĺ": 1177,
  "à¤¾à¤Ĺà¤°": 3230,
  "à¤¾à¤Ĺà¤°à¤¾à¤ľ": 11414,
  "à¤¾à¤Ĺà¤°à¥Ģ": 7154,
  "à¤¾à¤ļ": 2007,
  "à¤¾à¤ļà¤²": 7761,
  "à¤¾à¤ļà¥Ģà¤¨": 2728,
  "à¤¾à¤ľ": 1522,
  "à¤¾à¤ľà¤¿à¤ķ": 10644,
  "à¤¾à¤ľà¥įà¤¯": 5647,
  "à¤¾à¤Ł": 4155,
  "à¤¾à¤Łà¥Ģ": 9983,
  "à¤¾à¤ł": 7434,
  "à¤¾à¤Ń": 8123,
  "à¤¾à¥¤": 1207,
  "à¤¿": 307,
  "à¤¿,": 6186,
  "à¤¿à¤": 313,
  "à¤¿à¤¡à¤¼": 11415,
  "à¤¿à¤£": 1955,
  "à¤¿à¤¤": 681,
  "à¤¿à¤¤à¤¾": 3866,
  "à¤¿à¤¤à¥Ģà¤¯": 9425,
  "à¤¿à¤¤à¥įà¤°": 3672,
  "à¤¿à¤¤à¥įà¤µ": 9984,
  "à¤¿à¤¦": 2143,
  "à¤¿à¤¦à¥įà¤§": 3139,
  "à¤¿à¤§": 3808,
  "à¤¿à¤¨": 912,
  "à¤¿à¤¨à¥įà¤¦": 2058,
  "à¤¿à¤¨à¥įà¤§": 10645,
  "à¤¿à¤¨à¥įà¤¨": 3604,
  "à¤¿à¤ª": 3865,
  "à¤¿à¤¬": 8953,
  "à¤¿à¤®": 1460,
  "à¤¿à¤¯": 596,
  "à¤¿à¤¯à¤¨": 8537,
  "à¤¿à¤¯à¤¾": 826,
  "à¤¿à¤¯à¤¾à¤£": 9985,
  "à¤¿à¤¯à¤¾à¤ģ": 4074,
  "à¤¿à¤¯à¤¾à¤Ī": 6884,
  "à¤¿à¤¯à¥ĩ": 3095,
  "à¤¿à¤¯à¥ĭ": 9986,
  "à¤¿à¤¯à¥ĭà¤Ĥ": 1896,
  "à¤¿à¤°": 1533,
  "à¤¿à¤²": 1064,
  "à¤¿à¤²à¤¾": 9987,
  "à¤¿à¤²à¥ĩ": 8538,
  "à¤¿à¤µ": 1589,
  "à¤¿à¤µà¤¾à¤¸": 8124,
  "à¤¿à¤µà¥ĩà¤¶": 8539,
  "à¤¿à¤¶": 1981,
  "à¤¿à¤·": 1970,
  "à¤¿à¤·à¤¦": 2368,
  "à¤¿à¤¸": 868,
  "à¤¿à¤¸à¥Ģ": 6187,
  "à¤¿à¤¸à¥įà¤¤à¤¾à¤¨": 1867,
  "à¤¿à¤¸à¥įà¤Ł": 9426,
  "à¤¿à¤¹": 4156,
  "à¤¿à¤¹à¤¾à¤°": 6628,
  "à¤¿à¤Ĥ": 1545,
  "à¤¿à¤Ĥà¤¹": 10646,
  "à¤¿à¤Ĥà¤Ĺ": 5822,
  "à¤¿à¤ı": 3945,
  "à¤¿à¤ķ": 601,
  "à¤¿à¤ķà¤¾": 4605,
  "à¤¿à¤ķà¤¾à¤°": 5200,
  "à¤¿à¤ķà¤¾à¤°à¤¿à¤ķ": 9988,
  "à¤¿à¤ķà¥Ģ": 11416,
  "à¤¿à¤ķà¥ĭ": 11417,
  "à¤¿à¤ķà¥įà¤·": 4334,
  "à¤¿à¤ĸ": 5198,
  "à¤¿à¤Ĺ": 5998,
  "à¤¿à¤Ĺà¥įà¤°à¥Ģ": 9989,
  "à¤¿à¤ļ": 7437,
  "à¤¿à¤ļà¤¯": 10647,
  "à¤¿à¤ľ": 2388,
  "à¤¿à¤ľà¤¼": 9990,
  "à¤¿à¤ľà¥įà¤ŀà¤¾à¤¨": 5201,
  "à¤¿à¤Ł": 3671,
  "à¤¿à¤Ń": 5199,
  "à¤¿à¤Ńà¤¾à¤·": 6629,
  "à¤ģ": 2179,
  "à¤Ĥ": 332,
  "à¤Ĥà¤¡": 2286,
  "à¤Ĥà¤¤": 3605,
  "à¤Ĥà¤¤à¥įà¤°": 2646,
  "à¤Ĥà¤¥": 4606,
  "à¤Ĥà¤¦": 3739,
  "à¤Ĥà¤¦à¤°": 11419,
  "à¤Ĥà¤§": 4935,
  "à¤Ĥà¤¬": 6885,
  "à¤Ĥà¤¶": 7438,
  "à¤Ĥà¤ķ": 5999,
  "à¤Ĥà¤ĸ": 11418,
  "à¤Ĥà¤Ĺ": 1357,
  "à¤Ĥà¤ļ": 6000,
  "à¤Ĥà¤ľ": 2464,
  "à¤Ĥà¤ľà¤¾à¤¬": 3505,
  "à¤Ĥà¤Ń": 6886,
  "à¤ĥ": 2434,
  "à¤ħ": 1851,
  "à¤Ĩ": 2795,
  "à¤ĩ": 2180,
  "à¤ĩà¤¤à¤¿à¤¹à¤¾à¤¸": 5344,
  "à¤ĩà¤¨": 8954,
  "à¤ĩà¤¨à¥įà¤¹à¥ĩà¤Ĥ": 11420,
  "à¤ĩà¤¸": 7155,
  "à¤ĩà¤Łà¥įà¤°": 10648,
  "à¤Ī": 1288,
  "à¤ī": 3941,
  "à¤Ĭ": 7424,
  "à¤ı": 2230,
  "à¤Ķ": 11385,
  "à¤ķ": 371,
  "à¤ķà¤°": 1940,
  "à¤ķà¤°à¤£": 6188,
  "à¤ķà¤²": 7156,
  "à¤ķà¤²à¤¾": 11421,
  "à¤ķà¤µ": 9427,
  "à¤ķà¤¾": 1316,
  "à¤ķà¤¾à¤¤à¤¾": 10649,
  "à¤ķà¤¾à¤°": 1884,
  "à¤ķà¤¾à¤°à¥Ģ": 11423,
  "à¤ķà¤¾à¤²": 4513,
  "à¤ķà¤¾à¤¶": 4514,
  "à¤ķà¤¿": 3673,
  "à¤ķà¤¿à¤¨": 4818,
  "à¤ķà¥Ģ": 1885,
  "à¤ķà¥ĥà¤¤": 9428,
  "à¤ķà¥ĩ": 1310,
  "à¤ķà¥ĭ": 4335,
  "à¤ķà¥ĭà¤¶": 8955,
  "à¤ķà¥ĭà¤Ĥ": 5648,
  "à¤ķà¥įà¤¤": 1590,
  "à¤ķà¥įà¤¤à¤¿": 4254,
  "à¤ķà¥įà¤°": 3184,
  "à¤ķà¥įà¤·": 1143,
  "à¤ķà¥įà¤·à¤£": 7762,
  "à¤ķà¥įà¤·à¤¾": 7763,
  "à¤ķà¥įà¤·à¤¿à¤£": 2144,
  "à¤ķà¥įà¤¸": 11422,
  "à¤ĸ": 989,
  "à¤ĸà¤¨": 7439,
  "à¤ĸà¤¨à¤Ĭ": 8956,
  "à¤ĸà¥įà¤¯à¤¾": 3185,
  "à¤Ĺ": 490,
  "à¤Ĺà¤¢à¤¼": 4157,
  "à¤Ĺà¤£": 5071,
  "à¤Ĺà¤£à¤¨à¤¾": 8957,
  "à¤Ĺà¤°": 2304,
  "à¤Ĺà¤°à¤¾": 7764,
  "à¤Ĺà¤°à¥Ģ": 11424,
  "à¤Ĺà¤²": 7440,
  "à¤Ĺà¤¸à¥įà¤¤": 9991,
  "à¤Ĺà¤¾à¤¨": 6630,
  "à¤Ĺà¤¾à¤¨à¤¿à¤¸à¥įà¤¤à¤¾à¤¨": 10650,
  "à¤Ĺà¥ĭà¤²": 4407,
  "à¤Ĺà¥įà¤°": 7441,
  "à¤ĺ": 4507,
  "à¤ļ": 901,
  "à¤ļà¤²": 9429,
  "à¤ļà¤¾à¤°": 8540,
  "à¤ļà¤¿à¤µ": 11425,
  "à¤ļà¥Ģ": 7765,
  "à¤ļà¥įà¤ļ": 4515,
  "à¤ļà¥įà¤Ľ": 10651,
  "à¤Ľ": 4814,
  "à¤ľ": 710,
  "à¤ľà¤¨": 3554,
  "à¤ľà¤¨à¥įà¤®": 8125,
  "à¤ľà¤¼": 3606,
  "à¤ľà¤¾à¤¤": 7766,
  "à¤ľà¥Ģ": 3867,
  "à¤ľà¥įà¤ŀ": 6631,
  "à¤ľà¥įà¤ŀà¤¾à¤¨": 4819,
  "à¤ľà¥įà¤ŀà¤¾à¤¨à¤¿à¤ķ": 6189,
  "à¤Ŀ": 4815,
  "à¤Ł": 897,
  "à¤Łà¤¨": 5072,
  "à¤Łà¤°": 9430,
  "à¤Łà¥įà¤°": 8126,
  "à¤ł": 2078,
  "à¤łà¤¨": 11426,
  "à¤Ń": 848,
  "à¤Ńà¤¾à¤°à¤¤": 3231,
  "à¤Ńà¤¾à¤°à¤¤à¥Ģà¤¯": 6190,
  "à¤Ńà¤¾à¤µ": 6001,
  "à¤Ńà¤¾à¤·": 9431,
  "à¤Ńà¤¾à¤·à¤¾": 10652,
  "à¤Ńà¤¾à¤Ĺ": 7767,
  "à¤Ńà¤Ĺ": 4075,
  "à¤Ńà¥Ģ": 7442,
  "à¤Ńà¥Ĥ": 7443,
  "à¥": 264,
  "à¥¤": 364,
  "à¥¦": 1441,
  "à¥¦à¥¦": 3740,
  "à¥§": 4936,
  "à¥§à¥": 3096,
  "à¥¨": 3395,
  "à¥©": 4820,
  "à¥ª": 5073,
  "à¥«": 4158,
  "à¥¬": 3946,
  "à¥®": 6191,
  "à¥¯": 11427,
  "à¥°": 5823,
  "à¥Ģ": 327,
  "à¥Ģ,": 1999,
  "à¥Ģà¤¤": 1774,
  "à¥Ģà¤¨": 1370,
  "à¥Ģà¤ª": 5484,
  "à¥Ģà¤®": 2729,
  "à¥Ģà¤¯": 947,
  "à¥Ģà¤°": 5074,
  "à¥Ģà¤²": 3232,
  "à¥Ģà¤µ": 2706,
  "à¥Ģà¤¸": 3444,
  "à¥Ģà¤Ĥ": 1306,
  "à¥Ģà¤ļ": 5202,
  "à¥Ģà¤Ł": 4821,
  "à¥Ģà¤Łà¤°": 8541,
  "à¥Ģà¥¤": 2556,
  "à¥ģ": 407,
  "à¥ģà¤": 667,
  "à¥ģà¤¡à¤¼": 6193,
  "à¥ģà¤£": 6002,
  "à¥ģà¤¤": 2798,
  "à¥ģà¤¦à¥įà¤§": 7768,
  "à¥ģà¤¦à¥įà¤°": 7444,
  "à¥ģà¤§": 11428,
  "à¥ģà¤¨": 1709,
  "à¥ģà¤¨à¤¿à¤¯à¤¾": 5485,
  "à¥ģà¤¨à¤¿à¤ķ": 6889,
  "à¥ģà¤ª": 4003,
  "à¥ģà¤ªà¥įà¤¤": 10655,
  "à¥ģà¤®": 4516,
  "à¥ģà¤°": 1294,
  "à¥ģà¤²": 2323,
  "à¥ģà¤·": 8127,
  "à¥ģà¤¸": 2027,
  "à¥ģà¤¸à¥įà¤¤": 10656,
  "à¥ģà¤Ĩ": 10653,
  "à¥ģà¤ĵà¤Ĥ": 10654,
  "à¥ģà¤ķ": 5649,
  "à¥ģà¤ķà¥įà¤²": 11429,
  "à¥ģà¤ĸ": 1676,
  "à¥ģà¤Ĺ": 7445,
  "à¥ģà¤ľ": 4255,
  "à¥ģà¤ľà¤°à¤¾à¤¤": 5203,
  "à¥ģà¤Ł": 6887,
  "à¥ģà¤Ń": 6888,
  "à¥Ĥ": 520,
  "à¥Ĥà¤¦": 8542,
  "à¥Ĥà¤¨": 4076,
  "à¥Ĥà¤ª": 1420,
  "à¥Ĥà¤°": 1911,
  "à¥Ĥà¤°à¥įà¤¯": 7446,
  "à¥Ĥà¤²": 3445,
  "à¥Ĥà¤¸": 3396,
  "à¥Ĥà¤ģ": 9992,
  "à¥ĥ": 857,
  "à¥ĥà¤¤": 1295,
  "à¥ĥà¤¤à¥įà¤¯": 5345,
  "à¥ĥà¤¥": 4822,
  "à¥ĥà¤¦à¥įà¤§": 8958,
  "à¥ĥà¤·à¥įà¤Ł": 3947,
  "à¥ĥà¤·à¥įà¤Łà¤¿": 5346,
  "à¥ĩ": 296,
  "à¥ĩà¤¤à¥įà¤°": 1748,
  "à¥ĩà¤¦": 3446,
  "à¥ĩà¤¨": 5650,
  "à¥ĩà¤°": 4607,
  "à¥ĩà¤²": 2098,
  "à¥ĩà¤µ": 5651,
  "à¥ĩà¤¶": 932,
  "à¥ĩà¤¶à¤¿à¤¯à¤¾": 8128,
  "à¥ĩà¤·": 3948,
  "à¥ĩà¤Ĥ": 426,
  "à¥ĩà¤Ĥà¤¦à¥įà¤°": 7157,
  "à¥ĩà¤ķ": 6632,
  "à¥ĩà¤ĸ": 4708,
  "à¥ĩà¤Ł": 3949,
  "à¥ĩà¥¤": 5347,
  "à¥Ī": 401,
  "à¥Īà¤£à¥įà¤¡": 11430,
  "à¥Īà¤°": 11431,
  "à¥Īà¤²": 6890,
  "à¥Īà¤Ĥà¤¡": 6003,
  "à¥ī": 2250,
  "à¥īà¤«à¤¼à¥įà¤Ł": 10657,
  "à¥ĭ": 355,
  "à¥ĭà¤¡à¤¼": 5486,
  "à¥ĭà¤¤": 7447,
  "à¥ĭà¤§": 7448,
  "à¥ĭà¤¨": 9432,
  "à¥ĭà¤ª": 2596,
  "à¥ĭà¤ªà¤¨à¤¿à¤·à¤¦à¥į": 5652,
  "à¥ĭà¤®": 6891,
  "à¥ĭà¤®à¥Ģà¤Łà¤°": 9993,
  "à¥ĭà¤°": 2960,
  "à¥ĭà¤°à¤¾à¤°à¤ľà¥Ģ": 11432,
  "à¥ĭà¤°à¥įà¤": 6892,
  "à¥ĭà¤²": 1941,
  "à¥ĭà¤µ": 2961,
  "à¥ĭà¤·": 7158,
  "à¥ĭà¤¸": 8129,
  "à¥ĭà¤¹": 5487,
  "à¥ĭà¤Ĥ": 585,
  "à¥ĭà¤Ĥà¤¨à¥ĩ": 3016,
  "à¥ĭà¤ķ": 2962,
  "à¥ĭà¤Ĺ": 1290,
  "à¥ĭà¤ľ": 5824,
  "à¥ĭà¤ľà¤¨à¤¾": 11433,
  "à¥ĭà¤Ł": 4159,
  "à¥Į": 1082,
  "à¥Įà¤°": 2266,
  "à¥į": 284,
  "à¥įà¤": 285,
  "à¥įà¤¡": 1728,
  "à¥įà¤£": 3140,
  "à¥įà¤¤": 521,
  "à¥įà¤¤à¤°": 4710,
  "à¥įà¤¤à¤¾à¤¨": 1660,
  "à¥įà¤¤à¥ģ": 8130,
  "à¥įà¤¤à¥įà¤°": 1577,
  "à¥įà¤¤à¥įà¤°à¥Ģ": 4004,
  "à¥įà¤¥": 933,
  "à¥įà¤¦": 840,
  "à¥įà¤¦à¥ĩà¤¶": 10658,
  "à¥įà¤§": 1114,
  "à¥įà¤¨": 1691,
  "à¥įà¤ª": 1467,
  "à¥įà¤¬": 1982,
  "à¥įà¤®": 1070,
  "à¥įà¤¯": 442,
  "à¥įà¤¯à¤¤à¤¾": 5348,
  "à¥įà¤¯à¤¾": 2059,
  "à¥įà¤¯à¤¾à¤¨": 11434,
  "à¥įà¤¯à¤¾à¤¯": 7159,
  "à¥įà¤¯à¤¾à¤²à¤¯": 6633,
  "à¥įà¤¯à¥Ĥ": 5488,
  "à¥įà¤¯à¥Ĥà¤Łà¤°": 11435,
  "à¥įà¤¯à¥ĭà¤Ĥ": 7450,
  "à¥įà¤°": 383,
  "à¥įà¤°à¤¹": 9995,
  "à¥įà¤°à¤¾à¤ľà¥įà¤¯": 8543,
  "à¥įà¤°à¥Ģ": 3741,
  "à¥įà¤°à¥Ģà¤ķà¤¾": 9996,
  "à¥įà¤°à¥ĩ": 2465,
  "à¥įà¤°à¥ĭà¤¤": 11436,
  "à¥įà¤²": 1490,
  "à¥įà¤²à¥Ģ": 7769,
  "à¥įà¤µ": 731,
  "à¥įà¤µà¤¾à¤¨": 9434,
  "à¥įà¤µà¥Ģ": 2572,
  "à¥įà¤µà¥Ģà¤ª": 4256,
  "à¥įà¤¶à¤¨": 9994,
  "à¥įà¤·": 824,
  "à¥įà¤¸": 2231,
  "à¥įà¤¹": 1775,
  "à¥įà¤¹à¥ĩà¤Ĥ": 5825,
  "à¥įà¤¹à¥ĭà¤Ĥà¤¨à¥ĩ": 10659,
  "à¥įà¤ķ": 1371,
  "à¥įà¤Ĺ": 4938,
  "à¥įà¤ļ": 1529,
  "à¥įà¤Ľ": 9433,
  "à¥įà¤ľ": 7449,
  "à¥įà¤ŀ": 1576,
  "à¥įà¤ŀà¤¾à¤¨": 1923,
  "à¥įà¤Ł": 873,
  "à¥įà¤Łà¥Ģ": 6194,
  "à¥įà¤ł": 6408,
  "à¥įà¤Ń": 3868,
  "à¥įâĢ": 4709,
  "à¥įâĢį": 5349,
  "à¥įâĢįà¤¯": 10660,
  "à¥Ĳ": 6192,
  "à¥Ń": 4937,
  "à¦": 262,
  "à¦¡": 6409,
  "à¦¡à¦¼": 1817,
  "à¦¡à¦¼à§ĩ": 5204,
  "à¦£": 1017,
  "à¦£à§įà¦¡": 4823,
  "à¦¤": 439,
  "à¦¤à¦¨à§įà¦¤à§įà¦°": 8959,
  "à¦¤à¦®": 3742,
  "à¦¤à¦¾": 2730,
  "à¦¤à¦¾à¦°": 8131,
  "à¦¤à¦¿": 2861,
  "à¦¤à¦¿à¦": 1837,
  "à¦¤à¦¿à¦¹": 2574,
  "à¦¤à¦¿à¦¹à¦¾à¦¸": 2862,
  "à¦¤à¦¿à¦ķ": 3809,
  "à¦¤à§ģ": 7451,
  "à¦¤à§ģà¦¨": 8960,
  "à¦¤à§ĩ": 1886,
  "à¦¤à§įà¦¤": 1331,
  "à¦¤à§įà¦¤à¦®": 3869,
  "à¦¤à§įà¦¤à¦°": 2028,
  "à¦¤à§įà¦¤à¦¿": 10661,
  "à¦¤à§įà¦¤à§įà¦¬": 9435,
  "à¦¤à§įà¦¬": 3743,
  "à¦¤à§įà¦¯": 6004,
  "à¦¤à§įà¦¯à¦¾à¦¦": 11438,
  "à¦¤à§įà¦°": 5653,
  "à¦¥": 1330,
  "à¦¥à¦®": 4257,
  "à¦¥à¦¾": 6893,
  "à¦¥à§įà¦¯": 11439,
  "à¦¦": 787,
  "à¦¦à§Ģ": 8961,
  "à¦¦à§ĩà¦°": 2466,
  "à¦¦à§ĩà¦¶": 8132,
  "à¦¦à§įà¦§": 5489,
  "à¦¦à§įà¦¬à§Ģà¦ª": 5827,
  "à¦§": 1015,
  "à¦§à¦¾à¦¨": 3056,
  "à¦§à§ģà¦¨": 10662,
  "à¦§à§ģà¦¨à¦¿à¦ķ": 10663,
  "à¦¨": 429,
  "à¦¨à¥¤": 6634,
  "à¦¨à¦¾": 4517,
  "à¦¨à¦¾à¦®": 11440,
  "à¦¨à¦¿à¦¬à§ĩà¦¶": 4711,
  "à¦¨à§Ģ": 5828,
  "à¦¨à§Ģà¦¤à¦¿": 11442,
  "à¦¨à§ĩ": 4824,
  "à¦¨à§ĩà¦°": 2482,
  "à¦¨à§Ī": 4712,
  "à¦¨à§Īà¦¤à¦¿à¦ķ": 4825,
  "à¦¨à§ĭ": 5654,
  "à¦¨à§įà¦¡": 11441,
  "à¦¨à§įà¦¤": 2251,
  "à¦¨à§įà¦¤à§įà¦°": 4160,
  "à¦¨à§įà¦¤à§įà¦°à§Ģ": 7770,
  "à¦¨à§įà¦¦": 2598,
  "à¦¨à§įà¦§": 8133,
  "à¦¨à§įà¦¨": 5655,
  "à¦¨à§įà¦¯": 9998,
  "à¦ª": 635,
  "à¦ªà¦°": 4826,
  "à¦ªà¦¶à§įà¦ļà¦¿à¦®": 8962,
  "à¦ªà§ģ": 5205,
  "à¦ªà§ģà¦ŀà§įà¦ľ": 5829,
  "à¦ªà§Ĥà¦°à§įà¦£": 11443,
  "à¦ªà§Ĥà¦°à§įà¦¬": 4077,
  "à¦ªà§Ĥà¦°à§įà¦¬à¦¾à¦¬à§įà¦¦": 8544,
  "à¦ªà§įà¦°": 2504,
  "à¦ªà§įà¦°à¦¿à¦¯à¦¼": 10664,
  "à¦«": 1912,
  "à¦¬": 534,
  "à¦¬à¦°à§įà¦¤à§Ģ": 5075,
  "à¦¬à¦¹": 9999,
  "à¦¬à¦¾": 9436,
  "à¦¬à¦¾à¦": 11444,
  "à¦¬à¦¾à¦°": 10665,
  "à¦¬à¦¾à¦¸": 10666,
  "à¦¬à¦¾à¦¹": 11445,
  "à¦¬à¦Ĥ": 987,
  "à¦¬à¦Ļà§įà¦Ĺ": 10000,
  "à¦¬à§ĩ": 4408,
  "à¦¬à§įà¦¦": 4005,
  "à¦¬à§įà¦¯": 10001,
  "à¦®": 540,
  "à¦®à¦¨": 6635,
  "à¦®à¦¹": 7162,
  "à¦®à¦¾à¦¤à§įà¦°": 10667,
  "à¦®à¦¾à¦¨": 2049,
  "à¦®à§įà¦¬": 7452,
  "à¦¯": 2597,
  "à¦¯à¦¼": 582,
  "à¦¯à¦¼à¦¾": 4518,
  "à¦¯à¦¼à§ĩà¦°": 10002,
  "à¦¯à¦¾à¦¯à¦¼à§Ģ": 8963,
  "à¦¯à§ģà¦ķà§įà¦¤": 8964,
  "à¦¯à§ĭà¦Ĺ": 7453,
  "à¦°": 302,
  "à¦°à¦£": 4078,
  "à¦°à¦¾": 4713,
  "à¦°à¦¾à¦¨": 9437,
  "à¦°à¦¾à¦·à§įà¦Łà§įà¦°": 6894,
  "à¦°à¦¾à¦ľ": 7163,
  "à¦°à¦¿à¦ķ": 7771,
  "à¦°à§ģ": 9438,
  "à¦°à§Ĥà¦ª": 10003,
  "à¦°à§ĩ": 4608,
  "à¦°à§ĩà¦ľ": 8134,
  "à¦°à§įà¦": 763,
  "à¦°à§įà¦£": 4006,
  "à¦°à§įà¦¤": 2116,
  "à¦°à§įà¦¤à¦®à¦¾à¦¨": 3810,
  "à¦°à§įà¦¤à§Ģ": 4715,
  "à¦°à§įà¦¥": 2200,
  "à¦°à§įà¦¬": 1504,
  "à¦°à§įà¦®": 6895,
  "à¦°à§įà¦¯à¦": 3555,
  "à¦°à§įà¦·": 10004,
  "à¦°à§įà¦ķ": 4714,
  "à¦°à§įà¦Ĺ": 4007,
  "à¦°à§įà¦ĺ": 8545,
  "à¦°à§įà¦ľ": 3233,
  "à¦°à§įà¦ľà¦¾à¦¤": 8547,
  "à¦°à§įà¦ľà¦¾à¦¤à¦¿à¦ķ": 8548,
  "à¦°à§įà¦ľà§ĩà¦¨à§įà¦Ł": 7772,
  "à¦°à§įà¦ľà§ĩà¦¨à§įà¦Łà¦¿à¦¨": 7773,
  "à¦°à§įà¦Ł": 7164,
  "à¦°à§įà¦Ń": 8546,
  "à¦°à§įà¦Ńà§ģà¦ķà§įà¦¤": 10668,
  "à¦²": 512,
  "à¦²à§ĩ": 2060,
  "à¦²à§ĩà¦°": 5830,
  "à¦²à§įà¦¯à¦¾à¦¨à§įà¦¡": 11446,
  "à¦¶": 793,
  "à¦¶à¦¾à¦¹à§Ģ": 6195,
  "à¦¶à§ĩà¦¨": 7774,
  "à¦¶à§įà¦ļ": 2917,
  "à¦¶à§įà¦ļà¦¿à¦®": 2918,
  "à¦·": 1455,
  "à¦·à¦£": 10669,
  "à¦·à§įà¦Ł": 7775,
  "à¦·à§įà¦ł": 6196,
  "à¦¸": 629,
  "à¦¸à¦®": 4079,
  "à¦¸à¦®à§Ĥà¦¹": 7776,
  "à¦¸à¦²": 6410,
  "à¦¸à¦¾à¦Ĺà¦°": 11447,
  "à¦¸à¦Ĥ": 3141,
  "à¦¸à¦Ĥà¦ĸà§įà¦¯": 3811,
  "à¦¸à§įà¦¤": 5350,
  "à¦¸à§įà¦¥": 1868,
  "à¦¸à§įà¦¬": 9439,
  "à¦¸à§įà¦¯": 7165,
  "à¦¸à§įà¦ķ": 5076,
  "à¦¸à§įà¦Ł": 10670,
  "à¦¹": 732,
  "à¦¹à¦£": 8965,
  "à¦¹à¦°": 3057,
  "à¦¼": 1212,
  "à¦¾": 293,
  "à¦¾,": 2919,
  "à¦¾à¥¤": 3447,
  "à¦¾à¦": 315,
  "à¦¾à¦¡": 7454,
  "à¦¾à¦¡à¦¼": 2389,
  "à¦¾à¦£": 4008,
  "à¦¾à¦¤": 1120,
  "à¦¾à¦¤à§ĩ": 5351,
  "à¦¾à¦¤à§įà¦°": 4716,
  "à¦¾à¦¥": 3607,
  "à¦¾à¦¥à§ĩ": 4717,
  "à¦¾à¦¦": 1050,
  "à¦¾à¦¦à§Ģ": 10671,
  "à¦¾à¦¦à§ĩà¦°": 3950,
  "à¦¾à¦¦à§ĩà¦¶": 1788,
  "à¦¾à¦§": 1924,
  "à¦¾à¦§à¦¾à¦°à¦£": 8135,
  "à¦¾à¦§à¦¿à¦ķ": 10672,
  "à¦¾à¦§à§Ģà¦¨": 5206,
  "à¦¾à¦§à§įà¦¯à¦®": 6005,
  "à¦¾à¦§à§įà¦¯à¦¾à¦¯à¦¼": 10006,
  "à¦¾à¦¨": 599,
  "à¦¾à¦¨à¥¤": 11448,
  "à¦¾à¦¨à§ĩ": 4409,
  "à¦¾à¦¨à§įà¦¤": 2920,
  "à¦¾à¦¨à§įà¦Ł": 7456,
  "à¦¾à¦¨à§įà¦Łà¦¿à¦ķ": 7778,
  "à¦¾à¦ª": 2252,
  "à¦¾à¦«": 7455,
  "à¦¾à¦¬": 1059,
  "à¦¾à¦¬à¦²": 10673,
  "à¦¾à¦¬à§ĩ": 2799,
  "à¦¾à¦¬à§įà¦¦": 2921,
  "à¦¾à¦®": 969,
  "à¦¾à¦®à§ĩà¦°": 10674,
  "à¦¾à¦¯": 8549,
  "à¦¾à¦¯à¦¼": 849,
  "à¦¾à¦¯à¦¼à§Ģ": 6006,
  "à¦¾à¦¯à¦¼à§ģ": 8550,
  "à¦¾à¦°": 474,
  "à¦¾à¦°à¦£": 3234,
  "à¦¾à¦°à¦¤": 2390,
  "à¦¾à¦°à¦¾": 3187,
  "à¦¾à¦°à¦¿à¦¤": 10675,
  "à¦¾à¦°à§Ģ": 10007,
  "à¦¾à¦°à§ĩ": 6007,
  "à¦¾à¦°à§ĩà¦°": 7457,
  "à¦¾à¦°à§įà¦§": 10676,
  "à¦¾à¦°à§įà¦¬": 5207,
  "à¦¾à¦°à§įà¦¬à¦¾à¦¡": 8966,
  "à¦¾à¦°à§įà¦¬à¦¾à¦¡à§ĭà¦¸": 9442,
  "à¦¾à¦°à§įà¦¬à¦Ń": 9441,
  "à¦¾à¦°à§įà¦¬à¦Ńà§Į": 9443,
  "à¦¾à¦°à§įà¦¬à¦Ńà§Įà¦®": 9444,
  "à¦¾à¦°à§įà¦®": 11449,
  "à¦¾à¦°à§įà¦ķ": 4519,
  "à¦¾à¦°à§įà¦ķà¦¿à¦¨": 11450,
  "à¦¾à¦°à§įà¦ķà¦Ł": 6897,
  "à¦¾à¦²": 876,
  "à¦¾à¦²à§Ģ": 8551,
  "à¦¾à¦¶": 2963,
  "à¦¾à¦·": 1242,
  "à¦¾à¦·à§įà¦Łà§įà¦°": 2099,
  "à¦¾à¦¸": 797,
  "à¦¾à¦¸à¦¨": 4939,
  "à¦¾à¦¸à§Ģ": 6898,
  "à¦¾à¦¹": 1852,
  "à¦¾à¦¹à§Ģ": 5352,
  "à¦¾à¦ģ": 4080,
  "à¦¾à¦Ĥ": 3186,
  "à¦¾à¦Ĥà¦¶": 4081,
  "à¦¾à¦ĩ": 2217,
  "à¦¾à¦ĩà¦¨": 7166,
  "à¦¾à¦ĩà¦²": 9445,
  "à¦¾à¦ī": 10005,
  "à¦¾à¦ĵ": 3744,
  "à¦¾à¦ĵà¦¯à¦¼à¦¾": 6008,
  "à¦¾à¦ķ": 1074,
  "à¦¾à¦ķà¦¾": 4827,
  "à¦¾à¦ķà¦¿à¦¸à§įà¦¤à¦¾à¦¨": 6009,
  "à¦¾à¦ķà§ĩ": 4410,
  "à¦¾à¦ĸ": 6896,
  "à¦¾à¦Ĺ": 988,
  "à¦¾à¦Ĺà¦°": 1348,
  "à¦¾à¦Ĺà§ģà¦¯à¦¼": 8136,
  "à¦¾à¦Ĺà§ģà¦²": 10008,
  "à¦¾à¦Ļà§įà¦Ĺ": 7777,
  "à¦¾à¦Ļà§įà¦Ĺà§ĭà¦²": 10009,
  "à¦¾à¦ļ": 2483,
  "à¦¾à¦ļà§Ģà¦¨": 4609,
  "à¦¾à¦ľ": 1098,
  "à¦¾à¦ľà¦¾à¦°": 6197,
  "à¦¾à¦ľà¦¿à¦²": 8137,
  "à¦¾à¦Ł": 2575,
  "à¦¾à¦Łà¦¿": 8967,
  "à¦¾à¦Ń": 5490,
  "à¦¾à§İ": 9440,
  "à¦¿": 321,
  "à¦¿,": 3556,
  "à¦¿à¥¤": 8138,
  "à¦¿à¦": 339,
  "à¦¿à¦¡": 6899,
  "à¦¿à¦£": 2000,
  "à¦¿à¦¤": 772,
  "à¦¿à¦¤à¥¤": 2863,
  "à¦¿à¦¤à§ĩ": 3318,
  "à¦¿à¦¤à§įà¦¬": 8554,
  "à¦¿à¦¤à§įà¦°": 6411,
  "à¦¿à¦¦": 4411,
  "à¦¿à¦§": 10010,
  "à¦¿à¦¨": 974,
  "à¦¿à¦¨à¦¿": 8555,
  "à¦¿à¦¨à§įà¦¤": 10678,
  "à¦¿à¦¨à§įà¦¦": 6412,
  "à¦¿à¦¨à§įà¦¦à§ģ": 8556,
  "à¦¿à¦¨à§įà¦¨": 3870,
  "à¦¿à¦ª": 3675,
  "à¦¿à¦¬": 1291,
  "à¦¿à¦¬à¦¾à¦¸à§Ģ": 10679,
  "à¦¿à¦¬à§ĩà¦¶": 3235,
  "à¦¿à¦®": 1677,
  "à¦¿à¦¯": 10011,
  "à¦¿à¦¯à¦¼": 847,
  "à¦¿à¦¯à¦¼à¦¨": 10012,
  "à¦¿à¦¯à¦¼à¦¾": 1853,
  "à¦¿à¦¯à¦¼à¦¾,": 6198,
  "à¦¿à¦¯à¦¼à¦¾à¦¨": 5491,
  "à¦¿à¦¯à¦¼à¦¾à¦°": 2677,
  "à¦¿à¦¯à¦¼à§ĩ": 2678,
  "à¦¿à¦°": 1165,
  "à¦¿à¦°à§įà¦": 5208,
  "à¦¿à¦²": 1086,
  "à¦¿à¦²à§ĭà¦®": 6638,
  "à¦¿à¦²à§ĭà¦®à¦¿à¦Łà¦¾à¦°": 6639,
  "à¦¿à¦¶": 3142,
  "à¦¿à¦·": 3058,
  "à¦¿à¦·à§įà¦Ł": 4336,
  "à¦¿à¦¸": 1124,
  "à¦¿à¦¸à§įà¦¤à¦¾à¦¨": 3448,
  "à¦¿à¦¸à§įà¦Ł": 6199,
  "à¦¿à¦¹": 8552,
  "à¦¿à¦Ĥ": 4161,
  "à¦¿à¦ĩ": 10677,
  "à¦¿à¦ī": 8553,
  "à¦¿à¦ĵ": 7458,
  "à¦¿à¦ķ": 648,
  "à¦¿à¦ķà¦¾": 5831,
  "à¦¿à¦ķà¦Ńà¦¾à¦¬à§ĩ": 8139,
  "à¦¿à¦ķà§ĩ": 3449,
  "à¦¿à¦ķà§ĩà¦°": 10013,
  "à¦¿à¦ķà§įà¦·": 10014,
  "à¦¿à¦ĸ": 6636,
  "à¦¿à¦Ĺ": 6637,
  "à¦¿à¦ļ": 3143,
  "à¦¿à¦Ľ": 5077,
  "à¦¿à¦Ľà§ģ": 5492,
  "à¦¿à¦ľ": 2964,
  "à¦¿à¦Ł": 2599,
  "à¦¿à¦Łà¦¾à¦°": 4610,
  "à¦¿à¦Ń": 7167,
  "à¦ģ": 7160,
  "à¦Ĥ": 724,
  "à¦Ĥà¦¶": 3557,
  "à¦ĥ": 9997,
  "à¦ħ": 5826,
  "à¦Ĩ": 3674,
  "à¦ĩ": 1058,
  "à¦ĩà¦¤à¦¿à¦¹à¦¾à¦¸": 9446,
  "à¦ī": 1956,
  "à¦ı": 3317,
  "à¦ĵ": 2831,
  "à¦ĵà¦¯à¦¼": 10680,
  "à¦ķ": 500,
  "à¦ķà¦°à¦£": 10015,
  "à¦ķà¦²": 8140,
  "à¦ķà¦¾à¦°": 3017,
  "à¦ķà¦¾à¦°à§Ģ": 11451,
  "à¦ķà¦¾à¦²": 5078,
  "à¦ķà¦¾à¦²à§ĩ": 10681,
  "à¦ķà¦¾à¦¶": 9447,
  "à¦ķà§ĥà¦¤": 4520,
  "à¦ķà§ĩ": 1897,
  "à¦ķà§ĩà¦°": 4828,
  "à¦ķà§įà¦¤": 2009,
  "à¦ķà§įà¦·": 1317,
  "à¦ķà§įà¦·à§ĩ": 10682,
  "à¦ĸ": 1403,
  "à¦ĸà¦£à§įà¦¡": 11452,
  "à¦ĸà¦¾à¦ľ": 10683,
  "à¦ĸà§įà¦¯": 3144,
  "à¦Ĺ": 906,
  "à¦Ĺà¦£": 11453,
  "à¦Ĺà¦°": 10684,
  "à¦Ĺà¦¾à¦¨": 6900,
  "à¦Ĺà§ģà¦²": 2623,
  "à¦Ĺà§ģà¦²à¦¿": 7168,
  "à¦Ĺà§ģà¦²à¦¿à¦°": 8557,
  "à¦Ĺà§ģà¦²à§ĭ": 8968,
  "à¦Ĺà§ĭà¦²": 9448,
  "à¦Ĺà§įà¦°": 4521,
  "à¦ĺ": 7161,
  "à¦Ļà§įà¦": 11437,
  "à¦Ļà§įà¦ķ": 11454,
  "à¦Ļà§įà¦Ĺ": 2573,
  "à¦Ļà§įà¦Ĺà§ĭà¦ª": 9449,
  "à¦Ļà§įà¦Ĺà§ĭà¦ªà¦¾à¦§à§įà¦¯à¦¾à¦¯à¦¼": 11455,
  "à¦ļ": 1347,
  "à¦ļà§įà¦ļ": 4258,
  "à¦ļà§įà¦Ľ": 7169,
  "à¦Ľ": 2008,
  "à¦Ľà¦°": 4009,
  "à¦Ľà¦¾à¦¡à¦¼": 7459,
  "à¦ľ": 1263,
  "à¦ľà¦¨": 3871,
  "à¦ľà¦¾à¦¤": 4829,
  "à¦ľà§ĩà¦°": 6901,
  "à¦ľà§įà¦ŀ": 8558,
  "à¦ŀ": 1787,
  "à¦ŀà§įà¦ļ": 2345,
  "à¦ŀà§įà¦ľ": 4412,
  "à¦Ł": 655,
  "à¦Łà¦²": 6902,
  "à¦Łà¦²à¦¾à¦¨à§įà¦Łà¦¿à¦ķ": 7779,
  "à¦Łà¦¿": 817,
  "à¦Łà¦¿à¦¤à§ĩ": 11456,
  "à¦Łà¦¿à¦°": 3450,
  "à¦Łà¦¿à¦ķà§ĩ": 8559,
  "à¦ł": 2676,
  "à¦Ń": 1030,
  "à¦Ńà¦¾à¦¬": 8560,
  "à¦Ńà¦¾à¦¬à§ĩ": 3872,
  "à¦Ńà¦¾à¦Ĺ": 6010,
  "à¦Ńà§Ĥ": 6413,
  "à¦Ńà§Ĥà¦®": 7780,
  "à§": 268,
  "à§¦": 941,
  "à§¦à§¦": 1838,
  "à§¦à§¦à§¦": 4830,
  "à§§": 4162,
  "à§§à§": 3018,
  "à§§à§¯à§": 7460,
  "à§¨": 2467,
  "à§¨à§¦": 10687,
  "à§©": 4259,
  "à§ª": 4260,
  "à§«": 3188,
  "à§«à§¦": 11457,
  "à§¬": 3676,
  "à§®": 3558,
  "à§¯": 6011,
  "à§¯à§": 10685,
  "à§·": 10686,
  "à§Ģ": 508,
  "à§Ģà¦¤": 4718,
  "à§Ģà¦¤à§ĩ": 6012,
  "à§Ģà¦¨": 1957,
  "à§Ģà¦ª": 1958,
  "à§Ģà¦¬": 5209,
  "à§Ģà¦¯à¦¼": 1349,
  "à§Ģà¦°": 1567,
  "à§Ģà¦°à¦¾": 11459,
  "à§Ģà¦°à§ĩ": 10688,
  "à§Ģà¦²": 11458,
  "à§Ģà¦ķà§ĥà¦¤": 8141,
  "à§ģ": 478,
  "à§ģà¦¡à¦¼à§ĩ": 8142,
  "à§ģà¦¦": 2624,
  "à§ģà¦¦à§įà¦§": 5079,
  "à§ģà¦¦à§įà¦°": 5210,
  "à§ģà¦¨": 3608,
  "à§ģà¦¬": 11460,
  "à§ģà¦¯à¦¼": 3319,
  "à§ģà¦¯à¦¼à¦¾à¦°": 10016,
  "à§ģà¦°": 1710,
  "à§ģà¦°à§ģ": 3237,
  "à§ģà¦°à§ģà¦¤à§įà¦¬": 9452,
  "à§ģà¦²": 1461,
  "à§ģà¦·": 3812,
  "à§ģà¦ģ": 11461,
  "à§ģà¦ķ": 9450,
  "à§ģà¦ķà§įà¦¤": 2832,
  "à§ģà¦Ĺ": 3236,
  "à§ģà¦ľ": 9451,
  "à§ģà¦Ł": 8143,
  "à§Ĥ": 874,
  "à§Ĥà¦ª": 4522,
  "à§Ĥà¦°": 8561,
  "à§Ĥà¦°à§įà¦£": 5353,
  "à§Ĥà¦°à§įà¦¬": 2080,
  "à§Ĥà¦²": 3506,
  "à§Ĥà¦¹": 6414,
  "à§ĥ": 887,
  "à§ĥà¦¤": 1635,
  "à§ĥà¦¤à¦¿à¦ķ": 5080,
  "à§ĥà¦·": 3873,
  "à§ĥà¦·à§įà¦Ł": 6903,
  "à§ĥà¦¹": 11462,
  "à§ĩ": 311,
  "à§ĩ,": 4082,
  "à§ĩà¥¤": 1099,
  "à§ĩà¦": 397,
  "à§ĩà¦¡": 9453,
  "à§ĩà¦¤": 3145,
  "à§ĩà¦¤à§įà¦°": 7781,
  "à§ĩà¦¦": 4940,
  "à§ĩà¦¦à§ĩà¦°": 7170,
  "à§ĩà¦¨": 1003,
  "à§ĩà¦¨,": 10689,
  "à§ĩà¦¨à¥¤": 2864,
  "à§ĩà¦¨à¦¿à¦¸": 6640,
  "à§ĩà¦¨à§įà¦¦": 4524,
  "à§ĩà¦¨à§įà¦¦à§įà¦°": 4941,
  "à§ĩà¦¨à§įà¦Ł": 6015,
  "à§ĩà¦ª": 6013,
  "à§ĩà¦ªà¦¾à¦²": 11463,
  "à§ĩà¦¬": 2010,
  "à§ĩà¦®": 4523,
  "à§ĩà¦®à¦¨": 8969,
  "à§ĩà¦¯à¦¼": 3146,
  "à§ĩà¦¯à¦¼à§ĩ": 4337,
  "à§ĩà¦°": 479,
  "à§ĩà¦°à¦¿à¦ķ": 2966,
  "à§ĩà¦°à§ģ": 7782,
  "à§ĩà¦²": 1208,
  "à§ĩà¦¶": 858,
  "à§ĩà¦¶à¦¨": 11464,
  "à§ĩà¦·": 2965,
  "à§ĩà¦·à§įà¦Ł": 8144,
  "à§ĩà¦¸": 4413,
  "à§ĩà¦¸à§įà¦Ł": 10018,
  "à§ĩà¦ĩ": 2557,
  "à§ĩà¦ĵ": 3745,
  "à§ĩà¦ķ": 1226,
  "à§ĩà¦ĸ": 2201,
  "à§ĩà¦ļ": 10017,
  "à§ĩà¦Ľ": 1267,
  "à§ĩà¦Ľà¦¿à¦²": 3320,
  "à§ĩà¦Ľà¦¿à¦²à¥¤": 6415,
  "à§ĩà¦Ľà§ĩ": 2886,
  "à§ĩà¦Ľà§ĩà¥¤": 2679,
  "à§ĩà¦ľ": 6014,
  "à§ĩà¦Ł": 3507,
  "à§Ī": 2061,
  "à§ĭ": 607,
  "à§ĭà¦§": 7783,
  "à§ĭà¦¨": 8970,
  "à§ĭà¦ª": 2468,
  "à§ĭà¦®": 5656,
  "à§ĭà¦¯à¦¼": 3559,
  "à§ĭà¦°": 5354,
  "à§ĭà¦²": 2766,
  "à§ĭà¦·à¦£": 11465,
  "à§ĭà¦·à§įà¦ł": 10690,
  "à§ĭà¦¸": 5081,
  "à§ĭà¦Ĺ": 4163,
  "à§ĭà¦ļ": 10691,
  "à§ĭà¦Ł": 3508,
  "à§ĭà¦Ń": 8562,
  "à§Į": 2346,
  "à§Įà¦°": 6641,
  "à§į": 303,
  "à§įà¦": 317,
  "à§įà¦¡": 2202,
  "à§įà¦£": 10019,
  "à§įà¦¤": 576,
  "à§įà¦¤à¦¾à¦¨": 3189,
  "à§įà¦¥": 1182,
  "à§įà¦¦": 1104,
  "à§įà¦§": 2041,
  "à§įà¦¨": 1913,
  "à§įà¦ª": 1983,
  "à§įà¦¬": 627,
  "à§įà¦¬à¦¨": 10692,
  "à§įà¦¬à¦¿à¦ķ": 10693,
  "à§įà¦¬à§Ģà¦ª": 5082,
  "à§įà¦®": 3813,
  "à§įà¦¯": 605,
  "à§įà¦¯,": 10694,
  "à§įà¦¯à¦": 1090,
  "à§įà¦¯à¦¤": 3451,
  "à§įà¦¯à¦¨à§įà¦¤": 9454,
  "à§įà¦¯à¦¬": 3677,
  "à§įà¦¯à¦®": 5211,
  "à§įà¦¯à¦¯à¦¼": 11467,
  "à§įà¦¯à¦¸": 8564,
  "à§įà¦¯à¦¾à¦¤": 8563,
  "à§įà¦¯à¦¾à¦¨": 2181,
  "à§įà¦¯à¦¾à¦¨à§įà¦¡": 6642,
  "à§įà¦¯à¦¾à¦¨à§įà¦¯": 6643,
  "à§įà¦¯à¦¾à¦¨à§įà¦Ł": 4943,
  "à§įà¦¯à¦¾à¦¨à§įà¦Łà¦¾à¦°à§įà¦ķà¦Ł": 8145,
  "à§įà¦¯à¦¾à¦®": 10695,
  "à§įà¦¯à¦¾à¦¯à¦¼": 6016,
  "à§įà¦¯à¦¾à¦°": 4942,
  "à§įà¦¯à¦¾à¦°à¦¾à¦Ĺà§ģà¦¯à¦¼": 8565,
  "à§įà¦¯à¦¾à¦²": 11466,
  "à§įà¦¯à¦ķ": 4831,
  "à§įà¦¯à§ĩ": 2182,
  "à§įà¦¯à§ĩà¦°": 3275,
  "à§įà¦°": 458,
  "à§įà¦°à¦®": 7171,
  "à§įà¦°à¦¾à¦ľ": 6416,
  "à§įà¦°à¦¿à¦ķ": 2324,
  "à§įà¦°à¦¿à¦ķà§ĩà¦Ł": 5658,
  "à§įà¦°à§Ģ": 2865,
  "à§įà¦²": 3019,
  "à§įà¦²à§ĩà¦ĸ": 8566,
  "à§įà¦·": 1087,
  "à§įà¦¸": 5493,
  "à§įà¦ķ": 2081,
  "à§įà¦ļ": 1256,
  "à§įà¦Ľ": 3874,
  "à§įà¦ľ": 3951,
  "à§įà¦ŀ": 5657,
  "à§įà¦Ł": 836,
  "à§įà¦Łà§įà¦°": 1563,
  "à§įà¦ł": 2767,
  "à§įà¦Ń": 4414,
  "à§įà¦Ńà¦¬": 10020,
  "à§İ": 2647,
  "à§Ń": 3397,
  "à¨": 11384,
  "àª": 6618,
  "à®": 260,
  "à®£": 574,
  "à®£à®®à¯į": 8567,
  "à®£à®¿": 10696,
  "à®£à¯į": 10697,
  "à®£à¯įà®£": 4719,
  "à®£à¯įà®®": 4611,
  "à®£à¯įà®Ł": 758,
  "à®£à¯įà®Łà¯Ī": 9455,
  "à®£à¯įà®Łà¯Īà®¯": 9456,
  "à®¤": 340,
  "à®¤à®©": 11468,
  "à®¤à®©à¯į": 8971,
  "à®¤à®®à®¿à®´": 7461,
  "à®¤à®±à¯įà®ķ": 4010,
  "à®¤à®±à¯įà®ķà¯ģ": 10698,
  "à®¤à®¾à®©": 7462,
  "à®¤à®¾à®¯": 9457,
  "à®¤à®¾à®²à¯į,": 11469,
  "à®¤à®¾à®ķ": 9458,
  "à®¤à®¾à®ķà®ķà¯į": 10699,
  "à®¤à®¾à®ķà¯ģà®®à¯į.": 9459,
  "à®¤à®¿": 5660,
  "à®¤à®¿à®¯": 4525,
  "à®¤à®¿à®°": 4720,
  "à®¤à¯ģ": 489,
  "à®¤à¯ģ,": 3815,
  "à®¤à¯ģ.": 718,
  "à®¤à¯ģà®ª": 11470,
  "à®¤à¯ģà®®à¯į": 10700,
  "à®¤à¯ģà®°": 6905,
  "à®¤à¯ģà®µ": 9460,
  "à®¤à¯ģà®ķà¯įà®ķà®": 9461,
  "à®¤à¯Ĩ": 7173,
  "à®¤à¯Ĩà®©": 8146,
  "à®¤à¯ĩà®ļ": 9462,
  "à®¤à¯į": 1591,
  "à®¤à¯įà®¤": 543,
  "à®¤à¯įà®¤à®¿à®©": 10021,
  "à®¤à¯įà®¤à®¿à®©à¯į": 1959,
  "à®¤à¯įà®¤à®¿à®¯": 5661,
  "à®¤à¯įà®¤à®¿à®°": 10701,
  "à®¤à¯įà®¤à®¿à®±à¯įà®ķ": 7174,
  "à®¤à¯įà®¤à®¿à®±à¯įà®ķà¯ģ": 9464,
  "à®¤à¯įà®¤à®¿à®²à®¿à®°à¯ģà®¨à¯įà®¤à¯ģ": 7784,
  "à®¤à¯įà®¤à®¿à®²à¯į": 1259,
  "à®¤à¯įà®¤à®¿à®²à¯į,": 11471,
  "à®¤à¯įà®¤à®ķà¯įà®ķ": 8972,
  "à®¤à¯įà®¤à¯ģ": 5212,
  "à®¤à¯įà®¤à¯ģà®µ": 8568,
  "à®¤à¯įà®¤à¯ģà®ķà¯įà®ķ": 6200,
  "à®¤à¯įà®¤à¯ģà®ķà¯įà®ķà¯ģ": 5662,
  "à®¤à¯įà®¤à¯Ī": 3560,
  "à®¤à¯įà®¤à¯Īà®ªà¯į": 10702,
  "à®¤à¯įà®¤à¯Īà®¯à¯ģà®®à¯į": 10703,
  "à®¤à¯įà®¤à¯Īà®ķà¯į": 9463,
  "à®¤à¯įà®¤à¯Īà®ļà¯į": 8147,
  "à®¨": 1300,
  "à®¨à®²à¯įà®²à¯Ĥà®°à¯į": 6644,
  "à®¨à®¿à®²": 6018,
  "à®¨à¯įà®¤": 766,
  "à®¨à¯įà®¤à®¿à®°": 4612,
  "à®¨à¯įà®¤à¯ģ": 6019,
  "à®¨à¯įà®¨": 6418,
  "à®©": 365,
  "à®©.": 1244,
  "à®©à®°à¯į.": 3509,
  "à®©à®¾à®²à¯į": 4832,
  "à®©à®¿": 8148,
  "à®©à®¿à®©à¯į": 7463,
  "à®©à¯ģà®Łà¯Īà®¯": 11472,
  "à®©à¯ĩ": 8973,
  "à®©à¯Ī": 5213,
  "à®©à¯Ī,": 4944,
  "à®©à¯Īà®¯": 8149,
  "à®©à¯į": 834,
  "à®©à¯į,": 6906,
  "à®©à¯įà®©": 1898,
  "à®©à¯įà®®": 3746,
  "à®©à¯įà®±": 977,
  "à®©à¯įà®±à¯ģ": 3098,
  "à®ª": 578,
  "à®ªà®©": 7175,
  "à®ªà®²": 7785,
  "à®ªà®¿à®°": 6907,
  "à®ªà¯ģ": 6645,
  "à®ªà¯ģà®¤": 11473,
  "à®ªà¯ģà®°": 2469,
  "à®ªà¯Ĩ": 3099,
  "à®ªà¯Ĩà®°à¯ģà®®à¯įà®ª": 7464,
  "à®ªà¯Ĩà®°à¯ģà®®à¯įà®ªà®¾à®²à¯ģà®®à¯į": 7465,
  "à®ªà¯Ĭ": 4526,
  "à®ªà¯Ĭ.à®Ĭ.": 8569,
  "à®ªà¯į": 1523,
  "à®ªà¯įà®ª": 1062,
  "à®ªà¯įà®ªà®¿à®°": 10704,
  "à®ªà¯įà®ªà®ķà¯ģà®¤à®¿à®¯": 9465,
  "à®ªà¯įà®ªà®Ł": 778,
  "à®ªà¯įà®ªà®Łà¯ģà®¤à¯įà®¤": 10705,
  "à®ªà¯įà®ªà®Łà¯ģà®®à¯į": 3816,
  "à®ªà¯įà®ªà®Łà¯ģà®µà®¤": 11475,
  "à®ªà¯įà®ªà®Łà¯ģà®ķà®¿à®©à¯įà®±": 7466,
  "à®ªà¯įà®ªà®Łà¯ģà®ķà®¿à®©à¯įà®±à®©.": 8570,
  "à®ªà¯įà®ªà®Łà¯ģà®ķà®¿à®±à®¤à¯ģ.": 3561,
  "à®ªà¯įà®ªà®Łà¯įà®Ł": 1083,
  "à®ªà¯įà®ªà®Łà¯įà®Łà®¤à¯ģ.": 3147,
  "à®ªà¯įà®ªà¯ģ": 11474,
  "à®®": 430,
  "à®®à®¾à®©": 1776,
  "à®®à®¾à®ķ": 2416,
  "à®®à®¾à®ķà¯ģà®®à¯į.": 4613,
  "à®®à®¿à®´": 1720,
  "à®®à®ķ": 9466,
  "à®®à¯ģ.": 6908,
  "à®®à¯ģà®®à¯į": 6909,
  "à®®à¯ģà®®à¯į,": 8974,
  "à®®à¯ĩ": 3360,
  "à®®à¯ĩà®±à¯įà®ķ": 7176,
  "à®®à¯ĩà®±à¯įà®ķà¯ĭà®³": 8150,
  "à®®à¯ĩà®±à¯įà®ķà¯ĭà®³à¯įà®ķà®³à¯į": 11476,
  "à®®à¯Īà®ªà¯įà®ª": 3398,
  "à®®à¯Īà®ªà¯įà®ªà¯ģ": 11477,
  "à®®à¯Ĭà®´": 6646,
  "à®®à¯į": 513,
  "à®®à¯į,": 1353,
  "à®®à¯į.": 6020,
  "à®®à¯į:": 9467,
  "à®®à¯įà®ª": 1557,
  "à®®à¯įà®ªà®°à®¿à®¯": 10022,
  "à®®à¯įà®®": 6419,
  "à®®à¯įà®ļ": 8975,
  "à®¯": 553,
  "à®¯à®®à¯į": 8571,
  "à®¯à®°": 2001,
  "à®¯à®°à¯į": 3877,
  "à®¯à®¾à®°à¯įà®": 10706,
  "à®¯à®¾à®´à¯įà®ªà¯įà®ªà®¾à®£": 4415,
  "à®°": 338,
  "à®°à®ªà¯įà®ª": 6910,
  "à®°à®µ": 9468,
  "à®°à®¾à®ļ": 7786,
  "à®°à®¿": 7177,
  "à®°à®¿à®©à¯į": 7467,
  "à®°à®¿à®¯": 1777,
  "à®°à®ļ": 2887,
  "à®°à¯ģ": 1189,
  "à®°à¯ģà®": 730,
  "à®°à¯ģà®¤à¯įà®¤": 10023,
  "à®°à¯ģà®ª": 10707,
  "à®°à¯ģà®®": 1960,
  "à®°à¯ģà®®à¯į": 7468,
  "à®°à¯ģà®®à¯įà®ª": 2833,
  "à®°à¯ģà®µ": 2287,
  "à®°à¯ģà®ķ": 4833,
  "à®°à¯ģà®ķà¯įà®ķ": 5355,
  "à®°à¯ģà®ķà¯įà®ķà¯ģ": 11478,
  "à®°à¯ģà®Ł": 8573,
  "à®°à¯ĩ": 6911,
  "à®°à¯Ī": 8572,
  "à®°à¯ĭ": 4011,
  "à®°à¯ĭà®ªà¯įà®ª": 8976,
  "à®°à¯į": 688,
  "à®°à¯į,": 4527,
  "à®°à¯į.": 2203,
  "à®°à¯įà®": 767,
  "à®°à¯įà®¨à¯įà®¤": 3190,
  "à®°à¯įà®¨à¯įà®¤à¯ģ": 7787,
  "à®°à¯įà®®": 6201,
  "à®°à¯įà®µ": 3878,
  "à®°à¯įà®¸à¯į": 11479,
  "à®°à¯įà®ķ": 11480,
  "à®°à¯įà®ķà®³": 1942,
  "à®°à¯įà®ķà®³à®¿à®©à¯į": 5356,
  "à®°à¯įà®ķà®³à¯į": 1652,
  "à®°à¯įà®ķà®³à¯į:": 10024,
  "à®°à¯įà®ķà¯įà®ķ": 8977,
  "à®±": 433,
  "à®±à¯ģ": 3510,
  "à®±à¯ģà®ª": 6202,
  "à®±à¯į": 10025,
  "à®±à¯įà®ª": 2288,
  "à®±à¯įà®±": 662,
  "à®±à¯įà®±à®¾à®£à¯įà®Ł": 2417,
  "à®±à¯įà®±à®¿à®¯": 3361,
  "à®±à¯įà®ķ": 1172,
  "à®±à¯įà®ķà®": 8978,
  "à®±à¯įà®ķà¯ģ": 3191,
  "à®²": 376,
  "à®²à®®à¯į": 2888,
  "à®²à®¾à®®à¯į.": 10026,
  "à®²à¯Ī": 5083,
  "à®²à¯į": 693,
  "à®²à¯į,": 3679,
  "à®²à¯įà®": 776,
  "à®²à¯įà®²": 997,
  "à®²à¯įà®²à®¤à¯ģ": 2391,
  "à®²à¯įà®²à¯Ĥà®°à¯į": 4164,
  "à®²à¯įà®µ": 3747,
  "à®²à¯įà®ķà®³": 5494,
  "à®²à¯įà®ķà®³à¯į": 2922,
  "à®³": 632,
  "à®³à®µ": 2325,
  "à®³à®µà®¿à®²à¯į": 9469,
  "à®³à®µà¯ģ": 8979,
  "à®³à®¾à®µ": 11481,
  "à®³à®¿à®µ": 11482,
  "à®³à¯įà®³": 1278,
  "à®´": 622,
  "à®´à®Ļà¯įà®ķ": 7178,
  "à®µ": 461,
  "à®µà®¤à¯ģ": 5495,
  "à®µà®°": 2145,
  "à®µà®°à®²": 6420,
  "à®µà®°à®²à®¾à®±à¯ģ": 7180,
  "à®µà®°à¯į": 5357,
  "à®µà®°à¯įà®¤à¯įà®¤": 5358,
  "à®µà®°à¯įà®ķà®³": 7469,
  "à®µà®°à¯įà®ķà®³à¯į": 10027,
  "à®µà®±à¯įà®±": 2731,
  "à®µà®¿à®¯": 6912,
  "à®µà®¿à®²": 9470,
  "à®µà®¿à®²à¯į": 7179,
  "à®µà®¿à®²à¯įà®²à¯Ī.": 10708,
  "à®µà®Ł": 8980,
  "à®µà¯Ģà®©": 7470,
  "à®µà¯ģ": 10709,
  "à®µà¯ģà®®à¯į": 7471,
  "à®µà¯Ĩà®³à®¿": 8151,
  "à®µà¯ĩ": 4416,
  "à®µà¯Ī": 3680,
  "à®µà¯Ī.": 11483,
  "à®µà¯įà®µ": 3452,
  "à®·": 7172,
  "à®¸": 2527,
  "à®¸à¯į": 3609,
  "à®¹": 5659,
  "à®¾": 306,
  "à®¾,": 4945,
  "à®¾à®": 309,
  "à®¾à®£": 953,
  "à®¾à®£à¯įà®Ł": 1642,
  "à®¾à®¤": 1227,
  "à®¾à®¤à¯įà®¤": 4417,
  "à®¾à®¤à¯įà®¤à®¿à®°": 11484,
  "à®¾à®¨à¯įà®¤": 8152,
  "à®¾à®©": 624,
  "à®¾à®©à®¿à®¯": 7473,
  "à®¾à®©à¯į": 2626,
  "à®¾à®©à¯įà®®": 11485,
  "à®¾à®©à¯įà®ķ": 6421,
  "à®¾à®ª": 2768,
  "à®¾à®ªà®¿": 10710,
  "à®¾à®ªà¯įà®ª": 6647,
  "à®¾à®®": 1961,
  "à®¾à®®à¯į": 2029,
  "à®¾à®®à¯į.": 7181,
  "à®¾à®®à¯įà®ª": 8981,
  "à®¾à®¯": 1171,
  "à®¾à®¯à¯į": 4165,
  "à®¾à®°": 679,
  "à®¾à®°à®£": 6422,
  "à®¾à®°à®®à¯į": 8153,
  "à®¾à®°à¯į": 1653,
  "à®¾à®°à¯į.": 3100,
  "à®¾à®°à¯įà®": 1451,
  "à®¾à®°à¯įà®ķà®³à¯į": 3192,
  "à®¾à®°à¯įà®ķà®³à¯į.": 3952,
  "à®¾à®±": 1279,
  "à®¾à®±à¯ģ": 2769,
  "à®¾à®±à¯įà®±": 2083,
  "à®¾à®²": 649,
  "à®¾à®²à®¤à¯įà®¤à®¿à®²à¯į": 4835,
  "à®¾à®²à®¾à®©": 8982,
  "à®¾à®²à¯ģà®®à¯į": 3276,
  "à®¾à®²à¯ģà®®à¯į,": 5496,
  "à®¾à®²à¯Ī": 10029,
  "à®¾à®²à¯į": 1213,
  "à®¾à®²à¯į,": 6423,
  "à®¾à®³": 1364,
  "à®¾à®³à®°à¯įà®ķà®³": 8154,
  "à®¾à®³à®°à¯įà®ķà®³à¯į": 6913,
  "à®¾à®³à¯į": 5663,
  "à®¾à®´": 1592,
  "à®¾à®´à¯įà®ªà¯įà®ª": 2326,
  "à®¾à®´à¯įà®ªà¯įà®ªà®¾à®£": 2327,
  "à®¾à®µ": 981,
  "à®¾à®µà®¤à¯ģ": 4261,
  "à®¾à®µà®¿à®©à¯į": 3953,
  "à®¾à®µà®¿à®²à¯į": 3817,
  "à®¾à®µà®¿à®Ł": 7788,
  "à®¾à®µà®Łà¯įà®Ł": 4418,
  "à®¾à®¸à¯į": 7472,
  "à®¾à®¸à¯įà®¤": 6021,
  "à®¾à®¸à¯įà®¤à®¿à®°": 10030,
  "à®¾à®¸à¯įà®¤à¯ģ": 10711,
  "à®¾à®ķ": 680,
  "à®¾à®ķ,": 6648,
  "à®¾à®ķà®": 942,
  "à®¾à®ķà®¤à¯į": 5497,
  "à®¾à®ķà®©": 10712,
  "à®¾à®ķà®ªà¯į": 4166,
  "à®¾à®ķà®°": 4836,
  "à®¾à®ķà®µ": 2558,
  "à®¾à®ķà®µà¯ģà®®à¯į": 4946,
  "à®¾à®ķà®µà¯ģà®®à¯į,": 8574,
  "à®¾à®ķà®µà¯ĩ": 7474,
  "à®¾à®ķà®ķà¯į": 2680,
  "à®¾à®ķà®ļà¯į": 7182,
  "à®¾à®ķà¯ģà®®à¯į.": 1452,
  "à®¾à®ķà¯įà®ķ": 3020,
  "à®¾à®ķà¯įà®ķà®": 5359,
  "à®¾à®ķà¯įà®ķà®ªà¯įà®ªà®Łà¯įà®Ł": 10028,
  "à®¾à®Ļà¯įà®ķ": 5084,
  "à®¾à®Ļà¯įà®ķà¯ģà®´": 8983,
  "à®¾à®ļ": 1501,
  "à®¾à®ļà¯įà®ļà®¾à®°": 6649,
  "à®¾à®ľ": 4834,
  "à®¾à®Ł": 866,
  "à®¾à®Łà®ķ": 5085,
  "à®¾à®Łà¯ģ": 5832,
  "à®¾à®Łà¯ģà®ķà®³": 8155,
  "à®¾à®Łà¯ģà®ķà®³à¯į": 5498,
  "à®¾à®Łà¯įà®Ł": 1286,
  "à®¾à®Łà¯įà®Łà¯ģ": 3681,
  "à®¿": 280,
  "à®¿,": 2128,
  "à®¿.": 2436,
  "à®¿à®": 282,
  "à®¿à®£": 5664,
  "à®¿à®¤": 946,
  "à®¿à®¤à¯į": 6022,
  "à®¿à®¤à¯įà®¤": 1564,
  "à®¿à®¤à¯įà®¤à¯ģ": 10031,
  "à®¿à®¤à¯įà®¤à¯ģà®µ": 6204,
  "à®¿à®¨": 6203,
  "à®¿à®¨à¯įà®¤": 2967,
  "à®¿à®¨à¯įà®¤à®¿à®¯": 7183,
  "à®¿à®©": 468,
  "à®¿à®©.": 8984,
  "à®¿à®©à®¾à®°à¯į.": 9471,
  "à®¿à®©à®¾à®²à¯į": 4012,
  "à®¿à®©à¯ģà®®à¯į": 8157,
  "à®¿à®©à¯ģà®®à¯į,": 6205,
  "à®¿à®©à¯į": 633,
  "à®¿à®©à¯į,": 9472,
  "à®¿à®©à¯įà®©": 2681,
  "à®¿à®©à¯įà®±": 1391,
  "à®¿à®©à¯įà®±à®¤à¯ģ.": 10032,
  "à®¿à®©à¯įà®±à®©.": 6424,
  "à®¿à®ª": 3059,
  "à®¿à®ªà¯į": 5499,
  "à®¿à®ªà¯įà®ª": 1292,
  "à®¿à®ªà¯įà®ªà®Ł": 3021,
  "à®¿à®ªà¯įà®ªà¯ģ": 6206,
  "à®¿à®®": 1609,
  "à®¿à®®à¯Ģ": 10714,
  "à®¿à®®à¯ģ": 4338,
  "à®¿à®®à¯ģà®ķà®": 10033,
  "à®¿à®¯": 384,
  "à®¿à®¯à®¤": 6650,
  "à®¿à®¯à®¤à¯ģ.": 8985,
  "à®¿à®¯à®©à¯į": 5086,
  "à®¿à®¯à®®à¯į": 4947,
  "à®¿à®¯à®°à®ļ": 7475,
  "à®¿à®¯à®°à¯į": 10034,
  "à®¿à®¯à®²": 3399,
  "à®¿à®¯à®²à¯į": 1301,
  "à®¿à®¯à®²à¯į,": 5501,
  "à®¿à®¯à®¾": 2770,
  "à®¿à®¯à®¾,": 8158,
  "à®¿à®¯à®¾à®µà®¿à®²à¯į": 10715,
  "à®¿à®¯à®¾à®ķ": 5665,
  "à®¿à®¯à®¿à®©à¯į": 4837,
  "à®¿à®¯à®¿à®¯à®²à¯į": 3321,
  "à®¿à®¯à®¿à®²à¯į": 7184,
  "à®¿à®¯à®ķà¯į": 3453,
  "à®¿à®¯à¯ģà®¯": 11486,
  "à®¿à®¯à¯Ĥ": 4614,
  "à®¿à®¯à¯ĩ": 4083,
  "à®¿à®¯à¯ĩà®±à¯įà®±": 10035,
  "à®¿à®°": 557,
  "à®¿à®°à¯ģà®": 1248,
  "à®¿à®°à¯ģà®¤": 3322,
  "à®¿à®°à¯ģà®¨à¯įà®¤": 3454,
  "à®¿à®°à¯ģà®ªà¯įà®ª": 8986,
  "à®¿à®°à¯ģà®ķà¯įà®ķ": 3400,
  "à®¿à®°à¯ģà®ķà¯įà®ķà¯ģà®®à¯į": 8159,
  "à®¿à®°à¯ģà®ķà¯įà®ķà¯ģà®®à¯į.": 10716,
  "à®¿à®±": 750,
  "à®¿à®±à®¤à¯ģ.": 1654,
  "à®¿à®±à¯įà®ķ": 4084,
  "à®¿à®²": 413,
  "à®¿à®²à®¾à®©": 9473,
  "à®¿à®²à®¿à®°à¯ģà®": 2232,
  "à®¿à®²à®¿à®°à¯ģà®¨à¯įà®¤": 6914,
  "à®¿à®²à®¿à®°à¯ģà®¨à¯įà®¤à¯ģ": 2708,
  "à®¿à®²à¯ģà®®à¯į": 2707,
  "à®¿à®²à¯ģà®®à¯į,": 4528,
  "à®¿à®²à¯ģà®³à¯įà®³": 3511,
  "à®¿à®²à¯ĩ": 10036,
  "à®¿à®²à¯ĩà®¯à¯ĩ": 5834,
  "à®¿à®²à¯į": 527,
  "à®¿à®²à¯į,": 2627,
  "à®¿à®²à¯įà®²": 2866,
  "à®¿à®²à¯įà®²à¯Ī.": 6915,
  "à®¿à®³": 3193,
  "à®¿à®´": 1354,
  "à®¿à®´à®ķà¯įà®ķ": 4167,
  "à®¿à®µ": 967,
  "à®¿à®µà¯ģ": 6916,
  "à®¿à®¸": 5833,
  "à®¿à®¸à¯įà®²": 11487,
  "à®¿à®ķ": 2030,
  "à®¿à®ķà®": 1404,
  "à®¿à®ķà®°": 6425,
  "à®¿à®ķà®³": 1411,
  "à®¿à®ķà®³à®¿à®©à¯į": 10037,
  "à®¿à®ķà®³à¯Ī": 5502,
  "à®¿à®ķà®³à¯Īà®ķà¯į": 8160,
  "à®¿à®ķà®³à¯į": 1818,
  "à®¿à®ķà®³à¯į,": 10038,
  "à®¿à®ķà®´": 4085,
  "à®¿à®ķà¯į": 1943,
  "à®¿à®ķà¯įà®ķ": 1332,
  "à®¿à®ķà¯įà®ķà®": 3682,
  "à®¿à®ķà¯įà®ķà®ªà¯įà®ªà®Ł": 5500,
  "à®¿à®ķà¯įà®ķà®ªà¯įà®ªà®Łà¯įà®Ł": 3101,
  "à®¿à®ķà¯įà®ķà®ªà¯įà®ªà®Łà¯įà®Łà®¤à¯ģ.": 11488,
  "à®¿à®ķà¯įà®ķà¯ģ": 10717,
  "à®¿à®ķà¯įà®ķà¯ģà®®à¯į": 6426,
  "à®¿à®Ļà¯įà®ķ": 10713,
  "à®¿à®ļ": 1984,
  "à®¿à®ļà¯į": 8156,
  "à®¿à®ļà¯įà®ļ": 9474,
  "à®¿à®Ł": 697,
  "à®¿à®Łà®ªà¯įà®ªà®Łà¯įà®Ł": 6207,
  "à®¿à®Łà®ªà¯įà®ªà®Łà¯įà®Łà®¤à¯ģ.": 11489,
  "à®¿à®Łà®®à¯į": 6208,
  "à®¿à®Łà¯Īà®¯à¯ĩ": 9475,
  "à®¿à®Łà¯įà®Ł": 2117,
  "à®ħ": 2082,
  "à®Ĩ": 2625,
  "à®Ĩà®®à¯į": 4721,
  "à®ĩ": 1311,
  "à®ĩà®¤à¯ģ": 10718,
  "à®ĩà®¨à¯įà®¤": 4168,
  "à®ĩà®²": 8161,
  "à®ĩà®²à¯į": 10719,
  "à®ĩà®µà®±à¯įà®±": 9476,
  "à®ĩà®µà®±à¯įà®±à¯Īà®¯à¯ģà®®à¯į": 11490,
  "à®ĩà®ļ": 10039,
  "à®ī": 3097,
  "à®Ĭ": 3875,
  "à®İ": 3876,
  "à®Ĳ": 6417,
  "à®Ĳà®ķà¯įà®ķà®¿à®¯": 7789,
  "à®Ĵ": 6017,
  "à®ķ": 502,
  "à®ķà®": 685,
  "à®ķà®£": 6651,
  "à®ķà®¤à¯įà®¤": 3819,
  "à®ķà®¤à¯įà®¤à®¿à®²à¯į": 11492,
  "à®ķà®©": 9478,
  "à®ķà®ªà¯į": 10720,
  "à®ķà®®": 5836,
  "à®ķà®®à¯į": 2600,
  "à®ķà®®à¯į,": 10041,
  "à®ķà®°": 1231,
  "à®ķà®°à¯įà®¤à¯įà®¤": 8575,
  "à®ķà®±": 10721,
  "à®ķà®²": 6428,
  "à®ķà®³": 6904,
  "à®ķà®µ": 6917,
  "à®ķà®¾à®²": 6023,
  "à®ķà®¿à®®à¯ģ": 5835,
  "à®ķà®¿à®°": 9477,
  "à®ķà®ķà¯į": 6918,
  "à®ķà®Ļà¯įà®ķà®³": 8162,
  "à®ķà®Ł": 10040,
  "à®ķà®Łà¯įà®Ł": 8163,
  "à®ķà®Łà¯įà®Łà®¿à®Ł": 5666,
  "à®ķà®Łà¯įà®Łà®¿à®Łà®ķà¯įà®ķà®²à¯Ī": 10042,
  "à®ķà¯ģà®¤": 1514,
  "à®ķà¯ģà®¤à®¿": 10722,
  "à®ķà¯ģà®¤à®¿à®¯": 2369,
  "à®ķà¯ģà®±": 11491,
  "à®ķà¯Ī": 6427,
  "à®ķà¯ĭ": 3818,
  "à®ķà¯ĭà®²": 8576,
  "à®ķà¯į": 1178,
  "à®ķà¯įà®": 1854,
  "à®ķà¯įà®¸à¯į": 11493,
  "à®ķà¯įà®ķ": 808,
  "à®ķà¯įà®ķà®": 838,
  "à®ķà¯įà®ķà®£": 6652,
  "à®ķà¯įà®ķà®¤à¯įà®¤": 4948,
  "à®ķà¯įà®ķà®®": 8577,
  "à®ķà¯įà®ķà®®à¯į": 4339,
  "à®ķà¯įà®ķà®°": 3954,
  "à®ķà¯įà®ķà®°à®µà®°à¯įà®¤à¯įà®¤": 5503,
  "à®ķà¯įà®ķà®²": 1534,
  "à®ķà¯įà®ķà®²à¯Ī": 2218,
  "à®ķà¯įà®ķà®³": 9479,
  "à®ķà¯įà®ķà®µ": 8987,
  "à®ķà¯įà®ķà®¿à®¯": 1944,
  "à®ķà¯įà®ķà¯ģ": 11494,
  "à®ķà¯įà®ķà¯Ĥà®Łà®¿à®¯": 7185,
  "à®ķà¯įà®ķà¯ĭ": 5087,
  "à®ķà¯įà®ļ": 9480,
  "à®Ļà¯įà®": 556,
  "à®Ļà¯įà®ķ": 898,
  "à®Ļà¯įà®ķà®": 2204,
  "à®Ļà¯įà®ķà®®à¯į": 5088,
  "à®Ļà¯įà®ķà®°": 10044,
  "à®Ļà¯įà®ķà®³": 1044,
  "à®Ļà¯įà®ķà®³à®¿à®©à¯į": 9481,
  "à®Ļà¯įà®ķà®³à®¿à®²à¯į": 3060,
  "à®Ļà¯įà®ķà®³à¯ģà®®à¯į": 11495,
  "à®Ļà¯įà®ķà®³à¯Ī": 5837,
  "à®Ļà¯įà®ķà®³à¯Īà®¯à¯ģà®®à¯į": 9482,
  "à®Ļà¯įà®ķà®³à¯į": 1232,
  "à®Ļà¯įà®ķà®³à¯į,": 5362,
  "à®Ļà¯įà®ķà®¾à®°": 10043,
  "à®Ļà¯įà®ķà®¿à®¯": 4013,
  "à®Ļà¯įà®ķà®¿à®²": 5360,
  "à®Ļà¯įà®ķà¯ģ": 5361,
  "à®ļ": 568,
  "à®ļà®®": 10723,
  "à®ļà®¿à®¯": 8164,
  "à®ļà¯Ģ": 8578,
  "à®ļà¯ģ": 8165,
  "à®ļà¯ģà®ķ": 10045,
  "à®ļà¯ģà®ķà®¿à®°à¯ģà®¤": 11496,
  "à®ļà¯Ĩ": 10724,
  "à®ļà¯Ĭ": 8988,
  "à®ļà¯į": 4419,
  "à®ļà¯įà®ļ": 3323,
  "à®ľ": 3814,
  "à®ŀà¯įà®ļ": 3678,
  "à®ŀà¯įà®ļà®²": 8579,
  "à®Ł": 361,
  "à®Łà®¿": 10046,
  "à®Łà®¿à®¯": 2418,
  "à®Łà¯ģà®ª": 7790,
  "à®Łà¯Ī": 9483,
  "à®Łà¯įà®ª": 9484,
  "à®Łà¯įà®°": 10047,
  "à®Łà¯įà®ļ": 8989,
  "à®Łà¯įà®Ł": 843,
  "à®Łà¯įà®Łà®°à¯į": 6024,
  "à®Łà¯įà®Łà®¿": 11497,
  "à®Łà¯įà®Łà¯ģ": 6209,
  "à¯": 263,
  "à¯Ģ": 713,
  "à¯Ģà®¤": 9485,
  "à¯Ģà®©": 3194,
  "à¯Ģà®©à¯į": 8990,
  "à¯Ģà®°": 2392,
  "à¯Ģà®´": 3879,
  "à¯Ģà®ļ": 4838,
  "à¯Ģà®Ł": 4340,
  "à¯ģ": 278,
  "à¯ģ,": 1729,
  "à¯ģ.": 2289,
  "à¯ģà®": 292,
  "à¯ģà®£": 2732,
  "à¯ģà®£à¯įà®Ł": 7186,
  "à¯ģà®£à¯įà®Łà¯ģ.": 11498,
  "à¯ģà®¤": 539,
  "à¯ģà®¤à®²": 6654,
  "à¯ģà®¤à®²à¯į": 11499,
  "à¯ģà®¤à®¿à®¯": 4170,
  "à¯ģà®¤à¯į": 4171,
  "à¯ģà®¤à¯įà®¤": 924,
  "à¯ģà®¤à¯įà®¤à¯ģ": 5214,
  "à¯ģà®¨": 4420,
  "à¯ģà®¨à®¾à®Łà®ķ": 6430,
  "à¯ģà®¨à¯įà®¤": 6653,
  "à¯ģà®©": 4421,
  "à¯ģà®©à¯įà®©": 5838,
  "à¯ģà®©à¯įà®©à®¿": 7477,
  "à¯ģà®ª": 1643,
  "à¯ģà®ªà®¿à®Ł": 10048,
  "à¯ģà®ªà¯ĭà®ķà¯įà®ķ": 8166,
  "à¯ģà®ªà¯į": 2437,
  "à¯ģà®ªà¯įà®ª": 1678,
  "à¯ģà®®": 1115,
  "à¯ģà®®à®¾à®©": 5089,
  "à¯ģà®®à¯ĩ": 6655,
  "à¯ģà®®à¯į": 416,
  "à¯ģà®®à¯į,": 955,
  "à¯ģà®®à¯į.": 958,
  "à¯ģà®®à¯įà®ª": 3684,
  "à¯ģà®¯": 5839,
  "à¯ģà®°": 1150,
  "à¯ģà®°à®¿à®¯": 10049,
  "à¯ģà®±": 855,
  "à¯ģà®±à¯Ī": 8580,
  "à¯ģà®±à¯įà®±": 4722,
  "à¯ģà®²": 2062,
  "à¯ģà®³": 822,
  "à¯ģà®³à¯į": 3820,
  "à¯ģà®³à¯įà®³": 930,
  "à¯ģà®³à¯įà®³à®¤à¯ģ.": 2370,
  "à¯ģà®³à¯įà®³à®©.": 3821,
  "à¯ģà®´": 3610,
  "à¯ģà®µ": 644,
  "à¯ģà®µà®¤": 2183,
  "à¯ģà®µà®¤à®±à¯įà®ķ": 7792,
  "à¯ģà®µà®¤à¯ģ": 5840,
  "à¯ģà®µà®°": 3512,
  "à¯ģà®µà®°à®¤à¯įà®¤à¯ģ": 9486,
  "à¯ģà®µà®°à¯į.": 11500,
  "à¯ģà®µà®²": 8991,
  "à¯ģà®µà®¿à®¯": 10726,
  "à¯ģà®ķ": 963,
  "à¯ģà®ķà®": 3748,
  "à¯ģà®ķà®³": 1183,
  "à¯ģà®ķà®³à®¿à®©à¯į": 11501,
  "à¯ģà®ķà®³à®¿à®²à¯į": 8992,
  "à¯ģà®ķà®³à¯ģà®®à¯į": 10050,
  "à¯ģà®ķà®³à¯Ī": 6210,
  "à¯ģà®ķà®³à¯į": 1283,
  "à¯ģà®ķà®³à¯į,": 6025,
  "à¯ģà®ķà®´": 8167,
  "à¯ģà®ķà®¿à®©à¯įà®±": 1925,
  "à¯ģà®ķà®¿à®©à¯įà®±à®©.": 3195,
  "à¯ģà®ķà®¿à®©à¯įà®±à®©à®°à¯į.": 10051,
  "à¯ģà®ķà®¿à®±": 5090,
  "à¯ģà®ķà®¿à®±à®¤à¯ģ.": 2146,
  "à¯ģà®ķà¯į": 2438,
  "à¯ģà®ķà¯įà®": 3683,
  "à¯ģà®ķà¯įà®ķ": 799,
  "à¯ģà®ķà¯įà®ķà®": 4169,
  "à¯ģà®ķà¯įà®ķà®ªà¯įà®ªà®Łà¯įà®Ł": 10725,
  "à¯ģà®ķà¯įà®ķà®³": 6431,
  "à¯ģà®ķà¯įà®ķà®³à¯į": 6919,
  "à¯ģà®ķà¯įà®ķà®¾à®©": 8581,
  "à¯ģà®ķà¯įà®ķà®¿à®¯": 3749,
  "à¯ģà®ķà¯įà®ķà¯ģ": 1655,
  "à¯ģà®ķà¯įà®ķà¯ģà®ªà¯į": 10052,
  "à¯ģà®ķà¯įà®ķà¯ģà®®à¯į": 4839,
  "à¯ģà®Ļà¯įà®ķ": 3148,
  "à¯ģà®Ļà¯įà®ķà¯ģ": 5504,
  "à¯ģà®ļ": 7476,
  "à¯ģà®ļà¯į": 4615,
  "à¯ģà®ļà¯įà®ļ": 7791,
  "à¯ģà®Ł": 1000,
  "à¯ģà®Łà®©": 10727,
  "à¯ģà®Łà®©à¯į": 3061,
  "à¯ģà®Łà®©à¯į,": 9487,
  "à¯ģà®Łà¯Īà®¯": 3880,
  "à¯ģà®Łà¯įà®ª": 6920,
  "à¯Ĥ": 613,
  "à¯Ĥà®°": 3401,
  "à¯Ĥà®°à¯į": 2867,
  "à¯Ĥà®°à¯įà®¤à¯įà®¤": 11502,
  "à¯Ĥà®°à¯įà®µ": 10053,
  "à¯Ĥà®Ł": 5667,
  "à¯Ĥà®Łà®¿à®¯": 5363,
  "à¯Ĥà®Łà¯įà®Ł": 9488,
  "à¯Ĩ": 459,
  "à¯Ĩà®©": 3238,
  "à¯Ĩà®©à¯įà®±": 10054,
  "à¯Ĩà®¯": 4723,
  "à¯Ĩà®°": 3324,
  "à¯Ĩà®°à¯į": 11503,
  "à¯Ĩà®±": 7793,
  "à¯Ĩà®±à¯įà®±": 5505,
  "à¯Ĩà®³": 2011,
  "à¯Ĩà®³à®¿": 4529,
  "à¯Ĩà®´": 8582,
  "à¯Ĩà®¸": 11504,
  "à¯Ĩà®Ł": 4724,
  "à¯Ĩà®Łà¯ģà®ªà¯įà®ª": 10728,
  "à¯ĩ": 466,
  "à¯ĩà®®": 9489,
  "à¯ĩà®¯": 2889,
  "à¯ĩà®¯à¯ĩ": 4530,
  "à¯ĩà®°": 1945,
  "à¯ĩà®°à®³": 11505,
  "à¯ĩà®±à¯ģ": 5841,
  "à¯ĩà®µ": 3685,
  "à¯ĩà®ļ": 1855,
  "à¯ĩà®Ł": 7794,
  "à¯Ī": 337,
  "à¯Ī,": 2031,
  "à¯Ī.": 4949,
  "à¯Īà®": 368,
  "à¯Īà®¤à¯į": 2800,
  "à¯Īà®¤à¯įà®¤": 2393,
  "à¯Īà®¤à¯įà®¤à¯ģ": 9490,
  "à¯Īà®¨à®ķà®°": 4840,
  "à¯Īà®¨à¯įà®¤": 2032,
  "à¯Īà®¨à¯įà®¤à¯ģ": 8993,
  "à¯Īà®ª": 4172,
  "à¯Īà®ªà¯į": 1628,
  "à¯Īà®ªà¯įà®ª": 1233,
  "à¯Īà®ªà¯įà®ªà®Ł": 4341,
  "à¯Īà®®": 3196,
  "à¯Īà®¯": 523,
  "à¯Īà®¯à®¾à®©": 3102,
  "à¯Īà®¯à®¾à®³": 4087,
  "à¯Īà®¯à®¾à®ķ": 6921,
  "à¯Īà®¯à®¾à®ķà®ķà¯į": 10055,
  "à¯Īà®¯à®¾à®ķà¯ģà®®à¯į.": 10729,
  "à¯Īà®¯à®¿à®©": 11508,
  "à¯Īà®¯à®¿à®©à¯į": 3362,
  "à¯Īà®¯à®¿à®²à¯į": 1827,
  "à¯Īà®¯à®¿à®²à¯į,": 7187,
  "à¯Īà®¯à¯ģà®®à¯į": 1869,
  "à¯Īà®¯à¯ģà®®à¯į,": 3363,
  "à¯Īà®¯à¯ĩ": 4342,
  "à¯Īà®¯à¯Ī": 5842,
  "à¯Īà®²à¯į": 11506,
  "à¯Īà®µ": 1856,
  "à¯Īà®ķ": 6656,
  "à¯Īà®ķà®³": 1692,
  "à¯Īà®ķà®³à®¿à®²à¯į": 7478,
  "à¯Īà®ķà®³à¯Ī": 9491,
  "à¯Īà®ķà®³à¯į": 2158,
  "à¯Īà®ķà®³à¯į,": 8168,
  "à¯Īà®ķà¯į": 1234,
  "à¯Īà®ķà¯įà®ķ": 2267,
  "à¯Īà®ķà¯įà®ķà®": 3822,
  "à¯Īà®ķà¯įà®ķà®ªà¯įà®ªà®Łà¯įà®Ł": 4950,
  "à¯Īà®ķà¯įà®ķà®°à¯ģà®µ": 8994,
  "à¯Īà®ķà¯įà®ķà¯ģ": 7479,
  "à¯Īà®ļ": 6026,
  "à¯Īà®ļà¯į": 2890,
  "à¯Īà®ļà¯įà®ļ": 11507,
  "à¯Īà®ŀ": 4086,
  "à¯Ĭ": 467,
  "à¯Ĭà®£à¯įà®Ł": 5843,
  "à¯Ĭà®¤à¯įà®¤": 8995,
  "à¯Ĭà®©à¯įà®±": 5668,
  "à¯Ĭà®©à¯įà®±à¯ģ": 8583,
  "à¯Ĭà®°à¯ģ": 5669,
  "à¯Ĭà®°à¯ģà®": 5091,
  "à¯Ĭà®°à¯ģà®³": 7796,
  "à¯Ĭà®°à¯ģà®Ł": 10730,
  "à¯Ĭà®²": 6922,
  "à¯Ĭà®³à¯įà®³": 7795,
  "à¯Ĭà®´": 1125,
  "à¯Ĭà®´à¯ģà®¤": 5364,
  "à¯Ĭà®´à¯ģà®¤à¯ģà®ªà¯ĭà®ķà¯įà®ķ": 8170,
  "à¯Ĭà®Ļà¯įà®ķ": 8169,
  "à¯Ĭà®Ł": 6657,
  "à¯ĭ": 499,
  "à¯ĭ,": 7797,
  "à¯ĭà®¤": 7480,
  "à¯ĭà®¤à¯ģ": 5365,
  "à¯ĭà®¤à¯ģ,": 8996,
  "à¯ĭà®©": 6211,
  "à¯ĭà®©à¯į": 10056,
  "à¯ĭà®ª": 5092,
  "à¯ĭà®ªà®°à¯į": 11510,
  "à¯ĭà®°": 4841,
  "à¯ĭà®°à¯į": 9492,
  "à¯ĭà®²": 5844,
  "à¯ĭà®³": 5215,
  "à¯ĭà®ķà¯įà®ķ": 4422,
  "à¯ĭà®ļ": 11509,
  "à¯ĭà®Ł": 5366,
  "à¯ĭà®Łà¯ģ": 10057,
  "à¯Į": 6429,
  "à¯į": 266,
  "à¯į,": 3455,
  "à¯įà®": 270,
  "à¯įà®£": 3103,
  "à¯įà®¤": 350,
  "à¯įà®¤à®²": 6923,
  "à¯įà®¤à¯įà®¤": 1730,
  "à¯įà®¨": 2648,
  "à¯įà®¨à¯ģà®Łà¯įà®ª": 8584,
  "à¯įà®¨à¯įà®¤": 5093,
  "à¯įà®©": 940,
  "à¯įà®ª": 354,
  "à¯įà®ªà®Ł": 1828,
  "à¯įà®ªà¯į": 10732,
  "à¯įà®ªà¯įà®ª": 1703,
  "à¯įà®®": 1264,
  "à¯įà®¯": 3277,
  "à¯įà®°": 2576,
  "à¯įà®±": 437,
  "à¯įà®²": 1679,
  "à¯įà®²à®¾à®Ļà¯įà®ķà¯ģà®´": 8997,
  "à¯įà®³": 711,
  "à¯įà®µ": 956,
  "à¯įà®¸": 5506,
  "à¯įà®¸à¯į": 4531,
  "à¯įà®¹": 10731,
  "à¯įà®ķ": 869,
  "à¯įà®ķà®": 3456,
  "à¯įà®ķà®²": 10733,
  "à¯įà®ķà®³": 2305,
  "à¯įà®ķà®³à®¿à®©à¯į": 7798,
  "à¯įà®ķà®³à®¿à®²à¯į": 10734,
  "à¯įà®ķà®³à¯į": 2439,
  "à¯įà®ķà®¾à®²": 8998,
  "à¯įà®ļ": 684,
  "à¯įà®ļà®¾à®°": 6212,
  "à¯įà®ļà®¿": 5670,
  "à¯įà®ļà®¿à®¯": 2290,
  "à¯įà®ļà¯įà®ļ": 3104,
  "à¯įà®ļà¯įà®ļà®¿": 6027,
  "à¯įà®ļà¯įà®ļà®¿à®¯": 6658,
  "à¯įà®Ł": 375,
  "à¯įà®Łà¯į": 5094,
  "à¯įà®Łà¯įà®°": 10735,
  "à¯įà®Łà¯įà®¸à¯į": 9493,
  "á": 229,
  "á¼": 8999,
  "â": 230,
  "âĢ": 410,
  "âĢ¢": 1039,
  "âĢ¦": 3513,
  "âĢ¦]": 9495,
  "âĢĮ": 9494,
  "âĢĵ": 2371,
  "âĢĶ": 4423,
  "âĢĻ": 686,
  "âĢĻre": 6659,
  "âĢĻs": 1008,
  "âĢĻt": 2733,
  "âĢľ": 3325,
  "âĢĿ": 1373,
  "âĢĿ.": 11511,
  "âĤ¬": 5216,
  "âĭ": 6213,
  "âĭĬ": 6215,
  "âĭĬS": 6216,
  "âĭĬS3": 9496,
  "âĶ": 6214,
  "âĶĢ": 8585,
  "ã": 231,
  "ãĢĤ": 7799,
  "ä": 232,
  "ä¸": 5671,
  "ä¹": 11512,
  "ä»": 4424,
  "ä»¥": 9001,
  "ä½": 9000,
  "å": 233,
  "å®": 11513,
  "åĩ": 10736,
  "åı": 6028,
  "åı¯": 10737,
  "åı¯ä»¥": 11515,
  "åĴ": 11514,
  "åĴĮ": 11516,
  "åŃ": 7800,
  "åŃ¦": 8586,
  "æ": 234,
  "æĤ": 7801,
  "æĤ¨": 7803,
  "æĸ": 7802,
  "æĸĩ": 10058,
  "æľ": 6924,
  "ç": 235,
  "ç»": 9497,
  "çī": 11517,
  "çļ": 4725,
  "çļĦ": 4726,
  "è": 236,
  "è®": 9498,
  "é": 237,
  "ê": 238,
  "ë": 239,
  "ì": 240,
  "í": 241,
  "î": 242,
  "ï": 243,
  "ï¼": 6029,
  "ï¼Į": 6925,
  "ð": 244,
  "ðŁ": 5845,
  "ðŁĶ": 8171,
  "ðŁĶ¹": 10738,
  "ñ": 245,
  "ò": 246,
  "ó": 247,
  "ô": 248,
  "õ": 249,
  "ö": 250,
  "÷": 251,
  "ø": 252,
  "ù": 253,
  "ú": 254,
  "û": 255,
  "ü": 256,
  "ý": 257,
  "þ": 258,
  "ÿ": 259,
  "Ā": 4,
  "ā": 5,
  "Ă": 6,
  "ă": 7,
  "Ą": 8,
  "ą": 9,
  "Ć": 10,
  "ć": 11,
  "Ĉ": 12,
  "ĉ": 13,
  "Ċ": 14,
  "ĊĊ": 314,
  "ċ": 15,
  "Č": 16,
  "č": 17,
  "Ď": 18,
  "ď": 19,
  "Đ": 20,
  "đ": 21,
  "Ē": 22,
  "ē": 23,
  "Ĕ": 24,
  "ĕ": 25,
  "Ė": 26,
  "ė": 27,
  "Ę": 28,
  "ę": 29,
  "Ě": 30,
  "ě": 31,
  "Ĝ": 32,
  "ĝ": 33,
  "Ğ": 34,
  "ğ": 35,
  "Ġ": 36,
  "Ġ!": 6660,
  "Ġ!=": 8592,
  "Ġ\"": 606,
  "Ġ\"\"\"": 9002,
  "Ġ\"C": 10741,
  "Ġ\"S": 10060,
  "Ġ\"We": 10742,
  "Ġ\"c": 11521,
  "Ġ\"s": 11522,
  "Ġ#": 2484,
  "Ġ$": 436,
  "Ġ$$": 1126,
  "Ġ$$F": 10063,
  "Ġ$$\\": 3240,
  "Ġ$$\\frac{": 11526,
  "Ġ$$f": 11527,
  "Ġ$(": 4952,
  "Ġ$1": 6218,
  "Ġ$2": 5217,
  "Ġ$A": 7804,
  "Ġ$C": 9502,
  "Ġ$E": 11523,
  "Ġ$G": 6432,
  "Ġ$G$": 9505,
  "Ġ$H": 9503,
  "Ġ$M": 10743,
  "Ġ$O": 7805,
  "Ġ$O(n": 10064,
  "Ġ$P": 7806,
  "Ġ$R": 5218,
  "Ġ$RD_{": 11528,
  "Ġ$S": 7188,
  "Ġ$V": 7189,
  "Ġ$X": 4842,
  "Ġ$X$": 8172,
  "Ġ$\\": 1012,
  "Ġ$\\angle": 11529,
  "Ġ$\\frac{": 8173,
  "Ġ$\\pm": 10065,
  "Ġ$\\sigma": 8594,
  "Ġ$a": 5367,
  "Ġ$f": 4088,
  "Ġ$f_n": 11530,
  "Ġ$i": 8593,
  "Ġ$k": 7190,
  "Ġ$n": 3881,
  "Ġ$n$": 11531,
  "Ġ$p": 3823,
  "Ġ$p$": 8174,
  "Ġ$q": 10744,
  "Ġ$s": 11524,
  "Ġ$t": 9504,
  "Ġ$x": 5508,
  "Ġ$y": 10061,
  "Ġ$z": 11525,
  "Ġ${": 3612,
  "Ġ${\\": 10062,
  "Ġ%": 1570,
  "Ġ%s\"": 7807,
  "Ġ&": 1734,
  "Ġ&=": 5219,
  "Ġ'": 831,
  "Ġ'11": 9004,
  "Ġ'12": 6219,
  "Ġ'15": 10745,
  "Ġ(": 356,
  "Ġ(\"": 3750,
  "Ġ(\"a\",": 10756,
  "Ġ(\"b\",": 8597,
  "Ġ('": 2868,
  "Ġ('b',": 6931,
  "Ġ()": 6927,
  "Ġ(0,": 7481,
  "Ġ(1": 1629,
  "Ġ(1,": 10066,
  "Ġ(18": 10068,
  "Ġ(19": 10757,
  "Ġ(199": 9509,
  "Ġ(2": 2372,
  "Ġ(2,": 10746,
  "Ġ(200": 5098,
  "Ġ(201": 5676,
  "Ġ(3,": 9506,
  "Ġ(4": 10747,
  "Ġ(A": 3364,
  "Ġ(B": 6032,
  "Ġ(C": 3326,
  "Ġ(D": 8595,
  "Ġ(E": 4344,
  "Ġ(EST)": 11536,
  "Ġ(F": 5674,
  "Ġ(G": 6928,
  "Ġ(H": 7808,
  "Ġ(I": 5846,
  "Ġ(J": 7809,
  "Ġ(K": 11532,
  "Ġ(L": 7482,
  "Ġ(M": 4616,
  "Ġ(N": 7191,
  "Ġ(P": 4345,
  "Ġ(R": 6929,
  "Ġ(S": 3613,
  "Ġ(T": 7192,
  "Ġ(U": 6220,
  "Ġ(a": 7810,
  "Ġ(and": 6033,
  "Ġ(b": 7483,
  "Ġ(c": 5509,
  "Ġ(d": 9005,
  "Ġ(e.g.": 4953,
  "Ġ(e.g.,": 9510,
  "Ġ(en": 9507,
  "Ġ(f": 7484,
  "Ġ(for": 10748,
  "Ġ(i.": 6433,
  "Ġ(i.e.": 6932,
  "Ġ(if": 10749,
  "Ġ(in": 6661,
  "Ġ(l": 10750,
  "Ġ(m": 10751,
  "Ġ(most": 9508,
  "Ġ(n": 6034,
  "Ġ(or": 6035,
  "Ġ(p": 8596,
  "Ġ(s": 5510,
  "Ġ(see": 11533,
  "Ġ(t": 8175,
  "Ġ(the": 7193,
  "Ġ(v": 11534,
  "Ġ(x,": 5675,
  "Ġ(x,?),": 10758,
  "Ġ(y,": 7485,
  "Ġ(z,": 8176,
  "Ġ(à¤ª": 9006,
  "Ġ(à¤µ": 10752,
  "Ġ(à¤¸": 6930,
  "Ġ(à¤ħ": 10067,
  "Ġ(à¤ķ": 11535,
  "Ġ(à¤Ĺ": 10753,
  "Ġ(à¤ľ": 8177,
  "Ġ(à¤ľà¤¨à¥įà¤®": 9007,
  "Ġ(à®ª": 10754,
  "Ġ(à®ªà¯Ĩà®°à¯ģà®®à¯įà®ªà®¾à®²à¯ģà®®à¯į": 8178,
  "Ġ(à®ªà¯Ĭ.à®Ĭ.": 10755,
  "Ġ)": 2528,
  "Ġ),": 6030,
  "Ġ*": 2084,
  "Ġ+": 837,
  "Ġ+=": 5099,
  "Ġ,": 1405,
  "Ġ-": 640,
  "Ġ--": 2834,
  "Ġ-1": 7811,
  "Ġ-22": 10759,
  "Ġ->": 8598,
  "Ġ.": 1091,
  "Ġ...": 1839,
  "Ġ...,": 6933,
  "Ġ/": 2033,
  "Ġ0": 804,
  "Ġ0$": 8179,
  "Ġ0)": 9008,
  "Ġ0,": 4617,
  "Ġ0.": 1870,
  "Ġ0.0": 6934,
  "Ġ0.5": 8599,
  "Ġ01": 9499,
  "Ġ0:": 6434,
  "Ġ1": 374,
  "Ġ1$": 9009,
  "Ġ1)": 3751,
  "Ġ1),": 4173,
  "Ġ1,": 2147,
  "Ġ1-": 9511,
  "Ġ1.": 2347,
  "Ġ1.0": 6663,
  "Ġ1/": 7812,
  "Ġ1/2": 10760,
  "Ġ10": 1136,
  "Ġ10)": 10069,
  "Ġ10,": 10761,
  "Ġ10.": 5511,
  "Ġ100": 2601,
  "Ġ1000": 7194,
  "Ġ101": 9010,
  "Ġ11": 1749,
  "Ġ11,": 7486,
  "Ġ12": 1578,
  "Ġ12,": 6662,
  "Ġ13": 2559,
  "Ġ14": 2159,
  "Ġ14,": 8600,
  "Ġ15": 1926,
  "Ġ15,": 9011,
  "Ġ16": 2101,
  "Ġ17": 2560,
  "Ġ18": 1530,
  "Ġ189": 5512,
  "Ġ19": 796,
  "Ġ19,": 9012,
  "Ġ190": 10762,
  "Ġ194": 9013,
  "Ġ195": 6036,
  "Ġ196": 3198,
  "Ġ197": 3199,
  "Ġ198": 4728,
  "Ġ199": 2148,
  "Ġ1996": 11538,
  "Ġ1:": 3278,
  "Ġ1|": 11537,
  "Ġ2": 411,
  "Ġ2$": 8180,
  "Ġ2)": 4729,
  "Ġ2),": 6664,
  "Ġ2,": 2441,
  "Ġ2.": 2801,
  "Ġ2.0": 11542,
  "Ġ20": 1515,
  "Ġ20,": 8181,
  "Ġ200": 1107,
  "Ġ2000": 8601,
  "Ġ2001": 8182,
  "Ġ2003": 11543,
  "Ġ2004": 9016,
  "Ġ2005": 7815,
  "Ġ2006": 6666,
  "Ġ2007": 9017,
  "Ġ2008": 4843,
  "Ġ2009": 10071,
  "Ġ201": 889,
  "Ġ2010": 4015,
  "Ġ2011": 5368,
  "Ġ2011.": 9018,
  "Ġ2012": 3022,
  "Ġ2012,": 9019,
  "Ġ2013": 2968,
  "Ġ2014": 6435,
  "Ġ2015": 9513,
  "Ġ2016": 7487,
  "Ġ2017": 9514,
  "Ġ2018": 8183,
  "Ġ2020": 10070,
  "Ġ2021": 7814,
  "Ġ21": 6935,
  "Ġ22": 4425,
  "Ġ22,": 11539,
  "Ġ23": 4954,
  "Ġ23,": 9512,
  "Ġ24": 3686,
  "Ġ25": 3514,
  "Ġ25,": 9014,
  "Ġ250": 10763,
  "Ġ26": 6665,
  "Ġ27": 4730,
  "Ġ27.": 7813,
  "Ġ28": 5847,
  "Ġ28.": 10764,
  "Ġ29": 6037,
  "Ġ2:": 9015,
  "Ġ2\\right)": 11540,
  "Ġ2nd": 11541,
  "Ġ2|": 5220,
  "Ġ2|Alice|": 11544,
  "Ġ3": 658,
  "Ġ3)": 7488,
  "Ġ3),": 7489,
  "Ġ3,": 3327,
  "Ġ3.": 5677,
  "Ġ30": 3200,
  "Ġ300": 8184,
  "Ġ31": 7490,
  "Ġ32": 6038,
  "Ġ33": 11545,
  "Ġ34": 9020,
  "Ġ35": 6436,
  "Ġ36": 7195,
  "Ġ3:": 9515,
  "Ġ4": 755,
  "Ġ4)": 10765,
  "Ġ4,": 3515,
  "Ġ4.": 5221,
  "Ġ40": 4955,
  "Ġ400": 6667,
  "Ġ48": 9021,
  "Ġ5": 798,
  "Ġ5,": 5513,
  "Ġ5.": 10072,
  "Ġ50": 3328,
  "Ġ500": 5678,
  "Ġ5|": 6039,
  "Ġ6": 1095,
  "Ġ6,": 7196,
  "Ġ60": 6437,
  "Ġ600": 10073,
  "Ġ64": 8602,
  "Ġ7": 1221,
  "Ġ7,": 7197,
  "Ġ70": 8185,
  "Ġ7:": 11546,
  "Ġ8": 1190,
  "Ġ8,": 6668,
  "Ġ80": 5679,
  "Ġ9": 1427,
  "Ġ9,": 7816,
  "Ġ:": 1027,
  "Ġ:=": 6669,
  "Ġ:class:`": 2802,
  "Ġ:class:`DataFrame`": 4016,
  "Ġ:func:`": 6670,
  "Ġ:||": 10766,
  "Ġ;": 3562,
  "Ġ<": 1481,
  "Ġ<-": 8603,
  "Ġ<=": 7491,
  "Ġ=": 432,
  "Ġ==": 2170,
  "Ġ>": 1106,
  "Ġ>=": 7198,
  "Ġ>>>": 10059,
  "Ġ?": 4951,
  "Ġ@": 5672,
  "ĠA": 398,
  "ĠA.": 6040,
  "ĠAM": 4844,
  "ĠAN": 11547,
  "ĠAP": 4845,
  "ĠAPI": 9518,
  "ĠAR": 11548,
  "ĠAb": 3329,
  "ĠAbstract": 5680,
  "ĠAc": 6221,
  "ĠAcadem": 9023,
  "ĠAcc": 9516,
  "ĠAct": 6041,
  "ĠAd": 4089,
  "ĠAdd": 5369,
  "ĠAf": 9517,
  "ĠAfter": 10074,
  "ĠAg": 6671,
  "ĠAl": 1497,
  "ĠAlex": 8186,
  "ĠAlgebra": 9024,
  "ĠAll": 3752,
  "ĠAm": 2649,
  "ĠAmer": 3241,
  "ĠAmerica": 10076,
  "ĠAmerican": 5370,
  "ĠAmiga": 9025,
  "ĠAmÃ©rica": 6936,
  "ĠAn": 1268,
  "ĠAnd": 2373,
  "ĠAndorra": 9519,
  "ĠAng": 3882,
  "ĠAngel": 9026,
  "ĠAngle": 11549,
  "ĠAnn": 7199,
  "ĠAnsw": 7818,
  "ĠAnswer": 10767,
  "ĠAnt": 4174,
  "ĠAny": 7493,
  "ĠAp": 3824,
  "ĠApple": 11550,
  "ĠApr": 3242,
  "ĠApril": 5848,
  "ĠAr": 1462,
  "ĠArch": 7819,
  "ĠAre": 6672,
  "ĠArrow": 9520,
  "ĠArt": 5849,
  "ĠAs": 2012,
  "ĠAsia": 11551,
  "ĠAss": 4426,
  "ĠAssoci": 8187,
  "ĠAssociation": 11552,
  "ĠAt": 3563,
  "ĠAtl": 9521,
  "ĠAu": 9022,
  "ĠAug": 4017,
  "ĠAugust": 5681,
  "ĠAust": 7817,
  "ĠAustral": 8604,
  "ĠAut": 6222,
  "ĠAuthor": 10768,
  "ĠAv": 10075,
  "ĠAward": 7492,
  "ĠB": 515,
  "ĠBT": 10769,
  "ĠBack": 7820,
  "ĠBas": 10770,
  "ĠBass": 11553,
  "ĠBay": 7200,
  "ĠBe": 3753,
  "ĠBel": 9522,
  "ĠBl": 3243,
  "ĠBlack": 8190,
  "ĠBlue": 8191,
  "ĠBo": 6438,
  "ĠBob": 4956,
  "ĠBob|": 6938,
  "ĠBol": 10077,
  "ĠBook": 7821,
  "ĠBot": 10771,
  "ĠBow": 7822,
  "ĠBr": 6439,
  "ĠBrit": 8188,
  "ĠBrow": 10078,
  "ĠBrown": 6937,
  "ĠBu": 8189,
  "ĠBusiness": 10772,
  "ĠBut": 2869,
  "ĠBy": 4957,
  "ĠC": 403,
  "ĠC.": 10773,
  "ĠC2": 10079,
  "ĠC3": 4532,
  "ĠC6": 8192,
  "ĠCH": 8193,
  "ĠCal": 4262,
  "ĠCalcul": 10081,
  "ĠCalif": 10776,
  "ĠCall": 11554,
  "ĠCan": 3825,
  "ĠCanada": 10777,
  "ĠCar": 4090,
  "ĠCent": 3564,
  "ĠCenter": 7494,
  "ĠCentral": 11555,
  "ĠCh": 1094,
  "ĠChapter": 6223,
  "ĠChe": 4018,
  "ĠCheck": 8605,
  "ĠChina": 10778,
  "ĠChrist": 4846,
  "ĠChristmas": 7495,
  "ĠChrom": 9524,
  "ĠChrome": 10779,
  "ĠCity": 9523,
  "ĠCl": 2184,
  "ĠClass": 6042,
  "ĠClimate": 9027,
  "ĠCo": 6673,
  "ĠCol": 1799,
  "ĠCollection": 11556,
  "ĠCollege": 7496,
  "ĠColumn": 3516,
  "ĠCom": 1398,
  "ĠComm": 2803,
  "ĠCommission": 8606,
  "ĠCommittee": 11557,
  "ĠCommodore": 10082,
  "ĠComp": 6441,
  "ĠCompany": 11558,
  "ĠComput": 6939,
  "ĠCon": 1789,
  "ĠConference": 11559,
  "ĠCong": 10774,
  "ĠConn": 11560,
  "ĠCont": 4427,
  "ĠCor": 3883,
  "ĠCorpor": 8607,
  "ĠCorporation": 10780,
  "ĠCorporation||": 11561,
  "ĠCouncil": 8194,
  "ĠCount": 5682,
  "ĠCounty": 8195,
  "ĠCourt": 10775,
  "ĠCpG": 10080,
  "ĠCur": 5222,
  "ĠCurrent": 9028,
  "ĠC{": 6440,
  "ĠD": 531,
  "ĠD.": 11562,
  "ĠDStream": 3023,
  "ĠDStream.": 7497,
  "ĠData": 6940,
  "ĠDataFrame": 2771,
  "ĠDataFrame(jdf,": 8197,
  "ĠDataFrame(self._jdf.": 8198,
  "ĠDate": 6442,
  "ĠDate:": 11564,
  "ĠDavid": 8196,
  "ĠDay": 10083,
  "ĠDe": 2086,
  "ĠDec": 4847,
  "ĠDecember": 9029,
  "ĠDen": 7823,
  "ĠDep": 5100,
  "ĠDepartment": 6941,
  "ĠDes": 5371,
  "ĠDesign": 10085,
  "ĠDeterm": 10781,
  "ĠDevelop": 10084,
  "ĠDis": 6043,
  "ĠDist": 7824,
  "ĠDistrict": 10783,
  "ĠDiv": 6674,
  "ĠDivision": 8609,
  "ĠDo": 11563,
  "ĠDoes": 8608,
  "ĠDol": 10782,
  "ĠE": 536,
  "ĠEIP": 5514,
  "ĠEach": 9525,
  "ĠEarth": 8610,
  "ĠEast": 8199,
  "ĠEaster": 10086,
  "ĠEd": 4175,
  "ĠEl": 2602,
  "ĠElect": 9526,
  "ĠEn": 2328,
  "ĠEng": 3826,
  "ĠEngine": 6443,
  "ĠEnglish": 9031,
  "ĠEnt": 9030,
  "ĠEqu": 7201,
  "ĠEs": 8200,
  "ĠEsp": 9527,
  "ĠEspaÃ±": 10087,
  "ĠEst": 2804,
  "ĠEste": 10785,
  "ĠEu": 2442,
  "ĠEurop": 9032,
  "ĠEurope": 4346,
  "ĠEuropean": 6224,
  "ĠEv": 10784,
  "ĠEvery": 8611,
  "ĠEx": 1750,
  "ĠException": 10088,
  "ĠExper": 8201,
  "ĠExplanation:": 10089,
  "ĠF": 569,
  "ĠFR": 7202,
  "ĠFalse": 6044,
  "ĠFamil": 10786,
  "ĠFeb": 3365,
  "ĠFebruary": 6444,
  "ĠFin": 9528,
  "ĠFind": 7203,
  "ĠFirst": 5683,
  "ĠFl": 4091,
  "ĠFlor": 10787,
  "ĠFood": 9033,
  "ĠFor": 1871,
  "ĠForum": 10091,
  "ĠFourier": 10090,
  "ĠFr": 6942,
  "ĠFran": 8612,
  "ĠFrid": 7825,
  "ĠFriday": 11566,
  "ĠFried": 8613,
  "ĠFriedberg": 9529,
  "ĠFriedberg||The": 11567,
  "ĠFrom": 7204,
  "ĠFunction": 11565,
  "ĠG": 637,
  "ĠGAN": 10788,
  "ĠGM": 7826,
  "ĠGame": 11568,
  "ĠGauss": 9530,
  "ĠGe": 4533,
  "ĠGener": 5850,
  "ĠGeneral": 9532,
  "ĠGerman": 10789,
  "ĠGet": 10790,
  "ĠGl": 10791,
  "ĠGo": 7205,
  "ĠGod": 7498,
  "ĠGold": 7827,
  "ĠGr": 7828,
  "ĠGrand": 9531,
  "ĠGreat": 8202,
  "ĠGroup": 4347,
  "ĠGu": 3279,
  "ĠH": 600,
  "ĠHadoop": 11569,
  "ĠHall": 8614,
  "ĠHamilton": 8615,
  "ĠHar": 5101,
  "ĠHart": 11570,
  "ĠHaw": 8616,
  "ĠHe": 2650,
  "ĠHealth": 9034,
  "ĠHel": 6675,
  "ĠHer": 8617,
  "ĠHere": 6445,
  "ĠHigh": 6045,
  "ĠHill": 9533,
  "ĠHis": 10792,
  "ĠHome": 11571,
  "ĠHow": 2419,
  "ĠHowever,": 6225,
  "ĠI": 399,
  "ĠI'": 2253,
  "ĠI'd": 10093,
  "ĠI'll": 11572,
  "ĠI'm": 3884,
  "ĠI've": 6677,
  "ĠII": 9035,
  "ĠIII": 10092,
  "ĠIR": 7829,
  "ĠIf": 1386,
  "ĠIl": 5372,
  "ĠIll": 9036,
  "ĠIm": 7206,
  "ĠIn": 844,
  "ĠInc.": 10094,
  "ĠInd": 2577,
  "ĠIndia": 4428,
  "ĠIndian": 10095,
  "ĠInformation": 9534,
  "ĠInstit": 6678,
  "ĠInstitute": 9037,
  "ĠInt": 5373,
  "ĠInte": 4618,
  "ĠIntegr": 8203,
  "ĠInter": 9535,
  "ĠIntern": 4619,
  "ĠInternational": 10096,
  "ĠInternet": 9038,
  "ĠIntroduction": 9536,
  "ĠIr": 5374,
  "ĠIraq": 6676,
  "ĠIrish": 9537,
  "ĠIs": 2529,
  "ĠIt": 1338,
  "ĠIt's": 10097,
  "ĠItâĢĻs": 9538,
  "ĠIâĢĻ": 5223,
  "ĠIâĢĻm": 9039,
  "ĠJ": 727,
  "ĠJ.": 7499,
  "ĠJVM": 10098,
  "ĠJan": 2805,
  "ĠJanuary": 4092,
  "ĠJanuary,": 8618,
  "ĠJava": 6046,
  "ĠJe": 9539,
  "ĠJes": 9040,
  "ĠJesus": 11575,
  "ĠJohn": 3330,
  "ĠJohnson": 10099,
  "ĠJose": 11573,
  "ĠJournal": 9540,
  "ĠJul": 3244,
  "ĠJuly": 8204,
  "ĠJun": 11574,
  "ĠJune": 6047,
  "ĠK": 964,
  "ĠKe": 5375,
  "ĠL": 552,
  "ĠL'": 7830,
  "ĠL.": 10793,
  "ĠLa": 1810,
  "ĠLabeledPoint": 4620,
  "ĠLabeledPoint(": 6446,
  "ĠLabeledPoint(1.0,": 10794,
  "ĠLas": 6048,
  "ĠLast": 6943,
  "ĠLat": 10100,
  "ĠLaw": 7500,
  "ĠLe": 2734,
  "ĠLem": 7831,
  "ĠLemon": 10795,
  "ĠLes": 11576,
  "ĠLet": 3614,
  "ĠLibrary": 9041,
  "ĠLin": 9541,
  "ĠLinear": 9542,
  "ĠLog": 10101,
  "ĠLong": 10102,
  "ĠLord": 8619,
  "ĠLos": 5102,
  "ĠM": 449,
  "ĠMAT": 9543,
  "ĠMATLAB": 10107,
  "ĠME": 10103,
  "ĠMa": 5684,
  "ĠMac": 9544,
  "ĠMaine": 11580,
  "ĠMake": 10796,
  "ĠMan": 3402,
  "ĠMar": 2924,
  "ĠMarch": 7832,
  "ĠMark": 5103,
  "ĠMart": 7501,
  "ĠMary": 11577,
  "ĠMat": 2709,
  "ĠMath": 6679,
  "ĠMathemat": 4848,
  "ĠMathematics": 11581,
  "ĠMax": 11578,
  "ĠMay": 2891,
  "ĠMc": 5376,
  "ĠMe": 4348,
  "ĠMed": 3885,
  "ĠMedicare": 11582,
  "ĠMember": 10104,
  "ĠMethod": 10105,
  "ĠMex": 9042,
  "ĠMic": 6680,
  "ĠMicro": 11583,
  "ĠMill": 9545,
  "ĠMin": 4621,
  "ĠMod": 9043,
  "ĠModel": 6447,
  "ĠMon": 4019,
  "ĠMore": 6448,
  "ĠMost": 10106,
  "ĠMot": 9546,
  "ĠMulti": 11579,
  "ĠMus": 9044,
  "ĠMy": 7207,
  "ĠN": 549,
  "ĠN.": 11584,
  "ĠNAS": 11585,
  "ĠNa": 6681,
  "ĠNaOH": 10797,
  "ĠNational": 4349,
  "ĠNe": 7833,
  "ĠNetwork": 6449,
  "ĠNew": 2034,
  "ĠNews": 7209,
  "ĠNewton": 9045,
  "ĠNo": 7208,
  "ĠNone": 1365,
  "ĠNone)": 8205,
  "ĠNone:": 2443,
  "ĠNorte": 10108,
  "ĠNorth": 6226,
  "ĠNot": 5377,
  "ĠNote": 9547,
  "ĠNov": 6944,
  "ĠNovember": 6682,
  "ĠNow": 6450,
  "ĠNum": 4849,
  "ĠNumber": 7502,
  "ĠO": 689,
  "ĠOS": 9046,
  "ĠOb": 5515,
  "ĠObama": 9049,
  "ĠOct": 4263,
  "ĠOctober": 11587,
  "ĠOf": 7834,
  "ĠOff": 7210,
  "ĠOh": 9047,
  "ĠOn": 3687,
  "ĠOne": 5516,
  "ĠOnly": 11588,
  "ĠOpen": 6683,
  "ĠOper": 10109,
  "ĠOpt": 7211,
  "ĠOr": 3403,
  "ĠOther": 6684,
  "ĠOur": 4850,
  "ĠOut": 9048,
  "ĠOver": 11586,
  "ĠP": 462,
  "ĠPC": 10798,
  "ĠPDE": 11589,
  "ĠPDF": 9050,
  "ĠPM": 4093,
  "ĠPR": 11590,
  "ĠPac": 10799,
  "ĠPal": 8620,
  "ĠPar": 5851,
  "ĠPark": 9548,
  "ĠPart": 6049,
  "ĠPat": 9549,
  "ĠPaul": 9550,
  "ĠPe": 5224,
  "ĠPeople": 10802,
  "ĠPer": 5378,
  "ĠPh": 2505,
  "ĠPhil": 5685,
  "ĠPhiladelphia": 11592,
  "ĠPhys": 6050,
  "ĠPhysics": 9051,
  "ĠPie": 11591,
  "ĠPl": 2969,
  "ĠPlan": 10803,
  "ĠPlease": 7835,
  "ĠPoint": 10800,
  "ĠPol": 6945,
  "ĠPort": 10801,
  "ĠPost": 4731,
  "ĠPr": 4429,
  "ĠPre": 4020,
  "ĠPres": 5225,
  "ĠPresident": 8206,
  "ĠPro": 1428,
  "ĠProblem": 7503,
  "ĠProgram": 10804,
  "ĠProject": 10805,
  "ĠPubl": 8621,
  "ĠPublic": 7836,
  "ĠPython": 6946,
  "ĠQ": 2100,
  "ĠQu": 4534,
  "ĠQuestion": 8622,
  "ĠQuestions": 9551,
  "ĠR": 509,
  "ĠR.": 7837,
  "ĠRDD": 1422,
  "ĠRDD.": 5686,
  "ĠRDDs": 11594,
  "ĠRE": 9052,
  "ĠRad": 10806,
  "ĠRates": 10110,
  "ĠRe": 1516,
  "ĠRe:": 9555,
  "ĠRead": 10113,
  "ĠReal": 11595,
  "ĠRec": 7504,
  "ĠRed": 9552,
  "ĠReg": 5852,
  "ĠRel": 6685,
  "ĠRem": 10111,
  "ĠRep": 4094,
  "ĠRepublic": 6227,
  "ĠRes": 2970,
  "ĠResearch": 7213,
  "ĠReturn": 11593,
  "ĠRev": 11596,
  "ĠReview": 7838,
  "ĠRiver": 9553,
  "ĠRo": 4851,
  "ĠRob": 10807,
  "ĠRock": 10112,
  "ĠRow": 9554,
  "ĠRow(": 4535,
  "ĠRow(name": 7839,
  "ĠRoy": 7212,
  "ĠRuss": 9053,
  "ĠS": 394,
  "ĠS.": 9556,
  "ĠSE": 7505,
  "ĠSN": 10114,
  "ĠSQ": 9054,
  "ĠST": 11597,
  "ĠSa": 6051,
  "ĠSam": 7506,
  "ĠSan": 9055,
  "ĠSatur": 7507,
  "ĠSaturday,": 11602,
  "ĠSc": 3827,
  "ĠSch": 2292,
  "ĠSchool": 4095,
  "ĠScience": 6052,
  "ĠSe": 1671,
  "ĠSearch": 7840,
  "ĠSecond": 10116,
  "ĠSee": 7841,
  "ĠSep": 11598,
  "ĠSept": 6054,
  "ĠSeptember": 7216,
  "ĠSer": 7508,
  "ĠServ": 8623,
  "ĠSet": 5853,
  "ĠSh": 2254,
  "ĠShe": 6228,
  "ĠShow": 8209,
  "ĠSim": 5854,
  "ĠSince": 7214,
  "ĠSing": 11599,
  "ĠSingle": 10115,
  "ĠSk": 10808,
  "ĠSmall": 10809,
  "ĠSo": 3754,
  "ĠSoci": 11600,
  "ĠSocial": 9557,
  "ĠSolution": 6947,
  "ĠSome": 8207,
  "ĠSon": 6053,
  "ĠSouth": 7215,
  "ĠSov": 11601,
  "ĠSp": 3688,
  "ĠSpace": 10811,
  "ĠSpark": 6451,
  "ĠSpec": 5517,
  "ĠSpecial": 11604,
  "ĠSpring": 11603,
  "ĠSt": 1023,
  "ĠSt.": 7842,
  "ĠStand": 9559,
  "ĠStandard": 10813,
  "ĠStat": 7509,
  "ĠState": 4176,
  "ĠStates": 10812,
  "ĠSte": 4732,
  "ĠStep": 10814,
  "ĠSteve": 10815,
  "ĠStre": 9560,
  "ĠString": 11605,
  "ĠStructType": 6948,
  "ĠStud": 4264,
  "ĠStudy": 10816,
  "ĠSu": 3689,
  "ĠSub": 9558,
  "ĠSud": 8208,
  "ĠSun": 4536,
  "ĠSuper": 6452,
  "ĠSur": 6686,
  "ĠSw": 10810,
  "ĠSy": 2735,
  "ĠSystem": 9561,
  "ĠT": 402,
  "ĠTH": 9056,
  "ĠTO": 10817,
  "ĠTV": 11606,
  "ĠTe": 2772,
  "ĠTeam": 10820,
  "ĠTechn": 7510,
  "ĠTest": 7217,
  "ĠTh": 919,
  "ĠThank": 10117,
  "ĠThanks": 6453,
  "ĠThat": 4096,
  "ĠThe": 592,
  "ĠThen": 4958,
  "ĠTheorem": 10118,
  "ĠThere": 3886,
  "ĠThese": 4733,
  "ĠThey": 4734,
  "ĠThis": 1327,
  "ĠThurs": 8624,
  "ĠTim": 7843,
  "ĠTo": 3201,
  "ĠTom": 10818,
  "ĠTop": 9057,
  "ĠTr": 1736,
  "ĠTrack": 11609,
  "ĠTrans": 5226,
  "ĠTri": 10819,
  "ĠTrue": 3517,
  "ĠTrue)": 6454,
  "ĠTues": 11607,
  "ĠTurn": 11608,
  "ĠType": 3828,
  "ĠTypeError(\"": 5379,
  "ĠU": 795,
  "ĠU.S.": 4959,
  "ĠUK": 10119,
  "ĠUS": 5855,
  "ĠUlt": 10120,
  "ĠUn": 1610,
  "ĠUnited": 8625,
  "ĠUniversity": 4097,
  "ĠUp": 10821,
  "ĠUs": 4177,
  "ĠUse": 10822,
  "ĠUsing": 8626,
  "ĠV": 925,
  "ĠVal": 6687,
  "ĠValira": 11611,
  "ĠValue": 3887,
  "ĠValueError(\"": 4735,
  "ĠVict": 11610,
  "ĠVir": 10121,
  "ĠVis": 10823,
  "ĠVol": 6949,
  "ĠW": 604,
  "ĠW.": 11612,
  "ĠWash": 10824,
  "ĠWater": 10825,
  "ĠWe": 1328,
  "ĠWeb": 8211,
  "ĠWed": 7218,
  "ĠWednes": 7511,
  "ĠWeek": 9058,
  "ĠWest": 7219,
  "ĠWestern": 11613,
  "ĠWh": 2603,
  "ĠWhat": 2971,
  "ĠWhen": 4960,
  "ĠWhich": 9059,
  "ĠWhy": 8212,
  "ĠWill": 8627,
  "ĠWindow": 8210,
  "ĠWith": 5518,
  "ĠWork": 5856,
  "ĠWorld": 7220,
  "ĠX": 1887,
  "ĠY": 1318,
  "ĠYear": 10826,
  "ĠYork": 6688,
  "ĠYou": 2374,
  "ĠYour": 11614,
  "ĠZ": 2628,
  "Ġ[": 893,
  "Ġ[\"": 10122,
  "Ġ[0,": 9562,
  "Ġ[]": 8628,
  "Ġ[points[": 10827,
  "Ġ[âĢ¦]": 9563,
  "Ġ\\": 487,
  "Ġ\\$": 9060,
  "Ġ\\\\": 4622,
  "Ġ\\alphag": 10828,
  "Ġ\\alphagrv": 11616,
  "Ġ\\begin": 9564,
  "Ġ\\begin{align*}": 11617,
  "Ġ\\c": 3615,
  "Ġ\\cap": 10831,
  "Ġ\\cdot": 5227,
  "Ġ\\choose": 6455,
  "Ġ\\dfrac{": 10123,
  "Ġ\\end": 9061,
  "Ġ\\equiv": 8213,
  "Ġ\\frac{": 1711,
  "Ġ\\frac{1}{": 5857,
  "Ġ\\frac{3": 10832,
  "Ġ\\frac{\\": 8215,
  "Ġ\\geq": 8629,
  "Ġ\\in": 4623,
  "Ġ\\int": 6229,
  "Ġ\\int_{0": 11618,
  "Ġ\\left": 3062,
  "Ġ\\left(": 2651,
  "Ġ\\left(x": 4350,
  "Ġ\\left(x\\right)": 6056,
  "Ġ\\leq": 10829,
  "Ġ\\mathfrak": 9565,
  "Ġ\\pm": 6950,
  "Ġ\\rho": 8214,
  "Ġ\\rho^0": 11619,
  "Ġ\\right": 2394,
  "Ġ\\right)": 4178,
  "Ġ\\rm": 11615,
  "Ġ\\sqrt{": 7844,
  "Ġ\\text{": 10830,
  "Ġ\\times": 5519,
  "Ġ\\to": 6055,
  "Ġ\\{": 7221,
  "Ġ^": 8587,
  "Ġ_": 1571,
  "Ġ_make": 5858,
  "Ġ_make_type_verifier": 8630,
  "Ġ_make_type_verifier(": 9566,
  "Ġ_parse": 7512,
  "Ġ_parse_datatype": 9062,
  "Ġ_parse_datatype_string": 11620,
  "Ġ`": 1412,
  "Ġ``": 3457,
  "Ġa": 271,
  "Ġa,": 8216,
  "Ġa.": 8631,
  "Ġab": 881,
  "Ġable": 4852,
  "Ġabout": 1307,
  "Ġabove": 4430,
  "Ġabs": 4351,
  "Ġabsol": 10127,
  "Ġabsor": 7515,
  "Ġac": 1572,
  "Ġacademic": 9568,
  "Ġacc": 1359,
  "Ġaccept": 4961,
  "Ġaccess": 4431,
  "Ġaccident": 11621,
  "Ġaccording": 5105,
  "Ġaccount": 6231,
  "Ġaccur": 7516,
  "Ġach": 5687,
  "Ġachieve": 8634,
  "Ġacross": 4265,
  "Ġact": 1442,
  "Ġaction": 5520,
  "Ġactiv": 3366,
  "Ġactive": 9064,
  "Ġactivities": 10128,
  "Ġactivity": 10129,
  "Ġactual": 4853,
  "Ġactually": 4624,
  "Ġad": 1468,
  "Ġadap": 10834,
  "Ġadd": 1245,
  "Ġadded": 5106,
  "Ġadding": 9065,
  "Ġaddition": 3202,
  "Ġaddition,": 10130,
  "Ġadditional": 5688,
  "Ġaddress": 6691,
  "Ġadj": 10835,
  "Ġadminist": 7517,
  "Ġadmit": 11622,
  "Ġadv": 3829,
  "Ġadvanced": 10836,
  "Ġadvant": 11623,
  "Ġaf": 6230,
  "Ġaff": 5859,
  "Ġaffect": 7513,
  "Ġaffine": 9569,
  "Ġafter": 1914,
  "Ġag": 1101,
  "Ġagain": 2485,
  "Ġagain.": 11624,
  "Ġagainst": 3888,
  "Ġage": 3063,
  "Ġage=": 11625,
  "Ġagg": 6456,
  "Ġago": 6057,
  "Ġagre": 10837,
  "Ġaguj": 4625,
  "Ġagujero": 5860,
  "Ġahead": 10124,
  "Ġair": 6689,
  "Ġajedrez": 10833,
  "Ġal": 472,
  "Ġal.": 6692,
  "Ġalc": 7845,
  "Ġalcal": 10131,
  "Ġalcohol": 11628,
  "ĠaldehÃŃ": 10838,
  "Ġalf": 9570,
  "Ġalfabet": 11629,
  "Ġalg": 4626,
  "Ġalgebra": 11626,
  "Ġalgorith": 3064,
  "Ġalgorithm": 3519,
  "Ġalgun": 7518,
  "Ġalias": 6951,
  "Ġalign": 8217,
  "Ġall": 788,
  "Ġalleg": 11627,
  "Ġallow": 3105,
  "Ġallowed": 9066,
  "Ġallows": 10839,
  "Ġalmost": 6952,
  "Ġalong": 5521,
  "Ġalph": 8218,
  "Ġalpha": 10132,
  "Ġalready": 3518,
  "Ġalso": 1322,
  "Ġalt": 6457,
  "Ġaltern": 5861,
  "Ġalternative": 11630,
  "Ġalways": 5381,
  "Ġam": 1116,
  "Ġamb": 7519,
  "Ġamong": 6693,
  "Ġamount": 4537,
  "Ġampl": 9571,
  "Ġamplitude": 10133,
  "Ġan": 323,
  "Ġanal": 2087,
  "Ġanalog": 10840,
  "Ġanaly": 4962,
  "Ġanalysis": 3565,
  "Ġand": 342,
  "Ġang": 2375,
  "Ġangle": 3566,
  "Ġangles": 9067,
  "Ġann": 3280,
  "Ġannoun": 10134,
  "Ġannounce": 11631,
  "Ġanother": 2807,
  "Ġansw": 2652,
  "Ġanswer": 4021,
  "Ġanswer.": 11632,
  "Ġanswers": 10135,
  "Ġant": 2972,
  "Ġantigu": 9572,
  "Ġany": 1117,
  "Ġanyone": 8219,
  "Ġanything": 8220,
  "Ġap": 883,
  "Ġapartment": 11633,
  "Ġapp": 4432,
  "Ġappe": 3830,
  "Ġappear": 7520,
  "Ġappears": 9068,
  "Ġappel": 7846,
  "Ġappl": 4538,
  "Ġapplic": 4433,
  "Ġapplications": 7847,
  "Ġapplied": 9573,
  "Ġapply": 4627,
  "Ġapplying": 7848,
  "Ġappro": 2255,
  "Ġapproach": 5862,
  "Ġapprox": 11634,
  "Ġapproxim": 7521,
  "Ġaqu": 9567,
  "Ġar": 845,
  "Ġarb": 8635,
  "Ġarbitrary": 9574,
  "Ġarch": 5522,
  "Ġarchitect": 8221,
  "Ġare": 564,
  "Ġarea": 3755,
  "Ġareas": 10137,
  "Ġarg": 2604,
  "Ġargument": 5228,
  "Ġarguments": 9069,
  "Ġarm": 10136,
  "Ġaround": 2806,
  "Ġarque": 6232,
  "Ġarra": 11635,
  "Ġarray": 4963,
  "Ġarrest": 11636,
  "Ġart": 4266,
  "Ġarticle": 6694,
  "Ġas": 497,
  "Ġasc": 7849,
  "Ġascending": 10841,
  "Ġask": 2973,
  "Ġasked": 8636,
  "Ġasking": 11638,
  "Ġass": 1222,
  "Ġassess": 6695,
  "Ġassign": 5107,
  "Ġassignment": 11639,
  "Ġassoci": 3690,
  "Ġassociated": 5863,
  "Ġassum": 4539,
  "Ġastronom": 8632,
  "ĠasÃŃ": 11637,
  "Ġat": 565,
  "Ġatom": 7222,
  "Ġatt": 1829,
  "Ġattack": 7522,
  "Ġattempt": 7850,
  "Ġattention": 11640,
  "Ġattrib": 8222,
  "Ġau": 2035,
  "Ġaud": 10125,
  "Ġaunque": 10126,
  "Ġaut": 1899,
  "Ġauthor": 6058,
  "Ġautomat": 9575,
  "Ġaux": 8223,
  "Ġav": 1888,
  "Ġavailable": 3106,
  "Ġavec": 6690,
  "Ġaverage": 3404,
  "Ġavoid": 7523,
  "Ġaw": 8633,
  "Ġaward": 7514,
  "Ġaware": 9063,
  "Ġaway": 5380,
  "Ġax": 5104,
  "ĠaxÃ³n": 11641,
  "ĠaÃ±": 4736,
  "ĠaÃ±o": 11642,
  "ĠaÃ±os": 8637,
  "Ġb": 318,
  "Ġback": 1857,
  "Ġbackground": 9577,
  "Ġbad": 8224,
  "Ġbal": 10842,
  "Ġball": 4540,
  "Ġballs": 9578,
  "Ġband": 9070,
  "Ġbank": 11643,
  "Ġbar": 10843,
  "Ġbare": 10138,
  "Ġbas": 1333,
  "Ġbase": 4964,
  "Ġbased": 2395,
  "Ġbasestring": 6233,
  "Ġbasestring):": 8227,
  "Ġbasic": 5864,
  "Ġbatch": 3691,
  "Ġbatter": 10844,
  "Ġbe": 424,
  "Ġbeaut": 10142,
  "Ġbeautiful": 11648,
  "Ġbec": 1811,
  "Ġbecame": 10846,
  "Ġbecause": 2506,
  "Ġbecome": 5109,
  "Ġbeen": 1374,
  "Ġbefore": 2578,
  "Ġbegan": 11647,
  "Ġbegin": 5229,
  "Ġbeginning": 10143,
  "Ġbeh": 3331,
  "Ġbehav": 5110,
  "Ġbehavior": 7852,
  "Ġbehind": 6956,
  "Ġbeing": 2530,
  "Ġbel": 2088,
  "Ġbelieve": 6957,
  "Ġbelow": 3245,
  "Ġbene": 5108,
  "Ġbenef": 10144,
  "Ġbenefit": 10847,
  "Ġbest": 3692,
  "Ġbet": 1339,
  "Ġbetter": 4267,
  "Ġbetween": 1737,
  "Ġbien": 10139,
  "Ġbig": 3889,
  "Ġbill": 4965,
  "Ġbin": 11644,
  "Ġbinary": 8225,
  "Ġbir": 6953,
  "Ġbirth": 9579,
  "Ġbit": 5382,
  "Ġbl": 1712,
  "Ġblack": 6234,
  "Ġblind": 8228,
  "Ġblock": 6697,
  "Ġblog": 8638,
  "Ġblood": 6696,
  "Ġblue": 10848,
  "Ġbo": 3458,
  "Ġbod": 11645,
  "Ġbody": 7851,
  "Ġbook": 3281,
  "Ġbool": 8226,
  "Ġboot": 11646,
  "Ġbot": 1406,
  "Ġboth": 1985,
  "Ġbottom": 3150,
  "ĠbottomRight": 10145,
  "Ġbound": 3405,
  "Ġboundary": 11649,
  "Ġbounded": 9580,
  "Ġbox": 3520,
  "Ġboxes": 9581,
  "Ġbr": 6458,
  "Ġbran": 10845,
  "Ġbrand": 6954,
  "Ġbre": 3956,
  "Ġbreak": 5689,
  "Ġbring": 6459,
  "Ġbro": 3957,
  "Ġbroad": 7223,
  "Ġbrought": 10140,
  "Ġbrows": 6955,
  "Ġbrowser": 9582,
  "Ġbu": 1414,
  "Ġbuck": 5865,
  "Ġbuckets": 9071,
  "Ġbuild": 2629,
  "Ġbuilding": 4854,
  "Ġbuilt": 6698,
  "Ġbul": 10141,
  "Ġbur": 9576,
  "Ġbus": 3024,
  "Ġbusines": 10146,
  "Ġbusiness": 4737,
  "Ġbut": 917,
  "Ġbuy": 5866,
  "Ġby": 603,
  "Ġby:": 7853,
  "Ġc": 291,
  "Ġca": 9583,
  "Ġcada": 9072,
  "Ġcal": 1524,
  "Ġcalcul": 2736,
  "Ġcalculate": 9074,
  "Ġcalculated": 9587,
  "Ġcall": 2306,
  "ĠcallMLlibFunc": 9588,
  "ĠcallMLlibFunc(\"": 11652,
  "Ġcalled": 2975,
  "Ġcame": 6460,
  "Ġcamp": 5230,
  "Ġcan": 671,
  "Ġcan't": 5690,
  "Ġcand": 4098,
  "Ġcandidate": 7225,
  "Ġcannot": 3616,
  "Ġcap": 1971,
  "Ġcapital": 6701,
  "Ġcapt": 4856,
  "Ġcar": 1597,
  "Ġcaract": 8233,
  "Ġcaracter": 10852,
  "Ġcard": 4352,
  "Ġcare": 3890,
  "Ġcarg": 9073,
  "Ġcarry": 10853,
  "Ġcart": 8639,
  "Ġcas": 3282,
  "Ġcase": 2870,
  "Ġcases": 9075,
  "Ġcast": 8229,
  "Ġcat": 8640,
  "Ġcate": 3567,
  "Ġcategor": 4099,
  "Ġcategorical": 5867,
  "ĠcategoricalFeatures": 10154,
  "Ġcaus": 4738,
  "Ġcause": 9584,
  "Ġcaused": 9589,
  "Ġce": 5383,
  "Ġcell": 4739,
  "Ġcent": 2444,
  "Ġcentral": 6463,
  "Ġcer": 11650,
  "Ġcertain": 4855,
  "Ġcette": 10849,
  "Ġch": 734,
  "Ġchall": 8642,
  "Ġchance": 6958,
  "Ġchang": 3617,
  "Ġchange": 4353,
  "Ġchanges": 7524,
  "Ġchannel": 7856,
  "Ġchapter": 11653,
  "Ġchar": 2976,
  "Ġcharact": 11654,
  "Ġcharacter": 4179,
  "Ġcharg": 6060,
  "Ġcharge": 10155,
  "Ġcharges": 10854,
  "Ġchart": 10156,
  "Ġche": 1661,
  "Ġcheck": 2507,
  "Ġcheckpoint": 7857,
  "Ġchem": 6702,
  "Ġchemical": 9590,
  "Ġchild": 3203,
  "Ġchildren": 4434,
  "Ġcho": 3831,
  "Ġchoos": 10157,
  "Ġchoose": 11655,
  "Ġchoosing": 10855,
  "Ġchosen": 9076,
  "Ġci": 8230,
  "ĠcientÃŃfic": 10850,
  "Ġcin": 10147,
  "Ġcirc": 3107,
  "Ġcircle": 10158,
  "Ġcircuit": 8643,
  "Ġcircum": 10856,
  "Ġcit": 6059,
  "Ġcities": 10148,
  "Ġcity": 6699,
  "Ġciv": 6461,
  "Ġcivil": 9077,
  "Ġcl": 741,
  "Ġclaim": 2925,
  "Ġclaims": 5524,
  "Ġclas": 5231,
  "Ġclasific": 7858,
  "ĠclasificaciÃ³n": 9592,
  "Ġclass": 1517,
  "Ġclasses": 6464,
  "Ġclassifier": 10159,
  "Ġcle": 3065,
  "Ġclean": 8234,
  "Ġclear": 6465,
  "Ġclearly": 11656,
  "Ġclick": 9078,
  "Ġclimb": 9591,
  "Ġclock": 9079,
  "Ġclos": 3618,
  "Ġclose": 4857,
  "Ġclosed": 7859,
  "Ġco": 1127,
  "Ġcode": 2268,
  "Ġcoefficient": 6061,
  "Ġcoil": 9080,
  "Ġcol": 913,
  "Ġcold": 11658,
  "Ġcoll": 6703,
  "Ġcollect": 5111,
  "Ġcollection": 8235,
  "Ġcollege": 10160,
  "Ġcolor": 7525,
  "Ġcolumn": 1722,
  "Ġcolumn.": 10858,
  "Ġcolumns": 5525,
  "Ġcom": 510,
  "Ġcomb": 2892,
  "Ġcombin": 7226,
  "Ġcombine": 10860,
  "Ġcome": 3568,
  "Ġcomes": 6466,
  "Ġcomfort": 10859,
  "Ġcoming": 6236,
  "Ġcomm": 1240,
  "Ġcommand": 5869,
  "Ġcomme": 7227,
  "Ġcomment": 10161,
  "Ġcommon": 4023,
  "Ġcommunic": 7228,
  "Ġcommunity": 6237,
  "Ġcomo": 1800,
  "Ġcomp": 828,
  "Ġcompact": 5233,
  "Ġcompan": 5386,
  "Ġcompanies": 8644,
  "Ġcompany": 4268,
  "Ġcompar": 5868,
  "Ġcompare": 7526,
  "Ġcompat": 11659,
  "Ġcompet": 7229,
  "Ġcompl": 6959,
  "Ġcomple": 1738,
  "Ġcomplet": 5691,
  "Ġcomplete": 5692,
  "Ġcompleted": 11660,
  "Ġcompletely": 7232,
  "Ġcomplex": 3891,
  "Ġcomplexity": 8645,
  "Ġcompon": 7230,
  "Ġcomponents": 10162,
  "Ġcompos": 6704,
  "Ġcompound": 10861,
  "Ġcompression": 8236,
  "Ġcompuest": 7231,
  "Ġcomput": 3066,
  "Ġcompute": 6705,
  "Ġcomputer": 10862,
  "Ġcon": 431,
  "Ġconc": 6238,
  "Ġconcent": 7527,
  "Ġconcentr": 10863,
  "Ġconcept": 6706,
  "Ġconcern": 11662,
  "Ġconcl": 7860,
  "Ġcond": 2486,
  "Ġcondition": 2808,
  "Ġconditions": 7234,
  "Ġconduct": 9081,
  "Ġconf": 2487,
  "Ġconference": 9082,
  "Ġconfidence": 7861,
  "Ġconfig": 8239,
  "Ġconfiguration": 11663,
  "Ġconform": 11661,
  "Ġconj": 7528,
  "Ġconn": 4966,
  "Ġconne": 9083,
  "Ġconnect": 6062,
  "Ġconnection": 10864,
  "Ġconoc": 8237,
  "Ġcons": 1167,
  "Ġconsecutive": 10163,
  "Ġconserv": 10865,
  "Ġconsider": 2508,
  "Ġconsidered": 6707,
  "Ġconsidering": 10165,
  "Ġconsist": 6708,
  "Ġconsists": 10164,
  "Ġconst": 1751,
  "Ġconstant": 5387,
  "Ġconstit": 5870,
  "Ġconstitu": 10866,
  "Ġconstru": 9593,
  "Ġconstruct": 6709,
  "Ġconstruction": 8240,
  "Ġconsum": 4541,
  "Ġconsumer": 11664,
  "Ġconsumers": 11665,
  "Ġcont": 907,
  "Ġcontact": 6710,
  "Ġcontain": 2185,
  "Ġcontaining": 7862,
  "Ġcontains": 3693,
  "Ġcontent": 6467,
  "Ġcontext": 7233,
  "Ġcontin": 2531,
  "Ġcontinu": 6063,
  "Ġcontinue": 7235,
  "Ġcontinuous": 11666,
  "Ġcontr": 10867,
  "Ġcontrib": 6960,
  "Ġcontrol": 4741,
  "Ġconv": 8238,
  "Ġconve": 5526,
  "Ġconver": 1873,
  "Ġconverg": 4269,
  "Ġconvergence": 7529,
  "Ġconversion": 10868,
  "Ġconvert": 5527,
  "Ġconvex": 7863,
  "Ġcook": 10149,
  "Ġcooking": 9585,
  "Ġcool": 6235,
  "Ġcoordin": 5232,
  "Ġcoordinates": 10166,
  "Ġcop": 10851,
  "Ġcopy": 8231,
  "Ġcor": 1296,
  "Ġcorn": 10869,
  "Ġcorrect": 4180,
  "Ġcorrel": 6961,
  "Ġcorrelation": 10870,
  "Ġcorrespond": 3892,
  "Ġcorresponding": 6064,
  "Ġcorrosive": 11667,
  "Ġcos": 6700,
  "Ġcost": 3332,
  "Ġcou": 5523,
  "Ġcould": 1872,
  "Ġcount": 1721,
  "Ġcountry": 6468,
  "Ġcouple": 10871,
  "Ġcours": 9586,
  "Ġcourse": 4740,
  "Ġcovari": 10857,
  "Ġcover": 11657,
  "Ġcps": 8641,
  "Ġcr": 2682,
  "Ġcre": 1525,
  "Ġcream": 10150,
  "Ġcreate": 3459,
  "Ġcreated": 5234,
  "Ġcreating": 11668,
  "Ġcredit": 7224,
  "Ġcritical": 10151,
  "Ġcross": 7854,
  "Ġcryst": 8232,
  "Ġcs": 10152,
  "Ġcu": 2974,
  "Ġcual": 5384,
  "Ġcub": 6462,
  "Ġcult": 5385,
  "Ġcur": 1900,
  "Ġcurrent": 2561,
  "Ġcurrently": 7236,
  "Ġcurve": 10167,
  "Ġcustom": 4022,
  "Ġcustomers": 10168,
  "Ġcut": 7855,
  "ĠcÃ©l": 10153,
  "ĠcÃ³dig": 11651,
  "Ġd": 295,
  "Ġd'": 1611,
  "Ġd'A": 5235,
  "Ġdam": 10872,
  "Ġdans": 3025,
  "Ġdat": 2445,
  "Ġdata": 1096,
  "Ġdata,": 6471,
  "Ġdata.": 8647,
  "Ġdata:": 10170,
  "Ġdataset": 3893,
  "Ġdate": 4742,
  "Ġday": 2269,
  "Ġdays": 5112,
  "Ġde": 372,
  "Ġdeal": 8242,
  "Ġdeath": 7239,
  "Ġdeb": 6067,
  "Ġdec": 1790,
  "Ġdecay": 11673,
  "Ġdecision": 7532,
  "Ġdecl": 7865,
  "Ġdecor": 11674,
  "Ġdecre": 10875,
  "Ġded": 10873,
  "Ġdeep": 10171,
  "Ġdef": 1202,
  "Ġdefault": 3108,
  "Ġdefin": 3026,
  "Ġdefine": 7533,
  "Ġdefined": 6239,
  "Ġdefinitely": 10172,
  "Ġdefinition": 6963,
  "Ġdeg": 4436,
  "Ġdegener": 9595,
  "Ġdegree": 9086,
  "Ġdel": 1011,
  "Ġdem": 11672,
  "Ġdemand": 8243,
  "Ġdemon": 5236,
  "Ġdemonstr": 5872,
  "Ġden": 4024,
  "Ġdenomin": 10173,
  "Ġdenote": 11675,
  "Ġdens": 7237,
  "Ġdensity": 9596,
  "Ġdent": 6065,
  "Ġdentro": 9597,
  "Ġdep": 3460,
  "Ġdepart": 5871,
  "Ġdepartment": 8648,
  "Ġdepend": 5237,
  "Ġdepth": 4967,
  "Ġdepuis": 10174,
  "Ġder": 3067,
  "Ġderiv": 3694,
  "Ġderivative": 7240,
  "Ġdes": 811,
  "Ġdesar": 6472,
  "Ġdesarroll": 11677,
  "Ġdesarrollo": 10876,
  "Ġdesc": 2774,
  "Ġdescrib": 4628,
  "Ġdescribe": 9087,
  "Ġdescribed": 8244,
  "Ġdesde": 5873,
  "Ġdesign": 2926,
  "Ġdesigned": 7241,
  "Ġdesp": 11676,
  "Ġdest": 5693,
  "Ġdet": 1662,
  "Ġdetail": 7866,
  "Ġdetailed": 10877,
  "Ġdetails": 10878,
  "Ġdeterm": 2927,
  "Ġdetermine": 6473,
  "Ġdetermined": 7867,
  "Ġdeux": 5529,
  "Ġdev": 3521,
  "Ġdevelop": 2773,
  "Ġdevelopment": 6474,
  "Ġdevice": 7534,
  "Ġdevient": 10175,
  "Ġdf": 4181,
  "Ġdf.": 2532,
  "Ġdf.select": 9088,
  "Ġdi": 5388,
  "Ġdia": 5528,
  "Ġdiagram": 8649,
  "Ġdict": 4270,
  "Ġdid": 2160,
  "Ġdidn't": 5530,
  "Ġdie": 11669,
  "Ġdied": 8646,
  "Ġdif": 1223,
  "Ġdiferen": 11678,
  "Ġdiff": 8650,
  "Ġdiffere": 1598,
  "Ġdifference": 5696,
  "Ġdifferent": 1986,
  "Ġdifferential": 8245,
  "Ġdifficult": 6240,
  "Ġdig": 5389,
  "Ġdigs": 9598,
  "Ġdimension": 3958,
  "Ġdire": 1962,
  "Ġdirect": 2928,
  "Ġdirection": 6475,
  "Ġdirectly": 9089,
  "Ġdirector": 7868,
  "Ġdirectory": 9599,
  "Ġdis": 1180,
  "Ġdisc": 9600,
  "Ġdisco": 9090,
  "Ġdiscus": 5238,
  "Ġdiscuss": 9601,
  "Ġdiscussion": 9602,
  "Ġdise": 9084,
  "Ġdisk": 10176,
  "Ġdisp": 9091,
  "Ġdisplay": 7869,
  "Ġdist": 1293,
  "Ġdistance": 5113,
  "Ġdistinct": 7242,
  "Ġdistrib": 2089,
  "Ġdistribution": 2533,
  "Ġdiv": 2186,
  "Ġdiver": 9085,
  "Ġdivers": 10169,
  "Ġdivid": 10879,
  "Ġdivided": 8651,
  "Ġdivis": 5391,
  "Ġdivisible": 10880,
  "Ġdivision": 9603,
  "Ġdo": 841,
  "Ġdoc": 2809,
  "Ġdoct": 10177,
  "Ġdoctest:": 11680,
  "Ġdoctor": 11679,
  "Ġdocument": 5239,
  "Ġdoes": 1599,
  "Ġdoesn't": 4354,
  "ĠdoesnâĢĻt": 11681,
  "Ġdog": 7864,
  "Ġdoing": 4743,
  "Ġdoll": 11670,
  "Ġdom": 3406,
  "Ġdomain": 7535,
  "Ġdomin": 10178,
  "Ġdon": 1693,
  "Ġdon't": 2579,
  "Ġdonde": 8246,
  "Ġdone": 5390,
  "Ġdont": 8241,
  "ĠdonâĢĻt": 8247,
  "Ġdos": 6469,
  "Ġdot": 9594,
  "Ġdou": 4435,
  "Ġdoub": 11682,
  "Ġdouble": 7536,
  "Ġdown": 2737,
  "Ġdr": 6470,
  "Ġdraw": 6066,
  "Ġdrawing": 10881,
  "Ġdress": 10874,
  "Ġdri": 3619,
  "Ġdriv": 6962,
  "Ġdriver": 6241,
  "Ġdriving": 8652,
  "Ġdrop": 5694,
  "Ġdrug": 7530,
  "Ġdu": 1443,
  "Ġdual": 11671,
  "Ġdue": 4858,
  "Ġdur": 7531,
  "Ġduring": 3283,
  "Ġdynam": 7238,
  "ĠdÃ©": 1752,
  "ĠdÃ©but": 11683,
  "ĠdÃ©c": 8248,
  "ĠdÃ©part": 4744,
  "ĠdÃ©partement": 5392,
  "ĠdâĢĻ": 5695,
  "Ġe": 366,
  "Ġe.g.": 9092,
  "Ġeach": 1163,
  "Ġearlier": 6964,
  "Ġearly": 6965,
  "Ġearn": 11684,
  "Ġeas": 2534,
  "Ġeasier": 6242,
  "Ġeasily": 7538,
  "Ġeasy": 6966,
  "Ġecon": 11685,
  "Ġeconom": 5393,
  "Ġeconomic": 10883,
  "Ġed": 2085,
  "Ġedge": 10884,
  "Ġedit": 8251,
  "Ġedited": 9096,
  "Ġeduc": 6711,
  "Ġeff": 9093,
  "Ġeffect": 4182,
  "Ġeffective": 9606,
  "Ġefficient": 9094,
  "Ġeffort": 9605,
  "Ġeigen": 9095,
  "Ġeight": 9604,
  "Ġeither": 3695,
  "Ġej": 10179,
  "Ġejempl": 11687,
  "Ġel": 704,
  "Ġele": 1901,
  "Ġelect": 2871,
  "Ġelectric": 7539,
  "Ġelectron": 5394,
  "Ġelement": 3894,
  "Ġelements": 3461,
  "Ġelimin": 10885,
  "Ġell": 6243,
  "Ġelse": 3151,
  "Ġem": 1568,
  "Ġemail": 10180,
  "Ġemb": 7243,
  "Ġemerg": 8249,
  "Ġemploy": 5531,
  "Ġempty": 8252,
  "Ġen": 533,
  "Ġenc": 5240,
  "Ġencuent": 10886,
  "Ġend": 2396,
  "Ġenerg": 3068,
  "Ġenergy": 3621,
  "Ġeng": 3620,
  "Ġengine": 4968,
  "Ġenjoy": 9607,
  "Ġenough": 3333,
  "Ġensure": 9097,
  "Ġent": 1392,
  "Ġenter": 7244,
  "Ġentertain": 10887,
  "Ġentire": 8654,
  "Ġentre": 2977,
  "Ġentry": 6967,
  "Ġenviron": 5114,
  "Ġenvironment": 7245,
  "Ġep": 7537,
  "Ġequ": 1063,
  "Ġequal": 3569,
  "Ġequation": 2488,
  "Ġequations": 4969,
  "Ġequip": 6244,
  "Ġequival": 4970,
  "Ġequivalent": 6245,
  "Ġer": 2291,
  "Ġera": 9608,
  "Ġerror": 2929,
  "Ġes": 970,
  "Ġesc": 5874,
  "Ġesp": 3522,
  "Ġespac": 7870,
  "Ġespacio": 9098,
  "Ġespec": 2738,
  "Ġespecial": 11688,
  "Ġespecially": 7246,
  "Ġespecies": 5241,
  "Ġess": 9500,
  "Ġest": 806,
  "Ġesta": 6712,
  "Ġestabl": 6968,
  "Ġeste": 4542,
  "Ġestim": 5395,
  "Ġestud": 9609,
  "ĠestÃ¡": 5115,
  "ĠestÃ¡n": 9610,
  "Ġet": 943,
  "Ġetc.": 5396,
  "Ġeu": 8653,
  "Ġev": 1308,
  "Ġevalu": 4745,
  "Ġevaluate": 8253,
  "Ġeven": 2348,
  "Ġevent": 3832,
  "Ġevents": 9611,
  "Ġever": 8250,
  "Ġevery": 2002,
  "Ġeveryone": 9099,
  "Ġeverything": 5875,
  "Ġevolution": 9612,
  "Ġex": 547,
  "Ġexact": 4859,
  "Ġexactly": 7247,
  "Ġexam": 8655,
  "Ġexample": 2064,
  "Ġexample,": 3833,
  "Ġexamples": 8656,
  "Ġexc": 4971,
  "Ġexcept": 9100,
  "Ġexcited": 10182,
  "Ġexcl": 6713,
  "Ġexec": 6969,
  "Ġexercise": 11689,
  "Ġexist": 2739,
  "Ġexisting": 9101,
  "Ġexists": 10183,
  "Ġexp": 3109,
  "Ġexpand": 9102,
  "Ġexpect": 2930,
  "Ġexpected": 5116,
  "Ġexpensive": 10889,
  "Ġexper": 2270,
  "Ġexperience": 4746,
  "Ġexperiment": 5876,
  "Ġexpl": 2775,
  "Ġexplain": 5117,
  "Ġexplicit": 11690,
  "Ġexplor": 11692,
  "Ġexpress": 10181,
  "Ġexpression": 3284,
  "Ġexpressions": 11693,
  "Ġext": 2219,
  "Ġextension": 11691,
  "Ġexternal": 10888,
  "Ġextra": 8657,
  "Ġextrem": 9613,
  "Ġey": 10882,
  "Ġe}{": 11686,
  "Ġf": 305,
  "Ġfa": 5397,
  "Ġfac": 3285,
  "Ġface": 2710,
  "Ġfaces": 8658,
  "Ġfacility": 10185,
  "Ġfact": 2810,
  "Ġfactor": 6476,
  "Ġfacult": 9615,
  "Ġfail": 6068,
  "Ġfair": 9103,
  "Ġfait": 9614,
  "Ġfall": 5877,
  "Ġfalse": 10890,
  "Ġfamil": 2065,
  "Ġfamilia": 4184,
  "Ġfamily": 4973,
  "Ġfans": 11694,
  "Ġfar": 5398,
  "Ġfast": 6970,
  "Ġfaster": 9104,
  "Ġfav": 5878,
  "Ġfavor": 8660,
  "Ġfe": 1152,
  "Ġfeat": 11700,
  "Ġfeature": 5879,
  "Ġfeatures": 4543,
  "Ġfeatures.": 10892,
  "Ġfederal": 6246,
  "Ġfeed": 10186,
  "Ġfeel": 4185,
  "Ġfeet": 10187,
  "Ġfem": 9105,
  "Ġfew": 2978,
  "Ġfield": 2397,
  "Ġfields": 10188,
  "Ġfig": 11695,
  "Ġfigure": 5697,
  "Ġfil": 1672,
  "Ġfile": 2307,
  "Ġfile.": 11701,
  "Ġfiles": 4544,
  "Ġfill": 8254,
  "Ġfilm": 6249,
  "Ġfilter": 5699,
  "Ġfin": 1463,
  "Ġfinal": 3204,
  "Ġfinancial": 9106,
  "Ġfind": 1663,
  "Ġfinding": 10893,
  "Ġfinished": 9107,
  "Ġfinite": 7248,
  "Ġfire": 6714,
  "Ġfirm": 7871,
  "Ġfirst": 1164,
  "Ġfis": 11696,
  "Ġfit": 3834,
  "Ġfive": 4972,
  "Ġfix": 5118,
  "Ġfixed": 6971,
  "Ġfl": 1681,
  "Ġflat": 9108,
  "Ġflo": 2711,
  "Ġfloat": 5242,
  "Ġflores": 7540,
  "Ġflow": 4183,
  "Ġflu": 4272,
  "Ġfluid": 7249,
  "Ġfo": 11697,
  "Ġfoc": 4860,
  "Ġfocus": 6069,
  "Ġfol": 1498,
  "Ġfold": 10891,
  "Ġfolder": 11702,
  "Ġfollow": 1644,
  "Ġfollowed": 9616,
  "Ġfollowing": 2329,
  "Ġfollows": 11703,
  "Ġfon": 11698,
  "Ġfood": 5698,
  "Ġfoot": 6715,
  "Ġfootball": 11704,
  "Ġfor": 396,
  "Ġforce": 7250,
  "Ġforces": 6972,
  "Ġfore": 3895,
  "Ġforecast": 8256,
  "Ġform": 1075,
  "Ġforma": 5120,
  "Ġformal": 11705,
  "Ġformat": 4545,
  "Ġforme": 10894,
  "Ġformed": 10895,
  "Ġformer": 8661,
  "Ġformula": 4974,
  "Ġforward": 7251,
  "Ġfound": 2630,
  "Ġfour": 3696,
  "Ġfr": 3407,
  "Ġfraction": 2893,
  "Ġframe": 6247,
  "Ġframework": 10896,
  "Ġfran": 6248,
  "ĠfranÃ§": 10897,
  "Ġfre": 2835,
  "Ġfree": 2894,
  "Ġfreedom": 10898,
  "Ġfrequ": 4186,
  "Ġfrequency": 7873,
  "Ġfresh": 10184,
  "Ġfriend": 5119,
  "Ġfriends": 9617,
  "Ġfrom": 643,
  "Ġfront": 5700,
  "Ġfue": 3570,
  "Ġfuer": 11699,
  "Ġful": 8659,
  "Ġfull": 3622,
  "Ġfully": 10189,
  "Ġfun": 812,
  "Ġfunc": 4437,
  "Ġfunc,": 9109,
  "Ġfunction": 978,
  "Ġfunction.": 6716,
  "Ġfunctional": 10899,
  "Ġfunctions": 2631,
  "Ġfunctions.": 11706,
  "Ġfund": 4273,
  "Ġfundament": 8662,
  "Ġfundamental": 10190,
  "Ġfunding": 11707,
  "Ġfurther": 7872,
  "Ġfut": 4271,
  "Ġfuture": 5399,
  "ĠfÃŃs": 8255,
  "Ġg": 388,
  "Ġgain": 7252,
  "Ġgal": 6973,
  "Ġgalax": 11709,
  "Ġgame": 3523,
  "Ġgames": 7874,
  "Ġgamma": 10191,
  "Ġgard": 10900,
  "Ġgas": 10192,
  "Ġgave": 8663,
  "Ġge": 3623,
  "Ġgen": 4747,
  "Ġgene": 11708,
  "Ġgener": 1280,
  "Ġgeneral": 2811,
  "Ġgeneralmente": 9110,
  "Ġgenerate": 4355,
  "Ġgenerated": 5534,
  "Ġgeneration": 10902,
  "Ġgeometric": 11710,
  "Ġget": 1144,
  "Ġget_": 8258,
  "Ġget_used_memory": 9619,
  "Ġgets": 11711,
  "Ġgetting": 5243,
  "Ġgifts": 9618,
  "Ġgive": 3756,
  "Ġgiven": 1739,
  "Ġgives": 5532,
  "Ġgl": 3524,
  "Ġglobal": 10194,
  "Ġgo": 1084,
  "Ġgoal": 8259,
  "Ġgoes": 11712,
  "Ġgoing": 3757,
  "Ġgold": 10193,
  "Ġgood": 2535,
  "Ġgot": 2420,
  "Ġgouvern": 10901,
  "Ġgovern": 5535,
  "Ġgovernment": 7254,
  "Ġgr": 1558,
  "Ġgra": 4274,
  "Ġgrad": 7542,
  "Ġgran": 8664,
  "Ġgrand": 3571,
  "Ġgrande": 8665,
  "Ġgraph": 3462,
  "Ġgrav": 7255,
  "Ġgreat": 2740,
  "Ġgreater": 7875,
  "Ġgreen": 7253,
  "Ġgrieg": 5533,
  "Ġgriego": 7256,
  "Ġground": 7541,
  "Ġgroup": 2349,
  "Ġgrow": 4629,
  "Ġgrowth": 9620,
  "Ġgrup": 6974,
  "Ġgrupo": 8260,
  "Ġgu": 2042,
  "Ġguarante": 8261,
  "Ġguerre": 9111,
  "Ġguys": 8666,
  "ĠgÃ©n": 8257,
  "ĠgÃ©ner": 4748,
  "ĠgÃ©nero": 8667,
  "ĠgÃ©neros": 10903,
  "ĠgÃ©nÃ©": 10195,
  "Ġh": 358,
  "Ġha": 7876,
  "Ġhab": 3896,
  "Ġhabit": 6071,
  "Ġhac": 8262,
  "Ġhad": 1801,
  "Ġhalf": 4861,
  "Ġhall": 10196,
  "Ġhand": 2895,
  "Ġhapp": 4975,
  "Ġhappen": 6250,
  "Ġhappens": 11714,
  "Ġhappy": 10198,
  "Ġhard": 4630,
  "Ġhas": 835,
  "Ġhasta": 6717,
  "Ġhave": 673,
  "Ġhaving": 4862,
  "Ġhe": 669,
  "Ġhead": 3152,
  "Ġhealth": 4026,
  "Ġhear": 11715,
  "Ġheart": 10905,
  "Ġheat": 9622,
  "Ġheavy": 11716,
  "Ġheight": 5245,
  "Ġheight=": 7877,
  "Ġhel": 2102,
  "Ġheld": 7543,
  "Ġhelp": 2489,
  "Ġhence": 10199,
  "Ġher": 2118,
  "Ġhere": 2103,
  "Ġhere.": 6477,
  "Ġhig": 4025,
  "Ġhigh": 2233,
  "Ġhigher": 6478,
  "Ġhighest": 7544,
  "Ġhighlight": 10906,
  "Ġhighly": 10200,
  "Ġhim": 3697,
  "Ġhim.": 11717,
  "Ġhis": 1535,
  "Ġhistor": 5244,
  "Ġhistory": 10197,
  "Ġhit": 9112,
  "Ġho": 4187,
  "Ġhojas": 8264,
  "Ġhold": 6251,
  "Ġhom": 5400,
  "Ġhome": 2979,
  "Ġhon": 5880,
  "Ġhop": 10904,
  "Ġhope": 7878,
  "Ġhor": 6975,
  "Ġhost": 8263,
  "Ġhot": 9113,
  "Ġhour": 6070,
  "Ġhours": 5401,
  "Ġhouse": 5701,
  "Ġhow": 1218,
  "Ġhowever,": 6479,
  "Ġhttp://": 6976,
  "Ġhu": 9621,
  "Ġhum": 11713,
  "Ġhuman": 3897,
  "Ġhun": 5121,
  "Ġi": 1491,
  "Ġi.": 5881,
  "Ġi.e.": 6480,
  "ĠiPhone": 9623,
  "Ġice": 8588,
  "Ġid": 8589,
  "Ġide": 3149,
  "Ġidea": 5536,
  "Ġideas": 10201,
  "Ġident": 3197,
  "Ġidentical": 10907,
  "Ġidentified": 9114,
  "Ġif": 880,
  "Ġign": 8590,
  "Ġil": 4727,
  "Ġill": 6217,
  "Ġim": 783,
  "Ġimag": 8668,
  "Ġimage": 3027,
  "Ġimmedi": 6252,
  "Ġimmediately": 7545,
  "Ġimp": 4631,
  "Ġimpact": 7546,
  "Ġimplement": 3758,
  "Ġimplementation": 10202,
  "Ġimport": 1536,
  "Ġimportant": 3110,
  "Ġimportante": 11718,
  "Ġimpro": 4027,
  "Ġimprove": 5702,
  "Ġin": 328,
  "Ġinc": 9115,
  "Ġincl": 1375,
  "Ġinclud": 2104,
  "Ġinclude": 3286,
  "Ġincluded": 8265,
  "Ġincludes": 4749,
  "Ġincluding": 3698,
  "Ġincor": 7257,
  "Ġincorrect": 11719,
  "Ġincre": 2293,
  "Ġincrease": 4750,
  "Ġincreased": 10908,
  "Ġincreases": 11720,
  "Ġincreasing": 10203,
  "Ġind": 1537,
  "Ġinde": 2653,
  "Ġindependent": 5246,
  "Ġindex": 5703,
  "Ġindic": 4863,
  "Ġindividual": 4438,
  "Ġindu": 8669,
  "Ġindust": 4100,
  "Ġindustri": 9624,
  "Ġindustry": 6977,
  "Ġinequ": 7258,
  "Ġinequality": 10204,
  "Ġinf": 2350,
  "Ġinfin": 7880,
  "Ġinfloresc": 10909,
  "Ġinflu": 10205,
  "Ġinform": 5122,
  "Ġinformation": 2812,
  "Ġing": 9501,
  "Ġiniti": 7879,
  "Ġinitial": 2741,
  "ĠinitialModel": 11721,
  "Ġinj": 8670,
  "Ġinput": 3028,
  "Ġins": 2509,
  "Ġinside": 9625,
  "Ġinst": 1630,
  "Ġinstall": 9626,
  "Ġinstalled": 11722,
  "Ġinstant": 9627,
  "Ġinstead": 4356,
  "Ġinstr": 9116,
  "Ġinsur": 6718,
  "Ġinsurance": 8671,
  "Ġint": 1645,
  "Ġint,": 9117,
  "Ġinte": 1195,
  "Ġinteger": 4751,
  "Ġintegers": 6481,
  "Ġintegr": 2187,
  "Ġintegral": 3835,
  "Ġinter": 1025,
  "Ġinteract": 10910,
  "Ġinteraction": 7547,
  "Ġinterest": 3205,
  "Ġinterested": 9629,
  "Ġinteresting": 8672,
  "Ġinterface": 7881,
  "Ġintern": 3206,
  "Ġinternal": 9630,
  "Ġinternational": 8266,
  "Ġinterpret": 9628,
  "Ġinterval": 3287,
  "Ġinterview": 5248,
  "Ġinto": 1302,
  "Ġintrodu": 5247,
  "Ġinv": 1731,
  "Ġinvest": 3069,
  "Ġinvestig": 4632,
  "Ġinvol": 4976,
  "Ġinvolved": 11723,
  "Ġir": 5673,
  "Ġis": 362,
  "Ġis,": 5537,
  "Ġiscsi": 9631,
  "Ġisinstance": 1915,
  "Ġisinstance(": 2510,
  "Ġisinstance(col": 7883,
  "Ġisinstance(obj,": 9632,
  "Ġisn't": 7882,
  "Ġiss": 3572,
  "Ġissue": 6072,
  "Ġissues": 8267,
  "Ġit": 475,
  "Ġit's": 2896,
  "Ġit,": 6978,
  "Ġit.": 3699,
  "Ġitem": 4752,
  "Ġitems": 4546,
  "Ġiter": 3898,
  "Ġiterations": 9633,
  "Ġiterator": 4188,
  "Ġiterator:": 10206,
  "Ġits": 1204,
  "Ġitself": 7884,
  "ĠitâĢĻs": 6253,
  "Ġj": 785,
  "Ġjob": 4101,
  "Ġjoin": 7885,
  "Ġjoy": 11724,
  "Ġjust": 1444,
  "Ġk": 700,
  "Ġk,": 6254,
  "Ġke": 1358,
  "Ġkeep": 3759,
  "Ġkey": 1927,
  "Ġkey-value": 10911,
  "Ġkey=": 10208,
  "Ġkilled": 11725,
  "Ġkin": 10207,
  "Ġkind": 4102,
  "Ġkitche": 11726,
  "Ġkm": 5704,
  "Ġknn": 9118,
  "Ġknow": 1246,
  "Ġknowledge": 11727,
  "Ġknown": 3760,
  "Ġkv": 9119,
  "Ġl": 334,
  "Ġl'": 1088,
  "Ġl'A": 4028,
  "Ġl'E": 11728,
  "Ġla": 560,
  "Ġlabel": 4864,
  "Ġlabor": 7259,
  "Ġlambda": 7548,
  "Ġland": 6255,
  "Ġlang": 2931,
  "Ġlangu": 4190,
  "Ġlanguage": 8674,
  "Ġlanguages": 7887,
  "Ġlarg": 4439,
  "Ġlarge": 3334,
  "Ġlarger": 8268,
  "Ġlargest": 11730,
  "Ġlas": 1334,
  "Ġlast": 1646,
  "Ġlast):": 10913,
  "Ġlat": 2742,
  "Ġlate": 6073,
  "Ġlater": 5705,
  "Ġlatest": 8675,
  "Ġlaunch": 11729,
  "Ġlaw": 4753,
  "Ġlay": 9120,
  "Ġle": 623,
  "Ġlead": 2294,
  "Ġleader": 7888,
  "Ġleading": 7889,
  "Ġleaf": 9634,
  "Ġlearn": 4191,
  "Ġlearning": 7550,
  "Ġleast": 3289,
  "Ġleave": 11731,
  "Ġled": 9122,
  "Ġleft": 4192,
  "Ġleg": 5249,
  "Ġlemon": 9123,
  "Ġlen": 3573,
  "Ġlen(": 11732,
  "Ġlength": 3153,
  "Ġles": 1791,
  "Ġless": 3288,
  "Ġlet": 4103,
  "Ġlevel": 3071,
  "Ġlib": 7549,
  "Ġlibrary": 7886,
  "Ġlif": 10209,
  "Ġlife": 6979,
  "Ġlight": 4189,
  "Ġlik": 5538,
  "Ġlike": 1312,
  "Ġlikely": 10210,
  "Ġlim": 8673,
  "Ġlimit": 2654,
  "Ġlin": 9121,
  "Ġline": 1694,
  "Ġline,": 10914,
  "Ġlinear": 4547,
  "Ġlines": 6719,
  "Ġlink": 5402,
  "Ġlist": 1243,
  "Ġlist):": 10915,
  "Ġlit": 2536,
  "Ġliter": 7890,
  "Ġlittle": 3761,
  "Ġlive": 6256,
  "Ġllam": 6074,
  "Ġlo": 1987,
  "Ġload": 4104,
  "Ġloc": 1600,
  "Ġlocal": 2897,
  "Ġlocally": 9635,
  "Ġlocated": 8269,
  "Ġlocation": 10211,
  "Ġlocations": 8676,
  "Ġlog": 2872,
  "Ġlong": 1740,
  "Ġlong,": 10212,
  "Ġlonger": 6720,
  "Ġlook": 1753,
  "Ġlooking": 3624,
  "Ġlooks": 8270,
  "Ġloop": 9124,
  "Ġlos": 1206,
  "Ġloss": 6721,
  "Ġlot": 3070,
  "Ġlove": 4977,
  "Ġlow": 3836,
  "Ġlower": 5403,
  "Ġlug": 10912,
  "ĠlâĢĻ": 4440,
  "Ġm": 319,
  "Ġma": 833,
  "Ġmad": 8677,
  "Ġmade": 2683,
  "Ġmagn": 6980,
  "Ġmagnetic": 10918,
  "Ġmain": 5539,
  "Ġmaint": 8272,
  "Ġmais": 9126,
  "Ġmajor": 5251,
  "Ġmak": 2684,
  "Ġmake": 1763,
  "Ġmakes": 4755,
  "Ġmaking": 4866,
  "Ġman": 1071,
  "Ġmanag": 3463,
  "Ġmanagement": 6484,
  "Ġmanager": 9639,
  "Ġmanifold": 5252,
  "Ġmanufact": 11735,
  "Ġmany": 2013,
  "Ġmap": 3029,
  "Ġmar": 4865,
  "Ġmarg": 9636,
  "Ġmargin": 10213,
  "Ġmark": 2470,
  "Ġmarket": 5884,
  "Ġmarketing": 9640,
  "Ġmas": 7551,
  "Ġmass": 3154,
  "Ġmat": 1184,
  "Ġmatch": 5707,
  "Ġmatches": 11736,
  "Ġmaterial": 5405,
  "Ġmath": 5404,
  "Ġmathemat": 4756,
  "Ġmathematical": 10920,
  "Ġmathematics": 9641,
  "ĠmathÃ©mat": 10919,
  "Ġmatrix": 3367,
  "Ġmatter": 5540,
  "Ġmax": 1664,
  "ĠmaxB": 10215,
  "ĠmaxDep": 10216,
  "Ġmaximal": 7552,
  "Ġmaximum": 6257,
  "Ġmay": 1429,
  "Ġmayor": 6485,
  "Ġme": 825,
  "Ġme.": 10921,
  "Ġmean": 2632,
  "Ġmeans": 3155,
  "Ġmeant": 9642,
  "Ġmeas": 2446,
  "Ġmeasur": 11737,
  "Ġmeasure": 3626,
  "Ġmeasures": 10217,
  "Ġmechan": 5541,
  "Ġmed": 2511,
  "Ġmedia": 7893,
  "Ġmeet": 8273,
  "Ġmeeting": 9127,
  "Ġmem": 1762,
  "Ġmember": 4978,
  "Ġmembers": 5708,
  "Ġmemory": 4275,
  "Ġmen": 2980,
  "Ġmenos": 11738,
  "Ġmer": 3837,
  "Ġmerg": 5706,
  "Ġmerge": 6075,
  "Ġmeringue": 10916,
  "Ġmes": 8271,
  "Ġmess": 5882,
  "Ġmessage": 10218,
  "Ġmet": 2873,
  "Ġmetadata": 10219,
  "Ġmethod": 1988,
  "Ġmethods": 5709,
  "Ġmic": 5123,
  "Ġmicro": 11739,
  "Ġmight": 3335,
  "Ġmil": 3762,
  "Ġmilit": 6076,
  "Ġmilitary": 7894,
  "Ġmill": 3625,
  "Ġmillion": 6722,
  "Ġmin": 1340,
  "Ġmind": 5250,
  "Ġminim": 11740,
  "Ġminimum": 5406,
  "Ġminor": 8679,
  "Ġminutes": 6723,
  "Ġmis": 9637,
  "Ġmiss": 6482,
  "Ġmission": 11733,
  "Ġmist": 10917,
  "Ġmix": 10214,
  "Ġmo": 8678,
  "Ġmod": 2376,
  "Ġmode": 5124,
  "Ġmodel": 1407,
  "Ġmodel.": 9643,
  "Ġmodel.predict": 11741,
  "Ġmodels": 6258,
  "Ġmodern": 6981,
  "Ġmole": 4754,
  "Ġmolecul": 10922,
  "Ġmolecular": 8680,
  "Ġmom": 3763,
  "Ġmoment": 4979,
  "Ġmon": 1741,
  "Ġmoney": 5883,
  "Ġmont": 11734,
  "Ġmonth": 3290,
  "Ġmonths": 10923,
  "Ġmor": 4633,
  "Ġmore": 998,
  "Ġmorning": 7895,
  "Ġmost": 1779,
  "Ġmot": 3764,
  "Ġmotion": 10924,
  "Ġmotor": 10220,
  "Ġmov": 4441,
  "Ġmove": 4634,
  "Ġmoving": 9128,
  "Ġmu": 1579,
  "Ġmuch": 1928,
  "Ġmuchas": 10221,
  "Ġmult": 6483,
  "Ġmulti": 2421,
  "Ġmultiple": 3627,
  "Ġmund": 7891,
  "Ġmunicip": 9638,
  "Ġmus": 3525,
  "Ġmusic": 5542,
  "Ġmust": 1858,
  "Ġmut": 7892,
  "Ġmuy": 8681,
  "Ġmy": 1297,
  "ĠmÃ¡s": 2605,
  "ĠmÃ©t": 9125,
  "Ġn": 343,
  "Ġnacional": 6724,
  "Ġnacionalidad": 9644,
  "Ġname": 1423,
  "Ġname,": 6726,
  "Ġname=u'Alice": 9129,
  "Ġnamed": 8274,
  "Ġnames": 4635,
  "Ġname|": 8275,
  "Ġnation": 6982,
  "Ġnational": 5407,
  "Ġnatur": 4757,
  "Ġnatural": 7260,
  "Ġnav": 11742,
  "Ġne": 614,
  "Ġnear": 9645,
  "Ġnecess": 6078,
  "Ġnecessary": 9130,
  "Ġneed": 1341,
  "Ġneeded": 6259,
  "Ġneeds": 4980,
  "Ġneg": 3246,
  "Ġnegative": 7554,
  "Ġnegro": 7555,
  "Ġnetwork": 3899,
  "Ġnever": 4442,
  "Ġnew": 975,
  "Ġnews": 5544,
  "Ġnext": 3527,
  "Ġnice": 5885,
  "Ġnight": 5253,
  "Ġnit": 10222,
  "Ġno": 1137,
  "Ġnode": 5543,
  "Ġnodes": 6725,
  "Ġnom": 4029,
  "Ġnombre": 6077,
  "Ġnon": 1963,
  "Ġnon-": 3247,
  "Ġnonlinear": 11744,
  "Ġnord": 7553,
  "Ġnorm": 3526,
  "Ġnormal": 5408,
  "Ġnorte": 7896,
  "Ġnose": 8682,
  "Ġnoseble": 11745,
  "Ġnot": 611,
  "Ġnotation": 10223,
  "Ġnote": 2932,
  "Ġnote::": 4443,
  "Ġnotes": 10926,
  "Ġnovel": 6727,
  "Ġnow": 2537,
  "Ġnow.": 10927,
  "Ġnp.": 10925,
  "Ġnue": 11743,
  "Ġnull": 3628,
  "Ġnull|": 6486,
  "Ġnum": 742,
  "ĠnumPartitions": 3207,
  "ĠnumPartitions)": 11746,
  "Ġnumber": 1029,
  "Ġnumber.": 9646,
  "Ġnumber_of_times_to_upsample": 11747,
  "Ġnumbers": 3959,
  "Ġnumbers.": 10931,
  "Ġnumer": 10928,
  "Ġnumeros": 10929,
  "Ġnumpy": 10930,
  "Ġo": 300,
  "Ġob": 1033,
  "Ġobj": 3629,
  "Ġobject": 2149,
  "Ġobject.": 10934,
  "Ġobjects": 7897,
  "Ġobl": 9131,
  "Ġobserv": 4276,
  "Ġobst": 11749,
  "Ġobt": 10933,
  "Ġobtain": 5409,
  "Ġoc": 5886,
  "Ġocc": 3291,
  "Ġoccas": 11750,
  "Ġoccur": 6984,
  "ĠocÃ©": 10224,
  "ĠocÃ©ano": 10935,
  "Ġodd": 6728,
  "Ġof": 330,
  "Ġoff": 1173,
  "Ġoffer": 5710,
  "Ġoffers": 5545,
  "Ġoffic": 8683,
  "Ġoffice": 9132,
  "Ġofficial": 6730,
  "Ġoften": 5125,
  "Ġoil": 6983,
  "Ġold": 3368,
  "Ġolder": 11751,
  "Ġon": 420,
  "Ġon.": 10936,
  "Ġonce": 6985,
  "Ġone": 851,
  "Ġone.": 9648,
  "Ġonline": 7261,
  "Ġonly": 1342,
  "Ġont": 10225,
  "Ġop": 2898,
  "Ġopen": 2776,
  "Ġopening": 10226,
  "Ġoper": 1929,
  "Ġoperating": 8276,
  "Ġoperation": 7556,
  "Ġoperator": 4030,
  "Ġopport": 7898,
  "Ġopportunities": 11752,
  "Ġopt": 2220,
  "Ġoptim": 5711,
  "Ġoption": 9649,
  "Ġoptional": 10937,
  "Ġor": 541,
  "Ġord": 4277,
  "Ġorden": 6986,
  "Ġorder": 1930,
  "Ġordin": 11753,
  "Ġorgan": 4760,
  "Ġorient": 5887,
  "Ġorig": 2981,
  "Ġorigin": 7899,
  "Ġoriginal": 5888,
  "Ġos.": 6729,
  "Ġos.path.": 9133,
  "Ġoscill": 11748,
  "Ġot": 4758,
  "Ġother": 1047,
  "Ġother):": 9650,
  "Ġother.": 9651,
  "Ġothers": 10227,
  "Ġotros": 7900,
  "Ġou": 4759,
  "Ġour": 1156,
  "Ġout": 902,
  "Ġoutput": 3156,
  "Ġoutside": 11754,
  "Ġover": 1121,
  "Ġoverall": 9134,
  "Ġoverhead": 7557,
  "Ġow": 10932,
  "Ġown": 2743,
  "ĠoÃ¹": 9647,
  "Ġp": 301,
  "Ġp.": 6260,
  "Ġp.m.": 9654,
  "Ġpa": 3157,
  "Ġpa.": 9135,
  "Ġpack": 3248,
  "Ġpackage": 6261,
  "Ġpage": 7558,
  "Ġpaint": 10940,
  "Ġpair": 2982,
  "Ġpairs": 6488,
  "Ġpal": 5889,
  "Ġpan": 6487,
  "Ġpandas.": 11755,
  "Ġpap": 2933,
  "Ġpaper": 4870,
  "Ġpaper,": 10230,
  "Ġpar": 995,
  "Ġpara": 2685,
  "Ġparam": 3030,
  "Ġparameter": 5411,
  "Ġparameters": 9655,
  "Ġparent": 7559,
  "Ġpart": 805,
  "Ġparte": 10231,
  "Ġpartial": 5890,
  "Ġpartic": 2161,
  "Ġparticip": 7561,
  "Ġparticles": 10233,
  "Ġparticular": 3631,
  "Ġpartie": 7901,
  "Ġpartir": 9138,
  "Ġpartition": 1931,
  "ĠpartitionFunc": 8685,
  "Ġpartitions": 6079,
  "Ġpartitions.": 11760,
  "Ġparts": 5713,
  "ĠpartÃŃcul": 10232,
  "Ġpas": 5712,
  "Ġpass": 2606,
  "Ġpassed": 8279,
  "Ġpast": 4105,
  "Ġpat": 4193,
  "Ġpath": 3249,
  "Ġpattern": 9139,
  "Ġpay": 4548,
  "Ġpays": 5410,
  "ĠpaÃŃs": 6732,
  "ĠpaÃŃses": 11761,
  "Ġpe": 1482,
  "Ġpeople": 2205,
  "ĠpequeÃ±": 11762,
  "Ġper": 877,
  "Ġpercent": 5546,
  "Ġperfect": 8686,
  "Ġperform": 2129,
  "Ġperformance": 4031,
  "Ġperformed": 11765,
  "Ġperhaps": 10234,
  "Ġperiod": 3960,
  "Ġpero": 6988,
  "Ġperson": 2295,
  "Ġpersonal": 5714,
  "Ġpertenec": 11764,
  "Ġpeut": 11763,
  "Ġph": 1673,
  "Ġphone": 7902,
  "Ġphot": 4107,
  "Ġphotos": 10941,
  "Ġphys": 3903,
  "Ġphysical": 6262,
  "Ġpick": 3630,
  "Ġpie": 3072,
  "Ġpiece": 6080,
  "Ġpip": 11756,
  "Ġpipe": 11757,
  "Ġpl": 748,
  "Ġplace": 2934,
  "Ġplaced": 7903,
  "Ġplaces": 10235,
  "Ġplan": 1989,
  "Ġplane": 9140,
  "Ġplanet": 7904,
  "Ġplanets": 8280,
  "Ġplant": 4279,
  "Ġplantas": 5891,
  "Ġplastic": 10942,
  "Ġplay": 2538,
  "Ġplayers": 9656,
  "Ġple": 9136,
  "Ġplease": 4867,
  "Ġplot": 6489,
  "Ġplus": 2935,
  "Ġpm": 10938,
  "Ġpo": 9137,
  "Ġpob": 6731,
  "Ġpobl": 7262,
  "ĠpoblaciÃ³n": 8687,
  "Ġpod": 10939,
  "Ġpoint": 1241,
  "Ġpoint,": 11766,
  "Ġpoints": 2539,
  "Ġpol": 1366,
  "Ġpolar": 9141,
  "Ġpolic": 4549,
  "Ġpolice": 6081,
  "Ġpolicy": 6989,
  "Ġpolit": 5412,
  "Ġpolitical": 8688,
  "Ġpoll": 10943,
  "Ġpoly": 9142,
  "Ġpolyn": 7905,
  "Ġpolynomial": 8281,
  "ĠpolÃŃtic": 11767,
  "Ġpool": 8684,
  "Ġpop": 2562,
  "Ġpopul": 9143,
  "Ġpopular": 6990,
  "Ġpopulation": 6733,
  "Ġpor": 1265,
  "Ġport": 3528,
  "Ġpos": 1224,
  "Ġpose": 9652,
  "Ġposition": 4637,
  "Ġpositive": 4108,
  "Ġposs": 1840,
  "Ġpossib": 8282,
  "Ġpossible": 2540,
  "Ġpost": 2308,
  "Ġpot": 3574,
  "Ġpotential": 6734,
  "Ġpour": 3700,
  "Ġpower": 3369,
  "Ġpr": 1185,
  "Ġpract": 5126,
  "Ġpractice": 7906,
  "Ġpre": 1108,
  "Ġpre-": 11769,
  "Ġprec": 4761,
  "Ġpred": 9653,
  "Ġpredict": 4106,
  "Ġprefer": 11770,
  "Ġprefix": 7907,
  "Ġprem": 4194,
  "Ġpremier": 10236,
  "ĠpremiÃ¨re": 11772,
  "Ġprep": 9657,
  "Ġpres": 1393,
  "Ġpresence": 11773,
  "Ġpresent": 2777,
  "Ġpreserv": 4981,
  "Ġpreserves": 6991,
  "ĠpreservesPartition": 7263,
  "ĠpreservesPartitioning": 7562,
  "Ġpresident": 9144,
  "Ġpress": 7908,
  "Ġpretty": 4868,
  "Ġprevent": 11771,
  "Ġprevious": 5127,
  "Ġpric": 10228,
  "Ġprice": 5547,
  "Ġprices": 10229,
  "Ġprim": 3701,
  "Ġprime": 11768,
  "Ġprimer": 8283,
  "Ġprincip": 4280,
  "Ġprincipal": 7264,
  "Ġprint": 5548,
  "Ġprior": 8277,
  "Ġpriv": 8278,
  "Ġpro": 482,
  "Ġprob": 2330,
  "Ġprobabilities": 10945,
  "Ġprobability": 3702,
  "Ġprobably": 11774,
  "Ġproblem": 1665,
  "Ġproblem.": 9659,
  "Ġproblems": 4982,
  "Ġproced": 9658,
  "Ġproces": 7563,
  "Ġprocess": 2983,
  "Ġprodu": 1518,
  "Ġproduce": 9145,
  "Ġproduced": 11775,
  "Ġproduct": 2398,
  "Ġproduction": 8689,
  "Ġproducts": 7566,
  "Ġprof": 3111,
  "Ġprofess": 5413,
  "Ġprofessional": 7909,
  "Ġprog": 7564,
  "Ġprogram": 2836,
  "Ġprogress": 10237,
  "Ġproject": 3031,
  "Ġprojects": 11776,
  "Ġprom": 3900,
  "Ġproof": 7565,
  "Ġprop": 5128,
  "Ġproper": 2090,
  "Ġpropert": 3575,
  "Ġproperties": 5550,
  "Ġproperty": 4983,
  "Ġpropi": 10944,
  "Ġproport": 6263,
  "Ġproportion": 10946,
  "Ġpropos": 4281,
  "Ġproposal": 10238,
  "Ġprot": 6735,
  "Ġprote": 6264,
  "Ġprotect": 9146,
  "Ġprotocol": 10947,
  "Ġprov": 1249,
  "Ġprove": 5549,
  "Ġprovid": 2234,
  "Ġprovide": 3632,
  "Ġprovided": 4282,
  "Ġprovides": 5551,
  "Ġproviding": 8284,
  "Ġpseud": 7560,
  "Ġpubl": 4636,
  "Ġpublic": 3901,
  "Ġpublished": 7265,
  "Ġpued": 4278,
  "Ġpuede": 6736,
  "Ġpueden": 9147,
  "Ġpuis": 11758,
  "Ġpull": 11759,
  "Ġpur": 3902,
  "Ġpurch": 6265,
  "Ġpurchase": 10948,
  "Ġput": 3250,
  "Ġpy": 6987,
  "Ġpyspark.": 4869,
  "Ġpyspark.sql.": 9660,
  "Ġq": 3955,
  "Ġqu": 638,
  "Ġquad": 7910,
  "Ġqual": 9148,
  "Ġquality": 7266,
  "Ġquant": 3464,
  "Ġquantum": 5552,
  "Ġquarter": 9661,
  "Ġque": 984,
  "Ġquestion": 2580,
  "Ġquestions": 6082,
  "Ġqui": 3465,
  "Ġquick": 8690,
  "Ġquite": 6490,
  "Ġquot": 9149,
  "Ġquotient": 11777,
  "Ġr": 481,
  "Ġra": 2440,
  "Ġrad": 2256,
  "Ġradi": 4283,
  "Ġradical": 6994,
  "Ġradio": 8286,
  "Ġradius": 11782,
  "Ġrandom": 2309,
  "Ġrandom.": 9151,
  "Ġrange": 2512,
  "Ġrange(self.": 11783,
  "Ġrank": 6992,
  "Ġranked": 11784,
  "Ġrap": 9150,
  "Ġrapid": 10950,
  "Ġrat": 3032,
  "Ġrate": 2399,
  "Ġrates": 11778,
  "Ġrather": 7912,
  "Ġratio": 5553,
  "Ġrational": 6993,
  "Ġray": 11518,
  "Ġrdd": 1946,
  "Ġrdd.": 7267,
  "Ġre": 363,
  "Ġreach": 10240,
  "Ġread": 2331,
  "Ġreading": 10241,
  "Ġready": 8289,
  "Ġreal": 2400,
  "Ġreally": 3112,
  "Ġreason": 5129,
  "Ġrec": 1024,
  "Ġrecall": 11785,
  "Ġrece": 3251,
  "Ġreceive": 8693,
  "Ġreceived": 6266,
  "Ġrecent": 2936,
  "Ġrecently": 6083,
  "Ġrecogn": 5715,
  "Ġrecomm": 7270,
  "Ġrecommend": 8694,
  "Ġrecord": 3033,
  "Ġrecords": 11786,
  "Ġrect": 5554,
  "Ġred": 4871,
  "Ġredu": 1990,
  "Ġreduc": 10952,
  "Ġreduce": 3252,
  "Ġreduced": 11787,
  "Ġreduction": 9663,
  "Ġref": 4872,
  "Ġrefer": 9152,
  "Ġreference": 6995,
  "Ġreg": 1235,
  "Ġregard": 5130,
  "Ġregarding": 6997,
  "Ġregion": 8290,
  "Ġregist": 9664,
  "ĠregiÃ³n": 10953,
  "Ġregression": 7913,
  "Ġregul": 10242,
  "Ġregular": 3838,
  "Ġrel": 1415,
  "Ġrelated": 9153,
  "Ġrelation": 9665,
  "Ġrelations": 6491,
  "Ġrelationship": 8292,
  "Ġrelative": 6492,
  "Ġrele": 8692,
  "Ġrelease": 8287,
  "Ġrelig": 8291,
  "Ġrem": 1580,
  "Ġremain": 3466,
  "Ġremaining": 10243,
  "Ġremember": 11788,
  "Ġremove": 6998,
  "Ġrepe": 7268,
  "Ġreplac": 8288,
  "Ġreplacement": 9662,
  "Ġreport": 3158,
  "Ġreported": 7914,
  "Ġrepres": 2066,
  "Ġrepresent": 2542,
  "Ġrepresentation": 6999,
  "Ġrepresented": 9666,
  "Ġrepresents": 6084,
  "Ġreprodu": 10951,
  "Ġrequ": 2332,
  "Ġrequest": 10954,
  "Ġrequire": 5415,
  "Ġrequired": 7000,
  "Ġrequires": 8293,
  "Ġres": 850,
  "Ġrese": 4762,
  "Ġresearch": 5716,
  "Ġresid": 7915,
  "Ġresistance": 10955,
  "Ġresource": 9154,
  "Ġrespect": 3961,
  "Ġrespon": 3336,
  "Ġrespond": 11789,
  "Ġrespons": 8695,
  "Ġresponse": 4357,
  "Ġrest": 2581,
  "Ġrestaur": 9155,
  "Ġrestrict": 11790,
  "Ġresult": 1505,
  "Ġresulting": 5717,
  "Ġresults": 3633,
  "Ġret": 1446,
  "Ġreturn": 1764,
  "Ġreturned": 7567,
  "Ġreturns": 4358,
  "Ġrev": 6996,
  "Ġrevenue": 7269,
  "Ġreview": 5414,
  "Ġrevolution": 11791,
  "Ġride": 10239,
  "Ġrig": 11779,
  "Ġright": 1802,
  "Ġright,": 10956,
  "Ġrights": 10957,
  "Ġring": 11780,
  "Ġrisk": 7911,
  "Ġro": 1201,
  "Ġroad": 10958,
  "Ġrob": 7001,
  "Ġrock": 5131,
  "Ġroll": 8696,
  "Ġroom": 7271,
  "Ġroot": 8697,
  "Ġrot": 5254,
  "Ġround": 8691,
  "Ġrout": 11781,
  "Ġrow": 5507,
  "Ġrows": 6926,
  "Ġrule": 8285,
  "Ġrules": 10949,
  "Ġrun": 2541,
  "Ġrunning": 7916,
  "ĠrÃ©": 2712,
  "ĠrÃ©g": 7002,
  "ĠrÃ©gion": 7917,
  "ĠrÃ©publique": 10959,
  "Ġs": 281,
  "Ġs'": 10244,
  "Ġsa": 1016,
  "Ġsaf": 4875,
  "Ġsafe": 10963,
  "Ġsafety": 10245,
  "Ġsaid": 1408,
  "Ġsaid.": 3468,
  "Ġsal": 8294,
  "Ġsales": 9667,
  "Ġsame": 1803,
  "Ġsample": 2513,
  "Ġsampled": 11795,
  "Ġsamples": 8295,
  "Ġsampling": 6737,
  "Ġsat": 4984,
  "Ġsatisf": 7004,
  "Ġsav": 11792,
  "Ġsave": 5255,
  "Ġsaw": 6270,
  "Ġsay": 2633,
  "Ġsays": 7568,
  "Ġsc": 899,
  "Ġsc.": 2271,
  "Ġsc.parallelize": 2424,
  "Ġsc.parallelize([": 3073,
  "Ġsc.parallelize([(\"a\",": 11796,
  "Ġsc.parallelize([1,": 8300,
  "Ġsc.parallelize(range": 10247,
  "Ġscal": 8298,
  "Ġscale": 7919,
  "Ġscatter": 10964,
  "Ġscen": 9670,
  "Ġsch": 3467,
  "Ġsche": 3529,
  "Ġschedu": 8701,
  "Ġscheduled": 10965,
  "Ġschema": 5893,
  "Ġschool": 4109,
  "Ġscience": 9671,
  "Ġscore": 8299,
  "Ġscript": 10246,
  "Ġse": 518,
  "Ġsea": 8702,
  "Ġsearch": 6493,
  "Ġseason": 2984,
  "Ġsec": 5556,
  "Ġsecond": 2401,
  "Ġsection": 5258,
  "Ġsecurity": 6494,
  "Ġsee": 1972,
  "Ġseed": 2657,
  "Ġseed:": 11798,
  "Ġseem": 6741,
  "Ġseems": 5259,
  "Ġseen": 5557,
  "Ġseg": 4638,
  "Ġselect": 5133,
  "Ġselected": 10966,
  "Ġself": 3765,
  "Ġself.": 814,
  "Ġself._": 3962,
  "Ġself._j": 2236,
  "Ġself._jdf.": 4764,
  "Ġself._s": 4448,
  "Ġself._sc.": 9159,
  "Ġself.call(\"": 9672,
  "Ġself.ctx": 6495,
  "Ġself.map": 3905,
  "Ġself.map(lambda": 11799,
  "Ġself.mapPartitions": 5260,
  "Ġself.sql_ctx": 4032,
  "Ġself.sql_ctx)": 4639,
  "Ġsell": 5132,
  "Ġsem": 4284,
  "Ġsenior": 10960,
  "Ġsens": 6738,
  "Ġsense": 7918,
  "Ġsent": 6267,
  "Ġsepar": 3703,
  "Ġseparate": 10248,
  "Ġseq": 11797,
  "Ġsequ": 7920,
  "Ġsequence": 4447,
  "Ġser": 1780,
  "Ġseries": 3906,
  "Ġserious": 11800,
  "Ġserv": 2067,
  "Ġserve": 9673,
  "Ġservic": 8703,
  "Ġservice": 3530,
  "Ġservices": 9674,
  "Ġses": 7569,
  "Ġset": 1102,
  "Ġset.": 10249,
  "Ġsets": 8704,
  "Ġsetting": 9160,
  "Ġsever": 3904,
  "Ġseveral": 4033,
  "Ġsh": 687,
  "Ġshad": 10250,
  "Ġshap": 7921,
  "Ġshape": 9675,
  "Ġshare": 6085,
  "Ġshares": 10967,
  "Ġshe": 2206,
  "Ġship": 3963,
  "Ġshipping": 7274,
  "Ġshop": 9676,
  "Ġshort": 5134,
  "Ġshould": 1416,
  "Ġshow": 1559,
  "Ġshown": 6271,
  "Ġshows": 7005,
  "Ġsi": 6739,
  "Ġside": 4873,
  "Ġsides": 8698,
  "Ġsign": 1859,
  "Ġsignal": 9677,
  "Ġsignific": 4550,
  "Ġsignificant": 6272,
  "Ġsil": 5892,
  "Ġsim": 1303,
  "Ġsimil": 11801,
  "Ġsimilar": 4285,
  "Ġsimpl": 6273,
  "Ġsimple": 3839,
  "Ġsimply": 6086,
  "Ġsin": 4444,
  "Ġsince": 2655,
  "Ġsing": 8296,
  "Ġsingle": 2744,
  "Ġsistem": 6268,
  "Ġsistema": 9678,
  "Ġsit": 2543,
  "Ġsite": 4445,
  "Ġsites": 10251,
  "Ġsitu": 3964,
  "Ġsituation": 11802,
  "Ġsix": 5256,
  "Ġsize": 2351,
  "Ġsize.": 11803,
  "Ġsk": 4874,
  "Ġsl": 2422,
  "Ġslide": 6087,
  "ĠslideDuration": 8301,
  "Ġsliding": 11804,
  "Ġslight": 8705,
  "Ġslightly": 11805,
  "Ġslope": 7272,
  "Ġslow": 7273,
  "Ġsm": 7003,
  "Ġsmall": 2447,
  "Ġsmaller": 7922,
  "Ġsn": 11793,
  "Ġsnow": 10961,
  "Ġso": 1045,
  "Ġsobre": 8297,
  "Ġsoc": 9668,
  "Ġsoci": 8699,
  "Ġsocial": 6269,
  "Ġsoft": 4195,
  "Ġsoftware": 6742,
  "Ġsol": 1055,
  "Ġsold": 7006,
  "Ġsolid": 6496,
  "Ġsolo": 8302,
  "Ġsolution": 1932,
  "Ġsolutions": 4449,
  "Ġsolve": 4985,
  "Ġsom": 2563,
  "Ġsome": 1072,
  "Ġsomeone": 4450,
  "Ġsometh": 2713,
  "Ġsomething": 2937,
  "Ġsometimes": 9156,
  "Ġson": 1601,
  "Ġsong": 9157,
  "Ġsont": 9158,
  "Ġsor": 9669,
  "Ġsort": 2235,
  "Ġsorted": 4196,
  "Ġsou": 6740,
  "Ġsound": 5555,
  "Ġsource": 4446,
  "Ġsous": 7570,
  "Ġsp": 1079,
  "Ġspace": 2686,
  "Ġspace.": 11806,
  "Ġspaces": 6274,
  "Ġspark.": 10962,
  "Ġspat": 10252,
  "Ġspe": 2656,
  "Ġspeak": 7007,
  "Ġspec": 1355,
  "Ġspecial": 4359,
  "Ġspecific": 3965,
  "Ġspecified": 3159,
  "Ġspecified,": 11807,
  "Ġspecify": 10254,
  "Ġspect": 4763,
  "Ġspectral": 11808,
  "Ġspeed": 4551,
  "Ġspent": 10253,
  "Ġspl": 11794,
  "Ġsplit": 5416,
  "Ġsquare": 5257,
  "Ġst": 443,
  "Ġstaff": 6497,
  "Ġstand": 2714,
  "Ġstandard": 3409,
  "Ġstar": 9161,
  "Ġstart": 2003,
  "Ġstarted": 7277,
  "Ġstarting": 7923,
  "Ġstat": 2352,
  "Ġstate": 2068,
  "Ġstatement": 7278,
  "Ġstates": 7275,
  "Ġstatistics": 10969,
  "Ġstay": 10255,
  "Ġste": 9679,
  "Ġstep": 4876,
  "Ġsteps": 11809,
  "Ġstill": 2778,
  "Ġstock": 7571,
  "Ġstop": 7008,
  "Ġstorage": 7572,
  "Ġstore": 11810,
  "Ġstory": 5718,
  "Ġstr": 2272,
  "Ġstr(": 9680,
  "Ġstra": 5719,
  "Ġstraight": 6743,
  "Ġstrateg": 11811,
  "Ġstre": 5135,
  "Ġstream": 7276,
  "Ġstreng": 7279,
  "Ġstrength": 10970,
  "Ġstri": 10968,
  "Ġstring": 2237,
  "Ġstring,": 8706,
  "Ġstring.": 11812,
  "Ġstrings": 10971,
  "Ġstrong": 4640,
  "Ġstru": 10256,
  "Ġstruct": 3469,
  "Ġstructure": 6744,
  "Ġstud": 1449,
  "Ġstudent": 4110,
  "Ġstudents": 3470,
  "Ġstudied": 10972,
  "Ġstudy": 4451,
  "Ġsty": 9162,
  "Ġstyle": 3576,
  "Ġstyle=\"": 5136,
  "Ġstyle=\"background:#": 6088,
  "Ġstyle=\"background:#ccddff;\"": 6275,
  "Ġstyles": 10973,
  "Ġsu": 588,
  "Ġsub": 1376,
  "Ġsubset": 5558,
  "Ġsubst": 11814,
  "Ġsubt": 8303,
  "Ġsucc": 4034,
  "Ġsuccess": 4986,
  "Ġsuch": 1781,
  "Ġsufficient": 11813,
  "Ġsugg": 6745,
  "Ġsuggest": 10974,
  "Ġsuite": 8707,
  "Ġsum": 2423,
  "Ġsummary": 8304,
  "Ġsun": 8700,
  "Ġsup": 1538,
  "Ġsuper": 3471,
  "Ġsuperficie": 7573,
  "Ġsupport": 2119,
  "Ġsupported": 8305,
  "Ġsur": 1804,
  "Ġsure": 3704,
  "Ġsurface": 7009,
  "Ġsus": 3408,
  "Ġsw": 5417,
  "Ġsy": 1149,
  "Ġsym": 5559,
  "Ġsymbol": 4987,
  "Ġsymmet": 10257,
  "Ġsyn": 9681,
  "Ġsynt": 6746,
  "Ġsynthetic": 11815,
  "Ġsyst": 1723,
  "Ġsystem": 2130,
  "Ġsystem,": 10975,
  "Ġsystem.": 9682,
  "Ġsystems": 7280,
  "Ġt": 267,
  "Ġtable": 4877,
  "Ġtak": 2544,
  "Ġtake": 2162,
  "Ġtaken": 4988,
  "Ġtakes": 5894,
  "Ġtaking": 8309,
  "Ġtal": 8708,
  "Ġtalk": 5560,
  "ĠtambiÃ©n": 5418,
  "Ġtang": 8709,
  "Ġtant": 5720,
  "Ġtanto": 9165,
  "Ġtarget": 8710,
  "Ġtask": 7010,
  "Ġtax": 4197,
  "Ġte": 1028,
  "Ġteach": 9683,
  "Ġteacher": 9166,
  "Ġteam": 2634,
  "Ġteams": 9684,
  "Ġtechn": 3074,
  "Ġtechniques": 10979,
  "Ġtechnology": 11817,
  "Ġtell": 4641,
  "Ġtem": 2514,
  "Ġtemper": 4642,
  "Ġtemperature": 5895,
  "Ġtempl": 11818,
  "Ġten": 8306,
  "Ġtend": 9163,
  "Ġtens": 10976,
  "Ġter": 4286,
  "Ġterm": 1812,
  "Ġterms": 4765,
  "Ġterrit": 6750,
  "Ġtest": 2377,
  "Ġtext": 2688,
  "Ġth": 353,
  "Ġthan": 1214,
  "Ġthanks": 8712,
  "Ġthat": 457,
  "Ġthat's": 10982,
  "Ġthat,": 8310,
  "Ġthe": 287,
  "Ġtheir": 1138,
  "Ġthem": 1469,
  "Ġthem.": 7924,
  "Ġthemsel": 9167,
  "Ġthen": 1250,
  "Ġtheore": 9685,
  "Ġtheorem": 4111,
  "Ġtheorem,": 11819,
  "Ġtheory": 3840,
  "Ġthere": 1109,
  "Ġtherefore": 5721,
  "Ġthese": 1656,
  "Ġthey": 1209,
  "Ġthing": 4198,
  "Ġthings": 4878,
  "Ġthink": 2131,
  "Ġthinking": 10983,
  "Ġthird": 5261,
  "Ġthis": 598,
  "Ġthis,": 8713,
  "Ġthose": 2658,
  "Ġthough": 3208,
  "Ġthought": 6501,
  "Ġthread": 6500,
  "Ġthreads": 11820,
  "Ġthreat": 10980,
  "Ġthree": 2353,
  "Ġthrough": 2171,
  "Ġthus": 10981,
  "Ġtick": 8711,
  "Ġtien": 4552,
  "Ġtiene": 6751,
  "Ġtienen": 9686,
  "Ġtim": 6747,
  "Ġtime": 1019,
  "Ġtime,": 5722,
  "Ġtime.": 5137,
  "Ġtimes": 4360,
  "Ġtimestamp": 6498,
  "Ġtimezone": 4643,
  "Ġtip": 6499,
  "Ġtipo": 9168,
  "Ġtit": 10977,
  "Ġtitle": 7281,
  "Ġto": 336,
  "Ġtoday": 3705,
  "Ġtodo": 10258,
  "Ġtogether": 5262,
  "Ġtold": 6089,
  "Ġtoo": 4199,
  "Ġtoo.": 8311,
  "Ġtook": 5896,
  "Ġtool": 4989,
  "Ġtop": 1754,
  "Ġtopic": 5564,
  "Ġtopics": 9169,
  "Ġtotal": 2515,
  "Ġtou": 6748,
  "Ġtouch": 9687,
  "Ġtour": 9164,
  "Ġtoward": 5563,
  "Ġtowards": 10259,
  "Ġtown": 11821,
  "Ġtr": 744,
  "Ġtra": 1435,
  "Ġtrack": 6502,
  "Ġtrad": 3966,
  "Ġtrade": 6752,
  "Ġtrain": 2813,
  "Ġtraining": 4990,
  "Ġtrans": 1470,
  "Ġtransfer": 7282,
  "Ġtransform": 4361,
  "Ġtransformation": 9688,
  "Ġtransition": 9689,
  "Ġtransl": 7011,
  "Ġtrav": 10984,
  "Ġtravel": 8714,
  "ĠtravÃ©s": 11822,
  "Ġtre": 3370,
  "Ġtreat": 6749,
  "Ġtree": 5561,
  "Ġtrend": 7574,
  "Ġtres": 10978,
  "Ġtri": 2402,
  "Ġtriangle": 9690,
  "Ġtrick": 10260,
  "Ġtried": 7283,
  "Ġtrou": 6090,
  "Ġtruck": 10261,
  "Ġtrue": 3577,
  "Ġtry": 6276,
  "Ġtrying": 4112,
  "Ġtuple": 5562,
  "Ġturn": 3410,
  "Ġturned": 9691,
  "Ġturns": 7925,
  "Ġtw": 8307,
  "Ġtwo": 1112,
  "Ġtyp": 2687,
  "Ġtype": 1602,
  "Ġtype(dt": 7575,
  "Ġtype(dt)": 7926,
  "Ġtypes": 4991,
  "Ġtypes.": 7284,
  "Ġt}": 11816,
  "ĠtÃ©": 8308,
  "ĠtÃ©rm": 9692,
  "Ġu": 2923,
  "Ġub": 10739,
  "Ġun": 517,
  "Ġuna": 1464,
  "Ġunder": 1546,
  "Ġunderlying": 9693,
  "Ġunderstand": 3707,
  "Ġunderstanding": 8312,
  "Ġune": 2938,
  "Ġunemploy": 7285,
  "Ġunemployment": 7927,
  "Ġunic": 11823,
  "Ġuniform": 7576,
  "Ġuniformly": 11824,
  "Ġunion": 10262,
  "Ġunique": 4644,
  "Ġunit": 3706,
  "Ġunits": 10263,
  "Ġuno": 10985,
  "Ġuntil": 5723,
  "Ġup": 1031,
  "Ġupd": 8715,
  "Ġupdate": 7577,
  "Ġupon": 10264,
  "Ġurb": 11519,
  "Ġurn": 8591,
  "Ġus": 579,
  "Ġusage": 10265,
  "Ġuse": 1154,
  "Ġused": 1367,
  "Ġused.": 8716,
  "Ġuseful": 9170,
  "Ġuser": 5565,
  "Ġusers": 7928,
  "Ġuses": 10266,
  "Ġusing": 1215,
  "Ġusual": 10267,
  "Ġusually": 7578,
  "Ġutil": 4343,
  "Ġutiliz": 8717,
  "Ġv": 488,
  "Ġv)": 10268,
  "Ġvac": 10269,
  "Ġval": 875,
  "Ġvalid": 10986,
  "Ġvalu": 6092,
  "Ġvalue": 1257,
  "Ġvalue,": 10271,
  "Ġvalue.": 10987,
  "Ġvalues": 2014,
  "Ġvalues.": 10270,
  "Ġvari": 1281,
  "Ġvariabl": 9695,
  "Ġvariable": 4035,
  "Ġvariables": 5419,
  "Ġvariance": 11826,
  "Ġvariation": 9696,
  "Ġvariety": 7287,
  "Ġvarious": 6093,
  "Ġve": 1596,
  "Ġveces": 6094,
  "Ġvector": 2582,
  "Ġvectors": 10988,
  "Ġveloc": 11825,
  "Ġven": 9694,
  "Ġver": 1778,
  "Ġvers": 10989,
  "Ġversion": 3634,
  "Ġvertic": 11827,
  "Ġvery": 2063,
  "Ġvez": 8314,
  "Ġvia": 4766,
  "Ġvict": 7286,
  "Ġvideo": 8313,
  "Ġview": 4200,
  "Ġviol": 6091,
  "Ġvirt": 8718,
  "Ġvirtual": 10990,
  "Ġvis": 2471,
  "Ġvisible": 10991,
  "Ġvisit": 8315,
  "Ġvisual": 6503,
  "Ġvol": 4201,
  "Ġvot": 7579,
  "Ġw": 308,
  "Ġwait": 7929,
  "Ġwalk": 8316,
  "Ġwall": 11828,
  "Ġwant": 2132,
  "Ġwar": 6504,
  "Ġwas": 791,
  "Ġwatch": 10992,
  "Ġwater": 5897,
  "Ġwav": 7288,
  "Ġwave": 9171,
  "Ġwavelength": 11830,
  "Ġway": 2105,
  "Ġways": 10272,
  "Ġwe": 571,
  "Ġwe're": 9697,
  "Ġweak": 10994,
  "Ġwear": 10274,
  "Ġweb": 7583,
  "Ġwebs": 7930,
  "Ġwebsite": 10995,
  "Ġweek": 2296,
  "Ġweek,": 11831,
  "Ġweekend": 7584,
  "Ġweight": 4202,
  "Ġwell": 1902,
  "Ġwell-": 11832,
  "Ġwent": 6505,
  "Ġwere": 1657,
  "Ġwh": 554,
  "Ġwhat": 1269,
  "Ġwhe": 829,
  "Ġwhen": 1323,
  "Ġwhere": 1430,
  "Ġwhether": 4287,
  "Ġwhich": 903,
  "Ġwhile": 2545,
  "Ġwhite": 9172,
  "Ġwho": 1309,
  "Ġwhole": 5138,
  "Ġwhose": 7931,
  "Ġwhy": 3472,
  "Ġwide": 10993,
  "Ġwidth": 7580,
  "Ġwill": 759,
  "Ġwilling": 10275,
  "Ġwin": 3209,
  "Ġwindow": 3075,
  "Ġwinter": 9698,
  "Ġwish": 10273,
  "Ġwith": 506,
  "ĠwithReplacement": 11833,
  "Ġwithin": 3253,
  "Ġwithout": 3113,
  "Ġwomen": 7581,
  "Ġwon": 3531,
  "Ġwon't": 9173,
  "Ġwonder": 9174,
  "Ġwor": 7289,
  "Ġword": 3635,
  "Ġwords": 11834,
  "Ġwork": 1186,
  "Ġwork.": 10996,
  "Ġworkers": 11835,
  "Ġworking": 4879,
  "Ġworks": 5263,
  "Ġworld": 3411,
  "Ġworth": 7582,
  "Ġwould": 1103,
  "Ġwr": 3292,
  "Ġwrit": 3907,
  "Ġwrite": 6095,
  "Ġwritten": 7012,
  "Ġwrong": 5566,
  "Ġwrote": 11829,
  "Ġx": 1010,
  "Ġx,": 10997,
  "Ġx:": 4036,
  "Ġy": 405,
  "Ġy_{": 4992,
  "Ġya": 10998,
  "Ġyear": 1372,
  "Ġyear,": 7932,
  "Ġyear.": 5898,
  "Ġyears": 3636,
  "Ġyears,": 8317,
  "Ġyears.": 11836,
  "Ġyet": 6277,
  "Ġyou": 525,
  "Ġyou're": 7013,
  "Ġyoung": 5724,
  "Ġyour": 985,
  "Ġyourself": 9699,
  "Ġz": 1680,
  "Ġzero": 4203,
  "ĠzeroValue": 10276,
  "Ġzip": 7933,
  "Ġ{": 1078,
  "Ġ{/eq}": 10277,
  "Ġ{\\": 5264,
  "Ġ{x": 9175,
  "Ġ{}": 9700,
  "Ġ|": 1809,
  "Ġ}": 4014,
  "Ġ~": 9003,
  "ĠÂ": 1421,
  "ĠÂ«": 2188,
  "ĠÂ»": 2939,
  "ĠÂł": 6031,
  "ĠÂłĠ": 5095,
  "ĠÂłĠÂłĠ": 11520,
  "ĠÃ": 1100,
  "ĠÃ¡": 5096,
  "ĠÃ¡rb": 9176,
  "ĠÃ¢âĤ¬": 10999,
  "ĠÃ©": 1735,
  "ĠÃ©lÃ©": 11837,
  "ĠÃ©t": 4880,
  "ĠÃ©ta": 10278,
  "ĠÃº": 7934,
  "ĠÃģ": 11000,
  "ĠÃī": 5567,
  "ĠÃł": 1506,
  "ĠÎ": 5097,
  "Ġà¤": 265,
  "Ġà¤¡": 3160,
  "Ġà¤¡à¤¿à¤Ĺà¥įà¤°à¥Ģ": 10279,
  "Ġà¤¡à¥ī": 8719,
  "Ġà¤¢": 11001,
  "Ġà¤¤": 706,
  "Ġà¤¤à¤¥à¤¾": 1830,
  "Ġà¤¤à¤¬": 11838,
  "Ġà¤¤à¤°": 5568,
  "Ġà¤¤à¤°à¤¹": 8720,
  "Ġà¤¤à¤ķ": 2015,
  "Ġà¤¤à¤Ł": 7290,
  "Ġà¤¤à¥Ģà¤¨": 5266,
  "Ġà¤¤à¥Ģà¤¸": 11002,
  "Ġà¤¤à¥ģà¤²": 11839,
  "Ġà¤¤à¥ĭ": 4288,
  "Ġà¤¤à¥Įà¤°": 11840,
  "Ġà¤¤à¥įà¤°": 11003,
  "Ġà¤¥": 820,
  "Ġà¤¥à¤¾": 3708,
  "Ġà¤¥à¤¾,": 8319,
  "Ġà¤¥à¤¾à¤Ī": 7935,
  "Ġà¤¥à¤¾à¤Īà¤²à¥Īà¤Ĥà¤¡": 11842,
  "Ġà¤¥à¤¾à¥¤": 1874,
  "Ġà¤¥à¥Ģ": 11841,
  "Ġà¤¥à¥Ģà¤Ĥ": 7014,
  "Ġà¤¥à¥Ģà¤Ĥà¥¤": 9701,
  "Ġà¤¥à¥Ģà¥¤": 3532,
  "Ġà¤¥à¥ĩ": 1765,
  "Ġà¤¥à¥ĩ,": 6753,
  "Ġà¤¥à¥ĩà¥¤": 2779,
  "Ġà¤¦": 545,
  "Ġà¤¦à¤°à¥įà¤¶à¤¨": 5899,
  "Ġà¤¦à¤¶": 7936,
  "Ġà¤¦à¤¶à¤ķ": 9705,
  "Ġà¤¦à¤¿à¤¨": 5420,
  "Ġà¤¦à¤¿à¤¯à¤¾": 3294,
  "Ġà¤¦à¤¿à¤¯à¤¾à¥¤": 11843,
  "Ġà¤¦à¤¿à¤²": 6278,
  "Ġà¤¦à¤¿à¤²à¥įà¤²à¥Ģ": 9178,
  "Ġà¤¦à¤¿à¤¶": 7291,
  "Ġà¤¦à¤¿à¤¶à¤¾": 11004,
  "Ġà¤¦à¤¿à¤¸": 9702,
  "Ġà¤¦à¤¿à¤¸à¤®à¥įà¤¬à¤°": 11844,
  "Ġà¤¦à¤¿à¤ĸ": 9703,
  "Ġà¤¦à¤ķà¥įà¤·à¤¿à¤£": 2310,
  "Ġà¤¦à¥Ģ": 7937,
  "Ġà¤¦à¥ģà¤¨à¤¿à¤¯à¤¾": 5725,
  "Ġà¤¦à¥Ĥà¤°": 9704,
  "Ġà¤¦à¥Ĥà¤¸": 4289,
  "Ġà¤¦à¥Ĥà¤¸à¤°à¤¾": 9706,
  "Ġà¤¦à¥Ĥà¤¸à¤°à¥ĩ": 9179,
  "Ġà¤¦à¥ĥà¤·à¥įà¤Łà¤¿": 8320,
  "Ġà¤¦à¥ĩ": 1903,
  "Ġà¤¦à¥ĩà¤µ": 3908,
  "Ġà¤¦à¥ĩà¤µà¤¨à¤¾à¤Ĺà¤°à¥Ģ": 9180,
  "Ġà¤¦à¥ĩà¤¶": 2106,
  "Ġà¤¦à¥ĩà¤¶à¥ĭà¤Ĥ": 5139,
  "Ġà¤¦à¥ĩà¤ĸ": 4553,
  "Ġà¤¦à¥ĩà¤ĸà¥ĩà¤Ĥ": 9181,
  "Ġà¤¦à¥ĭ": 2940,
  "Ġà¤¦à¥ĭà¤¨à¥ĭà¤Ĥ": 6279,
  "Ġà¤¦à¥Įà¤°": 6096,
  "Ġà¤¦à¥Įà¤°à¤¾à¤¨": 6280,
  "Ġà¤¦à¥įà¤µ": 2016,
  "Ġà¤¦à¥įà¤µà¤¾à¤°à¤¾": 2715,
  "Ġà¤¦à¥įà¤µà¥Ģà¤ª": 9182,
  "Ġà¤§": 1343,
  "Ġà¤§à¤°à¥įà¤®": 2091,
  "Ġà¤§à¤¾à¤°à¤£": 11845,
  "Ġà¤¨": 548,
  "Ġà¤¨à¤¦": 9707,
  "Ġà¤¨à¤¦à¥Ģ": 6506,
  "Ġà¤¨à¤®": 4453,
  "Ġà¤¨à¤®à¤ĥ": 4881,
  "Ġà¤¨à¤µ": 7015,
  "Ġà¤¨à¤¹à¥Ģà¤Ĥ": 2472,
  "Ġà¤¨à¤¾à¤®": 1560,
  "Ġà¤¨à¤¿à¤¯": 5569,
  "Ġà¤¨à¤¿à¤°": 3843,
  "Ġà¤¨à¤¿à¤°à¥įà¤®": 8721,
  "Ġà¤¨à¤¿à¤°à¥įà¤®à¤¾à¤£": 11846,
  "Ġà¤¨à¤¿à¤ķ": 7016,
  "Ġà¤¨à¤Ĺà¤°": 4290,
  "Ġà¤¨à¥ĥà¤¤à¥įà¤¯": 8321,
  "Ġà¤¨à¥ĩ": 1168,
  "Ġà¤¨à¥ĩà¤ªà¤¾à¤²": 5267,
  "Ġà¤ª": 391,
  "Ġà¤ªà¤¡à¤¼": 5900,
  "Ġà¤ªà¤¤à¥įà¤°": 9708,
  "Ġà¤ªà¤¦": 7938,
  "Ġà¤ªà¤°": 862,
  "Ġà¤ªà¤°à¤®": 6508,
  "Ġà¤ªà¤°à¤®à¥įà¤ª": 11847,
  "Ġà¤ªà¤°à¤¿à¤µ": 5140,
  "Ġà¤ªà¤°à¤¿à¤µà¤¾à¤°": 7017,
  "Ġà¤ªà¤°à¤¿à¤Ńà¤¾à¤·": 9709,
  "Ġà¤ªà¤°à¥įà¤¯": 8323,
  "Ġà¤ªà¤°à¥įà¤µ": 6281,
  "Ġà¤ªà¤°à¥įà¤µà¤¤": 7018,
  "Ġà¤ªà¤¶à¥įà¤ļà¤¿à¤®": 2837,
  "Ġà¤ªà¤¶à¥įà¤ļà¤¿à¤®à¥Ģ": 7292,
  "Ġà¤ªà¤¹": 8322,
  "Ġà¤ªà¤¹à¤²": 2490,
  "Ġà¤ªà¤¹à¤²à¥Ģ": 8725,
  "Ġà¤ªà¤¹à¤²à¥ĩ": 3533,
  "Ġà¤ªà¤¾à¤°": 4882,
  "Ġà¤ªà¤¾à¤°à¥įà¤Łà¥Ģ": 7585,
  "Ġà¤ªà¤¾à¤ģà¤ļ": 7939,
  "Ġà¤ªà¤¾à¤ķà¤¿à¤¸à¥įà¤¤à¤¾à¤¨": 2583,
  "Ġà¤ªà¤¿à¤¤à¤¾": 8722,
  "Ġà¤ªà¤Ĥà¤ļ": 11005,
  "Ġà¤ªà¤Ĥà¤ľà¤¾à¤¬": 4037,
  "Ġà¤ªà¥Ģ": 8723,
  "Ġà¤ªà¥ģ": 6507,
  "Ġà¤ªà¥ģà¤¤à¥įà¤°": 11006,
  "Ġà¤ªà¥ģà¤°": 3578,
  "Ġà¤ªà¥Ĥ": 1453,
  "Ġà¤ªà¥Ĥà¤°à¥ĩ": 9710,
  "Ġà¤ªà¥Ĥà¤°à¥įà¤£": 9183,
  "Ġà¤ªà¥Ĥà¤°à¥įà¤µ": 2050,
  "Ġà¤ªà¥Ĥà¤°à¥įà¤µà¥Ģ": 7586,
  "Ġà¤ªà¥Ĥà¤ľ": 7940,
  "Ġà¤ªà¥ĥà¤¥": 5268,
  "Ġà¤ªà¥ĥà¤¥à¥įà¤µà¥Ģ": 6282,
  "Ġà¤ªà¥Ī": 8724,
  "Ġà¤ªà¥įà¤°": 609,
  "Ġà¤ªà¥įà¤°à¤¤": 11848,
  "Ġà¤ªà¥įà¤°à¤¤à¤¿": 11007,
  "Ġà¤ªà¥įà¤°à¤¤à¤¿à¤": 5726,
  "Ġà¤ªà¥įà¤°à¤¤à¥įà¤¯": 8726,
  "Ġà¤ªà¥įà¤°à¤¤à¥įà¤¯à¥ĩà¤ķ": 10281,
  "Ġà¤ªà¥įà¤°à¤¥à¤®": 6754,
  "Ġà¤ªà¥įà¤°à¤¦à¥ĩà¤¶": 2092,
  "Ġà¤ªà¥įà¤°à¤§à¤¾à¤¨": 3412,
  "Ġà¤ªà¥įà¤°à¤§à¤¾à¤¨à¤®à¤¨à¥įà¤¤à¥įà¤°à¥Ģ": 8324,
  "Ġà¤ªà¥įà¤°à¤§à¤¾à¤¨à¤®à¤Ĥà¤¤à¥įà¤°à¥Ģ": 6283,
  "Ġà¤ªà¥įà¤°à¤®à¥ģà¤ĸ": 3371,
  "Ġà¤ªà¥įà¤°à¤¯": 6755,
  "Ġà¤ªà¥įà¤°à¤¯à¥ĭà¤Ĺ": 7941,
  "Ġà¤ªà¥įà¤°à¤µ": 8727,
  "Ġà¤ªà¥įà¤°à¤¶": 9711,
  "Ġà¤ªà¥įà¤°à¤¶à¤¾à¤¸": 9184,
  "Ġà¤ªà¥įà¤°à¤¸à¤¿à¤¦à¥įà¤§": 8728,
  "Ġà¤ªà¥įà¤°à¤¾à¤ªà¥įà¤¤": 5727,
  "Ġà¤ªà¥įà¤°à¤¾à¤¯": 9185,
  "Ġà¤ªà¥įà¤°à¤¾à¤°": 11008,
  "Ġà¤ªà¥įà¤°à¤¾à¤Ĥà¤¤": 9186,
  "Ġà¤ªà¥įà¤°à¤¾à¤ķà¥ĥà¤¤": 7942,
  "Ġà¤ªà¥įà¤°à¤¾à¤ķà¥ĥà¤¤à¤¿à¤ķ": 9187,
  "Ġà¤ªà¥įà¤°à¤¾à¤ļà¥Ģà¤¨": 3114,
  "Ġà¤ªà¥įà¤°à¤ķà¤¾à¤°": 5269,
  "Ġà¤ªà¥įà¤°à¤ķà¤¾à¤¶": 7943,
  "Ġà¤ªà¥įà¤°à¤ķà¥įà¤°": 10280,
  "Ġà¤ªà¥įà¤°à¤Ńà¤¾à¤µ": 7944,
  "Ġà¤«": 1860,
  "Ġà¤«à¤¼": 4767,
  "Ġà¤«à¤¿à¤°": 7945,
  "Ġà¤¬": 542,
  "Ġà¤¬à¤¡à¤¼": 2659,
  "Ġà¤¬à¤¡à¤¼à¤¾": 4768,
  "Ġà¤¬à¤¡à¤¼à¥Ģ": 11850,
  "Ġà¤¬à¤¡à¤¼à¥ĩ": 7587,
  "Ġà¤¬à¤¦": 7946,
  "Ġà¤¬à¤¨": 2333,
  "Ġà¤¬à¤¨à¤¾": 6097,
  "Ġà¤¬à¤¨à¤¾à¤¨à¥ĩ": 10283,
  "Ġà¤¬à¤¨à¤¾à¤¯à¤¾": 10284,
  "Ġà¤¬à¤°": 10282,
  "Ġà¤¬à¤¹": 2516,
  "Ġà¤¬à¤¹à¥ģà¤¤": 3766,
  "Ġà¤¬à¤¹à¥ģà¤®": 11851,
  "Ġà¤¬à¤¾à¤¤": 11849,
  "Ġà¤¬à¤¾à¤¦": 2004,
  "Ġà¤¬à¤¾à¤°": 4113,
  "Ġà¤¬à¤¾à¤°à¥ĩ": 11852,
  "Ġà¤¬à¤¾à¤¹": 9188,
  "Ġà¤¬à¤¾à¤Ĥà¤Ĺà¥įà¤²": 5141,
  "Ġà¤¬à¤¾à¤Ĥà¤Ĺà¥įà¤²à¤¾à¤¦à¥ĩà¤¶": 6509,
  "Ġà¤¬à¤¿à¤¹à¤¾à¤°": 8325,
  "Ġà¤¬à¤Ĥà¤Ĺ": 4362,
  "Ġà¤¬à¤Ĥà¤Ĺà¤¾à¤²": 5142,
  "Ġà¤¬à¥Ģà¤ļ": 6284,
  "Ġà¤¬à¥ĩ": 11009,
  "Ġà¤¬à¥Ī": 7947,
  "Ġà¤¬à¥ĭà¤²": 5421,
  "Ġà¤¬à¥ĭà¤²à¥Ģ": 11010,
  "Ġà¤¬à¥Į": 8326,
  "Ġà¤¬à¥Įà¤¦à¥įà¤§": 9189,
  "Ġà¤¬à¥įà¤°": 3076,
  "Ġà¤¬à¥įà¤°à¤¹à¥įà¤®": 7588,
  "Ġà¤¬à¥įà¤°à¤¿à¤Ł": 5901,
  "Ġà¤¬à¥įà¤°à¤¿à¤Łà¤¿à¤¶": 6756,
  "Ġà¤®": 377,
  "Ġà¤®à¤¤": 7019,
  "Ġà¤®à¤§à¥įà¤¯": 3579,
  "Ġà¤®à¤¨": 2448,
  "Ġà¤®à¤¨à¥ĭà¤µ": 5570,
  "Ġà¤®à¤¨à¥ĭà¤µà¤¿à¤ľà¥įà¤ŀà¤¾à¤¨": 7295,
  "Ġà¤®à¤°": 11011,
  "Ġà¤®à¤²": 5422,
  "Ġà¤®à¤²à¤¯": 9713,
  "Ġà¤®à¤¹": 1547,
  "Ġà¤®à¤¹à¤¤à¥įà¤µ": 11012,
  "Ġà¤®à¤¹à¤¾à¤¦à¥įà¤µà¥Ģà¤ª": 7589,
  "Ġà¤®à¤¹à¤¾à¤¨": 8729,
  "Ġà¤®à¤¹à¤¾à¤¸": 7949,
  "Ġà¤®à¤¹à¤¾à¤ķ": 11853,
  "Ġà¤®à¤¾à¤¤": 7293,
  "Ġà¤®à¤¾à¤¤à¤°à¤®": 11013,
  "Ġà¤®à¤¾à¤¨": 1666,
  "Ġà¤®à¤¾à¤¨à¤µ": 4038,
  "Ġà¤®à¤¾à¤¨à¤¸": 10285,
  "Ġà¤®à¤¾à¤¨à¤¾": 4995,
  "Ġà¤®à¤¾à¤°": 8327,
  "Ġà¤®à¤¿à¤²": 2660,
  "Ġà¤®à¤¿à¤²à¤¤à¤¾": 9714,
  "Ġà¤®à¤¿à¤²à¤¤à¥ĩ": 11854,
  "Ġà¤®à¤Ī": 7020,
  "Ġà¤®à¥Ģà¤²": 8328,
  "Ġà¤®à¥ģ": 2607,
  "Ġà¤®à¥ģà¤®à¥įà¤¬à¤Ī": 11855,
  "Ġà¤®à¥ģà¤¸": 9712,
  "Ġà¤®à¥ģà¤ĸ": 3077,
  "Ġà¤®à¥ģà¤ĸà¥įà¤¯": 3295,
  "Ġà¤®à¥Ĥà¤²": 4994,
  "Ġà¤®à¥ĩ": 3767,
  "Ġà¤®à¥ĩà¤Ĥ": 464,
  "Ġà¤®à¥ĩà¤Ĥ,": 5571,
  "Ġà¤®à¥Ī": 7294,
  "Ġà¤®à¥Į": 7948,
  "Ġà¤¯": 716,
  "Ġà¤¯à¤¹": 1260,
  "Ġà¤¯à¤¹à¤¾à¤ģ": 4554,
  "Ġà¤¯à¤¹à¤¾à¤Ĥ": 9190,
  "Ġà¤¯à¤¾": 1947,
  "Ġà¤¯à¥ģ": 4114,
  "Ġà¤¯à¥ģà¤¦à¥įà¤§": 6757,
  "Ġà¤¯à¥ģà¤Ĺ": 11015,
  "Ġà¤¯à¥Ĥà¤¨": 11014,
  "Ġà¤¯à¥Ĥà¤°": 3709,
  "Ġà¤¯à¥Ĥà¤°à¥ĭà¤ª": 4291,
  "Ġà¤¯à¥Ĥà¤°à¥ĭà¤ªà¥Ģà¤¯": 11016,
  "Ġà¤¯à¥ĩ": 5423,
  "Ġà¤¯à¥ĭà¤Ĺ": 4883,
  "Ġà¤¯à¥ĭà¤ľà¤¨à¤¾": 11856,
  "Ġà¤°": 538,
  "Ġà¤°à¤¸": 9715,
  "Ġà¤°à¤¹": 1713,
  "Ġà¤°à¤¹à¤¨à¥ĩ": 10286,
  "Ġà¤°à¤¹à¤¾": 5728,
  "Ġà¤°à¤¹à¥Ģà¤®": 10287,
  "Ġà¤°à¤¹à¥ĩ": 11018,
  "Ġà¤°à¤¹à¥ĩà¥¤": 8730,
  "Ġà¤°à¤¾à¤": 751,
  "Ġà¤°à¤¾à¤®": 5729,
  "Ġà¤°à¤¾à¤®à¤¾à¤¯à¤£": 11857,
  "Ġà¤°à¤¾à¤·à¥įà¤Łà¥įà¤°": 1916,
  "Ġà¤°à¤¾à¤·à¥įà¤Łà¥įà¤°à¤ªà¤¤à¤¿": 11858,
  "Ġà¤°à¤¾à¤·à¥įà¤Łà¥įà¤°à¥Ģà¤¯": 4555,
  "Ġà¤°à¤¾à¤ľ": 962,
  "Ġà¤°à¤¾à¤ľà¤§à¤¾à¤¨": 3534,
  "Ġà¤°à¤¾à¤ľà¤§à¤¾à¤¨à¥Ģ": 3768,
  "Ġà¤°à¤¾à¤ľà¤¸à¥įà¤¥à¤¾à¤¨": 6510,
  "Ġà¤°à¤¾à¤ľà¤¾": 8731,
  "Ġà¤°à¤¾à¤ľà¥įà¤¯": 1636,
  "Ġà¤°à¤¾à¤ľà¥įà¤¯à¥ĭà¤Ĥ": 6285,
  "Ġà¤°à¤ĸ": 4115,
  "Ġà¤°à¤ĸà¤¾": 11019,
  "Ġà¤°à¤ļ": 4645,
  "Ġà¤°à¤ļà¤¨à¤¾": 9717,
  "Ġà¤°à¥ģà¤ª": 9716,
  "Ġà¤°à¥Ĥà¤ª": 1539,
  "Ġà¤°à¥ĭ": 11017,
  "Ġà¤²": 661,
  "Ġà¤²à¤¾à¤¹à¥Įà¤°": 10288,
  "Ġà¤²à¤¾à¤ĸ": 9191,
  "Ġà¤²à¤¿à¤": 1417,
  "Ġà¤²à¤¿à¤ª": 2985,
  "Ġà¤²à¤¿à¤ªà¤¿": 3909,
  "Ġà¤²à¤¿à¤ªà¤¿,": 9718,
  "Ġà¤²à¤¿à¤¯à¤¾": 6511,
  "Ġà¤²à¤¿à¤¯à¥ĩ": 3769,
  "Ġà¤²à¤¿à¤ı": 2814,
  "Ġà¤²à¤¿à¤ĸ": 4363,
  "Ġà¤²à¤Ĺ": 3078,
  "Ġà¤²à¤Ĺà¤Ńà¤Ĺ": 4454,
  "Ġà¤²à¥ĩ": 2449,
  "Ġà¤²à¥ĩà¤ķà¤°": 8329,
  "Ġà¤²à¥ĩà¤ķà¤¿à¤¨": 5143,
  "Ġà¤²à¥ĩà¤ĸ": 11020,
  "Ġà¤²à¥ĭà¤ķ": 4039,
  "Ġà¤²à¥ĭà¤ķà¤¸à¤Ńà¤¾": 11021,
  "Ġà¤²à¥ĭà¤Ĺ": 2745,
  "Ġà¤²à¥ĭà¤Ĺà¥ĭà¤Ĥ": 5572,
  "Ġà¤µ": 473,
  "Ġà¤µà¤°à¥įà¤": 1973,
  "Ġà¤µà¤°à¥įà¤£": 7021,
  "Ġà¤µà¤°à¥įà¤¤à¤®à¤¾à¤¨": 8732,
  "Ġà¤µà¤°à¥įà¤·": 3161,
  "Ġà¤µà¤°à¥įà¤Ĺ": 5573,
  "Ġà¤µà¤¹": 3115,
  "Ġà¤µà¤¾à¤¦": 8733,
  "Ġà¤µà¤¾à¤¦à¥įà¤¯": 11861,
  "Ġà¤µà¤¾à¤¯": 10289,
  "Ġà¤µà¤¾à¤°": 10290,
  "Ġà¤µà¤¾à¤²": 2257,
  "Ġà¤µà¤¾à¤²à¤¾": 8734,
  "Ġà¤µà¤¾à¤²à¥Ģ": 5424,
  "Ġà¤µà¤¾à¤²à¥ĩ": 4455,
  "Ġà¤µà¤¾à¤¸": 11859,
  "Ġà¤µà¤¾à¤ľ": 11860,
  "Ġà¤µà¤¿à¤": 775,
  "Ġà¤µà¤¿à¤¦": 3911,
  "Ġà¤µà¤¿à¤¦à¥įà¤µà¤¾à¤¨": 9719,
  "Ġà¤µà¤¿à¤§": 6758,
  "Ġà¤µà¤¿à¤¨": 6759,
  "Ġà¤µà¤¿à¤¨à¤¾à¤¯à¤ķ": 7951,
  "Ġà¤µà¤¿à¤¨à¤¾à¤¯à¤ķà¤¾à¤¯": 8330,
  "Ġà¤µà¤¿à¤°": 11022,
  "Ġà¤µà¤¿à¤µ": 5902,
  "Ġà¤µà¤¿à¤¶": 1593,
  "Ġà¤µà¤¿à¤¶à¥ĩà¤·": 6512,
  "Ġà¤µà¤¿à¤¶à¥įà¤µ": 2133,
  "Ġà¤µà¤¿à¤¶à¥įà¤µà¤µà¤¿à¤¦à¥įà¤¯à¤¾à¤²à¤¯": 8735,
  "Ġà¤µà¤¿à¤·": 4116,
  "Ġà¤µà¤¿à¤·à¤¯": 7022,
  "Ġà¤µà¤¿à¤·à¥įà¤£": 8331,
  "Ġà¤µà¤¿à¤·à¥įà¤£à¥ģ": 11023,
  "Ġà¤µà¤¿à¤¸": 7950,
  "Ġà¤µà¤¿à¤¸à¥įà¤¤": 11024,
  "Ġà¤µà¤¿à¤ķ": 3910,
  "Ġà¤µà¤¿à¤ķà¤¸à¤¿à¤¤": 11025,
  "Ġà¤µà¤¿à¤ķà¤¾à¤¸": 5903,
  "Ġà¤µà¤¿à¤ļ": 11862,
  "Ġà¤µà¤¿à¤ľ": 4292,
  "Ġà¤µà¤¿à¤ľà¥įà¤ŀà¤¾à¤¨": 5270,
  "Ġà¤µà¤¿à¤Ń": 2780,
  "Ġà¤µà¤¿à¤Ńà¤¾à¤ľ": 6513,
  "Ġà¤µà¤¿à¤Ńà¤¾à¤ľà¤¨": 11863,
  "Ġà¤µà¤¿à¤Ńà¤¾à¤ľà¤¿à¤¤": 11864,
  "Ġà¤µà¤¿à¤Ńà¤¿à¤¨à¥įà¤¨": 4884,
  "Ġà¤µà¥ĩ": 2564,
  "Ġà¤µà¥ĩà¤¦": 11865,
  "Ġà¤µà¥Ī": 3474,
  "Ġà¤µà¥Īà¤¦à¤¿à¤ķ": 8332,
  "Ġà¤µà¥Īà¤ľà¥įà¤ŀà¤¾à¤¨à¤¿à¤ķ": 9192,
  "Ġà¤µà¥įà¤¯": 1831,
  "Ġà¤µà¥įà¤¯à¤µ": 3967,
  "Ġà¤µà¥įà¤¯à¤µà¤¸à¥įà¤¥à¤¾": 11027,
  "Ġà¤µà¥įà¤¯à¤µà¤¹à¤¾à¤°": 6760,
  "Ġà¤µà¥įà¤¯à¤¾à¤ª": 7023,
  "Ġà¤µà¥įà¤¯à¤ķà¥įà¤¤": 11866,
  "Ġà¤µà¥įà¤¯à¤ķà¥įà¤¤à¤¿": 11026,
  "Ġà¤¶": 682,
  "Ġà¤¶à¤¤": 4204,
  "Ġà¤¶à¤¤à¤¾à¤¬à¥įà¤¦": 4456,
  "Ġà¤¶à¤¤à¤¾à¤¬à¥įà¤¦à¥Ģ": 4769,
  "Ġà¤¶à¤¬à¥įà¤¦": 2017,
  "Ġà¤¶à¤¬à¥įà¤¦à¥ĭà¤Ĥ": 5904,
  "Ġà¤¶à¤¹à¤°": 3413,
  "Ġà¤¶à¤¾à¤®": 5730,
  "Ġà¤¶à¤¾à¤®à¤¿à¤²": 5905,
  "Ġà¤¶à¤¾à¤¸": 2491,
  "Ġà¤¶à¤¾à¤¸à¤¨": 6761,
  "Ġà¤¶à¤¾à¤¸à¥įà¤¤à¥įà¤°": 6514,
  "Ġà¤¶à¤¾à¤¸à¥įà¤¤à¥įà¤°à¥Ģ": 8736,
  "Ġà¤¶à¤¾à¤ĸ": 9720,
  "Ġà¤¶à¤¿à¤µ": 11867,
  "Ġà¤¶à¤¿à¤ķà¥įà¤·": 5144,
  "Ġà¤¶à¤¿à¤ķà¥įà¤·à¤¾": 6099,
  "Ġà¤¶à¥ģà¤°": 6098,
  "Ġà¤¶à¥ģà¤°à¥Ĥ": 9721,
  "Ġà¤¶à¥Ī": 9193,
  "Ġà¤¶à¥įà¤°": 7590,
  "Ġà¤¶à¥įà¤°à¥Ģ": 11028,
  "Ġà¤¸": 360,
  "Ġà¤¸à¤¤": 11868,
  "Ġà¤¸à¤¦": 4996,
  "Ġà¤¸à¤¦à¤¸à¥įà¤¯": 6515,
  "Ġà¤¸à¤¦à¥Ģ": 7024,
  "Ġà¤¸à¤¨": 4885,
  "Ġà¤¸à¤¨à¥į": 8738,
  "Ġà¤¸à¤¬": 1766,
  "Ġà¤¸à¤¬à¤¸à¥ĩ": 1917,
  "Ġà¤¸à¤®": 1080,
  "Ġà¤¸à¤®à¤¯": 3844,
  "Ġà¤¸à¤®à¤°à¥įà¤ªà¤¯à¤¾à¤®à¤¿": 11032,
  "Ġà¤¸à¤®à¤Ŀ": 6286,
  "Ġà¤¸à¤®à¥ģà¤¦à¥įà¤°": 8336,
  "Ġà¤¸à¤®à¥įà¤ª": 7296,
  "Ġà¤¸à¤®à¥įà¤¬": 6516,
  "Ġà¤¸à¤®à¥įà¤¬à¤¨à¥įà¤§": 7297,
  "Ġà¤¸à¤®à¥įà¤®": 6762,
  "Ġà¤¸à¤°": 4205,
  "Ġà¤¸à¤°à¤ķà¤¾à¤°": 5906,
  "Ġà¤¸à¤°à¥įà¤µ": 5425,
  "Ġà¤¸à¤¹": 4556,
  "Ġà¤¸à¤¾à¤¤": 10291,
  "Ġà¤¸à¤¾à¤¥": 2273,
  "Ġà¤¸à¤¾à¤§": 11029,
  "Ġà¤¸à¤¾à¤®": 3770,
  "Ġà¤¸à¤¾à¤®à¥įà¤°à¤¾à¤ľà¥įà¤¯": 9724,
  "Ġà¤¸à¤¾à¤°": 11869,
  "Ġà¤¸à¤¾à¤¹à¤¿à¤¤à¥įà¤¯": 4293,
  "Ġà¤¸à¤¾à¤Ĥ": 8333,
  "Ġà¤¸à¤¾à¤Ĥà¤¸à¥įà¤ķà¥ĥà¤¤à¤¿à¤ķ": 11873,
  "Ġà¤¸à¤¾à¤Ĺà¤°": 6100,
  "Ġà¤¸à¤¿à¤¦à¥įà¤§": 4997,
  "Ġà¤¸à¤¿à¤¦à¥įà¤§à¤¿": 7952,
  "Ġà¤¸à¤¿à¤Ĥ": 4886,
  "Ġà¤¸à¤¿à¤Ĥà¤§": 9195,
  "Ġà¤¸à¤¿à¤Ĥà¤¹": 9196,
  "Ġà¤¸à¤Ĥ": 884,
  "Ġà¤¸à¤Ĥà¤¬à¤Ĥà¤§": 7953,
  "Ġà¤¸à¤Ĥà¤¯à¥ģà¤ķà¥įà¤¤": 4558,
  "Ġà¤¸à¤Ĥà¤¸": 6287,
  "Ġà¤¸à¤Ĥà¤¸à¤¾à¤°": 11033,
  "Ġà¤¸à¤Ĥà¤¸à¥įà¤ķà¥ĥà¤¤": 2746,
  "Ġà¤¸à¤Ĥà¤¸à¥įà¤ķà¥ĥà¤¤à¤¿": 7591,
  "Ġà¤¸à¤Ĥà¤ĸà¥įà¤¯à¤¾": 7025,
  "Ġà¤¸à¤Ĥà¤Ĺ": 2838,
  "Ġà¤¸à¤Ĥà¤Ĺà¥Ģà¤¤": 4559,
  "Ġà¤¸à¤Ĥà¤ĺ": 6517,
  "Ġà¤¸à¤ķ": 3580,
  "Ġà¤¸à¤ķà¤¤à¤¾": 5907,
  "Ġà¤¸à¤Ń": 2899,
  "Ġà¤¸à¤Ńà¤¾": 9197,
  "Ġà¤¸à¤Ńà¥Ģ": 6518,
  "Ġà¤¸à¤Ńà¥įà¤¯à¤¤à¤¾": 8337,
  "Ġà¤¸à¥Ģ": 8334,
  "Ġà¤¸à¥Ģà¤®": 4557,
  "Ġà¤¸à¥Ģà¤®à¤¾": 6519,
  "Ġà¤¸à¥Ģà¤Ł": 11030,
  "Ġà¤¸à¥ģ": 9722,
  "Ġà¤¸à¥ģà¤¨": 11031,
  "Ġà¤¸à¥Ĥ": 3710,
  "Ġà¤¸à¥Ĥà¤¤à¥įà¤°": 7592,
  "Ġà¤¸à¥Ĥà¤°à¥įà¤¯": 8737,
  "Ġà¤¸à¥Ĥà¤ļà¥Ģ": 10292,
  "Ġà¤¸à¥ĥà¤·à¥įà¤Łà¤¿": 11870,
  "Ġà¤¸à¥ĩ": 647,
  "Ġà¤¸à¥Į": 9194,
  "Ġà¤¸à¥įà¤¥": 1447,
  "Ġà¤¸à¥įà¤¥à¤²": 11874,
  "Ġà¤¸à¥įà¤¥à¤¾à¤¨": 3337,
  "Ġà¤¸à¥įà¤¥à¤¾à¤ª": 5271,
  "Ġà¤¸à¥įà¤¥à¤¾à¤ªà¤¨à¤¾": 8739,
  "Ġà¤¸à¥įà¤¥à¤¿à¤¤": 2941,
  "Ġà¤¸à¥įà¤ª": 8335,
  "Ġà¤¸à¥įà¤ªà¤·à¥įà¤Ł": 10293,
  "Ġà¤¸à¥įà¤°à¥ĭà¤¤": 11871,
  "Ġà¤¸à¥įà¤µ": 2689,
  "Ġà¤¸à¥įà¤µà¤¯à¤Ĥ": 11034,
  "Ġà¤¸à¥įà¤µà¤°": 10294,
  "Ġà¤¸à¥įà¤ķ": 9723,
  "Ġà¤¸à¥įà¤Ł": 11872,
  "Ġà¤¹": 370,
  "Ġà¤¹à¤®": 8338,
  "Ġà¤¹à¤°": 5574,
  "Ġà¤¹à¤°à¤¿à¤¯à¤¾à¤£": 10296,
  "Ġà¤¹à¤¾à¤¥": 11875,
  "Ġà¤¹à¤¾à¤²": 9725,
  "Ġà¤¹à¤¿à¤¨à¥įà¤¦": 2747,
  "Ġà¤¹à¤¿à¤¨à¥įà¤¦à¥Ģ": 4647,
  "Ġà¤¹à¤¿à¤¨à¥įà¤¦à¥Ĥ": 7593,
  "Ġà¤¹à¤¿à¤®": 7026,
  "Ġà¤¹à¤¿à¤®à¤¾à¤ļà¤²": 10297,
  "Ġà¤¹à¤¿à¤¸": 5731,
  "Ġà¤¹à¤¿à¤¸à¥įà¤¸": 7027,
  "Ġà¤¹à¤¿à¤¸à¥įà¤¸à¤¾": 8740,
  "Ġà¤¹à¤¿à¤Ĥ": 4646,
  "Ġà¤¹à¤¿à¤Ĥà¤¦": 5575,
  "Ġà¤¹à¤¿à¤Ĥà¤¦à¥Ĥ": 7298,
  "Ġà¤¹à¤ľ": 11876,
  "Ġà¤¹à¥Ģ": 1540,
  "Ġà¤¹à¥Ģà¤°à¤¾": 11035,
  "Ġà¤¹à¥ģà¤": 1191,
  "Ġà¤¹à¥ģà¤Ĩ": 1841,
  "Ġà¤¹à¥ģà¤Ĩà¥¤": 4770,
  "Ġà¤¹à¥ģà¤Ī": 3254,
  "Ġà¤¹à¥ģà¤Īà¥¤": 8741,
  "Ġà¤¹à¥ģà¤ı": 3711,
  "Ġà¤¹à¥ĩ": 10295,
  "Ġà¤¹à¥Ī": 423,
  "Ġà¤¹à¥Ī,": 1603,
  "Ġà¤¹à¥Īà¤Ĥ": 856,
  "Ġà¤¹à¥Īà¤Ĥ,": 3338,
  "Ġà¤¹à¥Īà¤Ĥà¥¤": 1134,
  "Ġà¤¹à¥Īà¥¤": 618,
  "Ġà¤¹à¥ĭ": 1038,
  "Ġà¤¹à¥ĭà¤¤à¤¾": 2942,
  "Ġà¤¹à¥ĭà¤¤à¥Ģ": 6288,
  "Ġà¤¹à¥ĭà¤¤à¥ĩ": 5426,
  "Ġà¤¹à¥ĭà¤¨à¥ĩ": 4117,
  "Ġà¤¹à¥ĭà¤ķà¤°": 10298,
  "Ġà¤ħ": 504,
  "Ġà¤ħà¤¤à¥įà¤¯": 8742,
  "Ġà¤ħà¤¥": 9198,
  "Ġà¤ħà¤¥à¤µà¤¾": 10299,
  "Ġà¤ħà¤§": 1450,
  "Ġà¤ħà¤§à¤¿à¤ķ": 2172,
  "Ġà¤ħà¤§à¤¿à¤ķà¤¾à¤°": 9726,
  "Ġà¤ħà¤§à¤¿à¤ķà¤¾à¤Ĥà¤¶": 11879,
  "Ġà¤ħà¤§à¥įà¤¯": 3414,
  "Ġà¤ħà¤§à¥įà¤¯à¤¯à¤¨": 4999,
  "Ġà¤ħà¤§à¥įà¤¯à¤ķà¥įà¤·": 9727,
  "Ġà¤ħà¤¨": 1196,
  "Ġà¤ħà¤¨à¥ģ": 6521,
  "Ġà¤ħà¤¨à¥ģà¤¸": 2900,
  "Ġà¤ħà¤¨à¥ģà¤¸à¤¾à¤°": 3162,
  "Ġà¤ħà¤¨à¥ģà¤¸à¤¾à¤°,": 7594,
  "Ġà¤ħà¤¨à¥ĩ": 4998,
  "Ġà¤ħà¤¨à¥ĩà¤ķ": 5145,
  "Ġà¤ħà¤¨à¥įà¤¤": 8744,
  "Ġà¤ħà¤¨à¥įà¤¤à¤°": 8340,
  "Ġà¤ħà¤¨à¥įà¤¯": 2943,
  "Ġà¤ħà¤ª": 2635,
  "Ġà¤ħà¤ªà¤¨à¤¾": 10300,
  "Ġà¤ħà¤ªà¤¨à¥Ģ": 6520,
  "Ġà¤ħà¤ªà¤¨à¥ĩ": 3968,
  "Ġà¤ħà¤ªà¥įà¤°à¥Īà¤²": 11036,
  "Ġà¤ħà¤«": 8339,
  "Ġà¤ħà¤«à¤¼": 7954,
  "Ġà¤ħà¤¬": 8743,
  "Ġà¤ħà¤®": 4457,
  "Ġà¤ħà¤®à¥ĩà¤°": 11037,
  "Ġà¤ħà¤°à¤¬": 5732,
  "Ġà¤ħà¤°à¥įà¤¥": 2450,
  "Ġà¤ħà¤°à¥įà¤¥à¤¾à¤¤": 9728,
  "Ġà¤ħà¤²": 3712,
  "Ġà¤ħà¤²à¤Ĺ": 5576,
  "Ġà¤ħà¤²à¥Ģ": 11877,
  "Ġà¤ħà¤µ": 2986,
  "Ġà¤ħà¤µà¤§": 10301,
  "Ġà¤ħà¤µà¤¸à¥įà¤¥à¤¿à¤¤": 11038,
  "Ġà¤ħà¤Ĥà¤¤": 5272,
  "Ġà¤ħà¤Ĥà¤¤à¤°à¥įà¤Ĺà¤¤": 11039,
  "Ġà¤ħà¤Ĥà¤Ĺ": 4458,
  "Ġà¤ħà¤Ĥà¤Ĺà¥įà¤°à¥ĩ": 5734,
  "Ġà¤ħà¤Ĥà¤Ĺà¥įà¤°à¥ĩà¤ľà¥Ģ": 11040,
  "Ġà¤ħà¤ķ": 6289,
  "Ġà¤ħà¤Ĺà¤¸à¥įà¤¤": 11878,
  "Ġà¤ħà¤Ń": 5733,
  "Ġà¤Ĩ": 719,
  "Ġà¤Ĩà¤¤à¥įà¤®": 9199,
  "Ġà¤Ĩà¤¦": 2839,
  "Ġà¤Ĩà¤¦à¤¿": 3637,
  "Ġà¤Ĩà¤§": 3034,
  "Ġà¤Ĩà¤§à¤¾à¤°": 5273,
  "Ġà¤Ĩà¤§à¥ģà¤¨à¤¿à¤ķ": 7596,
  "Ġà¤Ĩà¤¨à¥ĩ": 10302,
  "Ġà¤Ĩà¤ª": 7595,
  "Ġà¤Ĩà¤¬": 6290,
  "Ġà¤Ĩà¤¬à¤¾à¤¦à¥Ģ": 7028,
  "Ġà¤Ĩà¤®": 10303,
  "Ġà¤Ĩà¤¯": 5908,
  "Ġà¤Ĩà¤°à¤®à¥įà¤Ń": 8341,
  "Ġà¤Ĩà¤°à¥įà¤¥à¤¿à¤ķ": 8342,
  "Ġà¤Ĩà¤µ": 6522,
  "Ġà¤Ĩà¤¸": 11880,
  "Ġà¤Ĩà¤ķà¤¾à¤¶": 11881,
  "Ġà¤Ĩà¤Ĺà¤°à¤¾": 9200,
  "Ġà¤Ĩà¤ľ": 5000,
  "Ġà¤Ĩà¤ł": 11041,
  "Ġà¤ĩ": 656,
  "Ġà¤ĩà¤¤à¤¿à¤¹à¤¾à¤¸": 3339,
  "Ġà¤ĩà¤¤à¥įà¤¯à¤¾à¤¦à¤¿": 9201,
  "Ġà¤ĩà¤¨": 2546,
  "Ġà¤ĩà¤¸": 821,
  "Ġà¤ĩà¤¸à¤®à¥ĩà¤Ĥ": 7955,
  "Ġà¤ĩà¤¸à¤ķà¤¾": 3638,
  "Ġà¤ĩà¤¸à¤ķà¥Ģ": 4560,
  "Ġà¤ĩà¤¸à¤ķà¥ĩ": 2661,
  "Ġà¤ĩà¤¸à¥Ģ": 6523,
  "Ġà¤ĩà¤¸à¥ĩ": 4294,
  "Ġà¤ĩà¤Ĥà¤¡": 8745,
  "Ġà¤ĩà¤Ĥà¤Ĺ": 11882,
  "Ġà¤Ī": 3293,
  "Ġà¤Īà¤¸à¤¾": 8343,
  "Ġà¤ī": 650,
  "Ġà¤īà¤¤": 4459,
  "Ġà¤īà¤¤à¥įà¤¤": 1861,
  "Ġà¤īà¤¤à¥įà¤¤à¤°": 2207,
  "Ġà¤īà¤¤à¥įà¤¤à¤°à¥Ģ": 8746,
  "Ġà¤īà¤¤à¥įà¤ª": 6101,
  "Ġà¤īà¤¤à¥įà¤ªà¤¾à¤¦": 11883,
  "Ġà¤īà¤¦": 3475,
  "Ġà¤īà¤¦à¥įà¤¯": 7299,
  "Ġà¤īà¤¦à¥įà¤¯à¥ĭà¤Ĺ": 9202,
  "Ġà¤īà¤¨": 1377,
  "Ġà¤īà¤¨à¤ķà¤¾": 5735,
  "Ġà¤īà¤¨à¤ķà¥Ģ": 5909,
  "Ġà¤īà¤¨à¤ķà¥ĩ": 5427,
  "Ġà¤īà¤¨à¥įà¤¹": 2690,
  "Ġà¤īà¤¨à¥įà¤¹à¥ĩà¤Ĥ": 7300,
  "Ġà¤īà¤¨à¥įà¤¹à¥ĭà¤Ĥà¤¨à¥ĩ": 3581,
  "Ġà¤īà¤ª": 2311,
  "Ġà¤īà¤ªà¤¨": 10304,
  "Ġà¤īà¤ªà¤¨à¤¿à¤·à¤¦": 6291,
  "Ġà¤īà¤ªà¤¨à¤¿à¤·à¤¦à¥ĭà¤Ĥ": 10305,
  "Ġà¤īà¤ªà¤®à¤¹à¤¾à¤¦à¥įà¤µà¥Ģà¤ª": 11042,
  "Ġà¤īà¤ªà¤¯à¥ĭà¤Ĺ": 7301,
  "Ġà¤īà¤²à¥įà¤²à¥ĩà¤ĸ": 7597,
  "Ġà¤īà¤¸": 2716,
  "Ġà¤īà¤¸à¤ķà¥ĩ": 6292,
  "Ġà¤īà¤ļà¥įà¤ļ": 7956,
  "Ġà¤Ĭ": 5265,
  "Ġà¤ĭ": 8318,
  "Ġà¤ı": 735,
  "Ġà¤ıà¤µà¤Ĥ": 2018,
  "Ġà¤ıà¤¶à¤¿à¤¯à¤¾": 4460,
  "Ġà¤ıà¤ķ": 928,
  "Ġà¤Ĳ": 3841,
  "Ġà¤Ĳà¤¤à¤¿à¤¹à¤¾à¤¸à¤¿à¤ķ": 11884,
  "Ġà¤Ĳà¤¸à¤¾": 11043,
  "Ġà¤Ĳà¤¸à¥ĩ": 10306,
  "Ġà¤ĳ": 4452,
  "Ġà¤ĳà¤¸à¥įà¤Łà¥įà¤°à¥ĩà¤²": 9203,
  "Ġà¤ĵ": 3842,
  "Ġà¤ĵà¤°": 5577,
  "Ġà¤Ķ": 634,
  "Ġà¤Ķà¤°": 645,
  "Ġà¤ķ": 320,
  "Ġà¤ķà¤®": 3845,
  "Ġà¤ķà¤®à¥įà¤ª": 9204,
  "Ġà¤ķà¤°": 1043,
  "Ġà¤ķà¤°à¤¤à¤¾": 5579,
  "Ġà¤ķà¤°à¤¤à¥Ģ": 9733,
  "Ġà¤ķà¤°à¤¤à¥ĩ": 4771,
  "Ġà¤ķà¤°à¤¨à¤¾": 11889,
  "Ġà¤ķà¤°à¤¨à¥ĩ": 2781,
  "Ġà¤ķà¤°à¥ĭà¤¡à¤¼": 11045,
  "Ġà¤ķà¤²": 7029,
  "Ġà¤ķà¤²à¤¾": 5578,
  "Ġà¤ķà¤µ": 5274,
  "Ġà¤ķà¤µà¤¿": 9205,
  "Ġà¤ķà¤¹": 2378,
  "Ġà¤ķà¤¹à¤¤à¥ĩ": 6102,
  "Ġà¤ķà¤¹à¤²": 9729,
  "Ġà¤ķà¤¹à¤¾": 4040,
  "Ġà¤ķà¤¾": 626,
  "Ġà¤ķà¤¾à¤¨": 11885,
  "Ġà¤ķà¤¾à¤®": 11044,
  "Ġà¤ķà¤¾à¤°": 1820,
  "Ġà¤ķà¤¾à¤°à¤£": 3296,
  "Ġà¤ķà¤¾à¤°à¥įà¤¯": 3771,
  "Ġà¤ķà¤¾à¤²": 2875,
  "Ġà¤ķà¤¾à¤µà¥įà¤¯": 7957,
  "Ġà¤ķà¤¾à¤¶": 11886,
  "Ġà¤ķà¤¾à¤Ĥà¤Ĺà¥įà¤°à¥ĩ": 6293,
  "Ġà¤ķà¤¾à¤Ĥà¤Ĺà¥įà¤°à¥ĩà¤¸": 6524,
  "Ġà¤ķà¤¿": 2221,
  "Ġà¤ķà¤¿à¤¨": 7598,
  "Ġà¤ķà¤¿à¤¯à¤¾": 1499,
  "Ġà¤ķà¤¿à¤¯à¤¾à¥¤": 4295,
  "Ġà¤ķà¤¿à¤²": 7030,
  "Ġà¤ķà¤¿à¤²à¥ĭà¤®à¥Ģà¤Łà¤°": 10307,
  "Ġà¤ķà¤¿à¤¸à¥Ģ": 6763,
  "Ġà¤ķà¤¿à¤ı": 7599,
  "Ġà¤ķà¤Ī": 2717,
  "Ġà¤ķà¤ł": 9730,
  "Ġà¤ķà¤Ńà¥Ģ": 11887,
  "Ġà¤ķà¥Ģ": 625,
  "Ġà¤ķà¥Ģà¥¤": 7600,
  "Ġà¤ķà¥ģà¤": 3116,
  "Ġà¤ķà¥ģà¤²": 9731,
  "Ġà¤ķà¥ģà¤Ľ": 3639,
  "Ġà¤ķà¥ĥ": 7031,
  "Ġà¤ķà¥ĥà¤·à¥įà¤£": 11890,
  "Ġà¤ķà¥ĩ": 434,
  "Ġà¤ķà¥ĩà¤¨à¥įà¤¦à¥įà¤°": 5275,
  "Ġà¤ķà¥ĩà¤°à¤²": 8344,
  "Ġà¤ķà¥ĩà¤µà¤²": 7302,
  "Ġà¤ķà¥ĩà¤Ĥà¤¦à¥įà¤°": 8747,
  "Ġà¤ķà¥Ī": 9732,
  "Ġà¤ķà¥ī": 11888,
  "Ġà¤ķà¥ĭ": 789,
  "Ġà¤ķà¥ĭà¤²": 9734,
  "Ġà¤ķà¥ĭà¤²à¤ķà¤¾à¤¤à¤¾": 11891,
  "Ġà¤ķà¥ĭà¤¶": 9735,
  "Ġà¤ķà¥ĭà¤Ī": 6294,
  "Ġà¤ķà¥Į": 8748,
  "Ġà¤ķà¥įà¤°": 3713,
  "Ġà¤ķà¥įà¤°à¤®": 9206,
  "Ġà¤ķà¥įà¤·": 1767,
  "Ġà¤ķà¥įà¤·à¥ĩà¤¤à¥įà¤°": 1875,
  "Ġà¤ķà¥įà¤·à¥ĩà¤¤à¥įà¤°à¤«à¤²": 6764,
  "Ġà¤ĸ": 1819,
  "Ġà¤ĸà¥ĩà¤²": 5001,
  "Ġà¤Ĺ": 621,
  "Ġà¤Ĺà¤£": 4041,
  "Ġà¤Ĺà¤¯": 1261,
  "Ġà¤Ĺà¤¯à¤¾": 1991,
  "Ġà¤Ĺà¤¯à¤¾à¥¤": 3640,
  "Ġà¤Ĺà¤¯à¥Ģ": 9207,
  "Ġà¤Ĺà¤¯à¥ĩ": 8345,
  "Ġà¤Ĺà¤¾à¤Ĥ": 7958,
  "Ġà¤Ĺà¤¾à¤Ĥà¤§à¥Ģ": 9208,
  "Ġà¤Ĺà¤Ĥà¤Ĺ": 5580,
  "Ġà¤Ĺà¤Ĥà¤Ĺà¤¾": 6295,
  "Ġà¤Ĺà¤Ī": 7303,
  "Ġà¤Ĺà¤ı": 5002,
  "Ġà¤Ĺà¤ł": 6525,
  "Ġà¤Ĺà¥Ģà¤¤": 6526,
  "Ġà¤Ĺà¥ģà¤°": 9736,
  "Ġà¤Ĺà¥ģà¤°à¥ģ": 11892,
  "Ġà¤Ĺà¥ģà¤ľà¤°à¤¾à¤¤": 6527,
  "Ġà¤Ĺà¥ĭà¤²": 9737,
  "Ġà¤Ĺà¥ĭà¤µ": 7959,
  "Ġà¤Ĺà¥ĭà¤µà¤¾": 10308,
  "Ġà¤Ĺà¥įà¤°": 2312,
  "Ġà¤Ĺà¥įà¤°à¤¨à¥įà¤¥": 7601,
  "Ġà¤Ĺà¥įà¤°à¤¹": 7602,
  "Ġà¤Ĺà¥įà¤°à¤Ĥà¤¥": 5428,
  "Ġà¤ĺ": 2297,
  "Ġà¤ĺà¤¾à¤Łà¥Ģ": 11046,
  "Ġà¤ĺà¤Łà¤¨": 8346,
  "Ġà¤ĺà¤Łà¤¨à¤¾à¤ĵà¤Ĥ": 11893,
  "Ġà¤ĺà¥ĭà¤·": 9209,
  "Ġà¤ļ": 954,
  "Ġà¤ļà¤²": 6296,
  "Ġà¤ļà¤²à¤¤à¤¾": 11894,
  "Ġà¤ļà¤¾à¤°": 6765,
  "Ġà¤ļà¤¾à¤¹": 8347,
  "Ġà¤ļà¤¿à¤¤à¥įà¤°": 5910,
  "Ġà¤ļà¥Ģà¤¨": 6297,
  "Ġà¤ļà¥ģ": 5911,
  "Ġà¤ļà¥ģà¤¨": 5276,
  "Ġà¤ļà¥ģà¤¨à¤¾à¤µ": 6298,
  "Ġà¤ļà¥Į": 8348,
  "Ġà¤Ľ": 2874,
  "Ġà¤Ľà¤¤à¥įà¤¤à¥Ģà¤¸à¤Ĺà¤¢à¤¼": 11047,
  "Ġà¤Ľà¥ĭà¤Ł": 7603,
  "Ġà¤ľ": 485,
  "Ġà¤ľà¤¨": 1612,
  "Ġà¤ľà¤¨à¤µà¤°à¥Ģ": 8349,
  "Ġà¤ľà¤¨à¤¸à¤Ĥà¤ĸà¥įà¤¯à¤¾": 4772,
  "Ġà¤ľà¤¨à¤Ĺà¤£à¤¨à¤¾": 10309,
  "Ġà¤ľà¤¨à¥įà¤®": 4773,
  "Ġà¤ľà¤¬": 4887,
  "Ġà¤ľà¤¬à¤ķà¤¿": 11048,
  "Ġà¤ľà¤¯": 7032,
  "Ġà¤ľà¤²": 9210,
  "Ġà¤ľà¤¹": 7033,
  "Ġà¤ľà¤¹à¤¾à¤ģ": 10310,
  "Ġà¤ľà¤¼": 6766,
  "Ġà¤ľà¤¾": 5277,
  "Ġà¤ľà¤¾à¤¤": 1319,
  "Ġà¤ľà¤¾à¤¤à¤¾": 1682,
  "Ġà¤ľà¤¾à¤¤à¥Ģ": 5146,
  "Ġà¤ľà¤¾à¤¤à¥ĩ": 11895,
  "Ġà¤ľà¤¾à¤¨": 2403,
  "Ġà¤ľà¤¾à¤¨à¤¾": 6103,
  "Ġà¤ľà¤¾à¤¨à¥ĩ": 4888,
  "Ġà¤ľà¤¾à¤ªà¤¾à¤¨": 9211,
  "Ġà¤ľà¤¿à¤¨": 3912,
  "Ġà¤ľà¤¿à¤¸": 1548,
  "Ġà¤ľà¤¿à¤¸à¤®à¥ĩà¤Ĥ": 4461,
  "Ġà¤ľà¤¿à¤¸à¤ķà¤¾": 4648,
  "Ġà¤ľà¤¿à¤¸à¤ķà¥ĩ": 7961,
  "Ġà¤ľà¤¿à¤¸à¥ĩ": 6768,
  "Ġà¤ľà¤Ĺ": 9212,
  "Ġà¤ľà¥Ģ": 8749,
  "Ġà¤ľà¥Ģà¤µ": 3772,
  "Ġà¤ľà¥Ģà¤µà¤¨": 4889,
  "Ġà¤ľà¥ģà¤¡à¤¼": 7960,
  "Ġà¤ľà¥Ĥà¤¨": 9738,
  "Ġà¤ľà¥Ī": 2748,
  "Ġà¤ľà¥Īà¤¸à¥ĩ": 3415,
  "Ġà¤ľà¥ĭ": 1695,
  "Ġà¤ľà¥ĭà¤¡à¤¼": 10311,
  "Ġà¤ľà¥įà¤¯": 6767,
  "Ġà¤ľà¥įà¤ŀà¤¾à¤¨": 7604,
  "Ġà¤Ŀ": 4993,
  "Ġà¤Ŀà¤¾à¤°à¤ĸ": 7034,
  "Ġà¤Ŀà¤¾à¤°à¤ĸà¤£à¥įà¤¡": 8750,
  "Ġà¤Ł": 3473,
  "Ġà¤ł": 9177,
  "Ġà¤Ń": 546,
  "Ġà¤Ńà¤¾à¤°à¤¤": 959,
  "Ġà¤Ńà¤¾à¤°à¤¤à¥Ģà¤¯": 1933,
  "Ġà¤Ńà¤¾à¤µ": 11896,
  "Ġà¤Ńà¤¾à¤·": 1755,
  "Ġà¤Ńà¤¾à¤·à¤¾": 2547,
  "Ġà¤Ńà¤¾à¤·à¤¾à¤ĵà¤Ĥ": 6529,
  "Ġà¤Ńà¤¾à¤Ĺ": 2987,
  "Ġà¤Ńà¤¾à¤Ĺà¥ĭà¤Ĥ": 10312,
  "Ġà¤Ńà¤Ĺ": 5912,
  "Ġà¤Ńà¤Ĺà¤µà¤¾à¤¨": 6769,
  "Ġà¤Ńà¥Ģ": 1192,
  "Ġà¤Ńà¥Ĥ": 2749,
  "Ġà¤Ńà¥Ĥà¤®": 5736,
  "Ġà¤Ńà¥Ĥà¤®à¤¿": 9739,
  "Ġà¤Ńà¥Ĥà¤Ĺà¥ĭà¤²": 11049,
  "Ġà¤Ńà¥Į": 6528,
  "Ġà¤Ńà¥Įà¤¤à¤¿à¤ķà¥Ģ": 11050,
  "Ġà¥": 980,
  "Ġà¥¤": 3239,
  "Ġà¥§": 11051,
  "Ġà¥§à¥": 1621,
  "Ġà¥§à¥«": 7962,
  "Ġà¥§à¥®": 10315,
  "Ġà¥§à¥¯à¥": 3416,
  "Ġà¥§à¥¯à¥¬": 11897,
  "Ġà¥¨": 2718,
  "Ġà¥¨à¥¦": 6530,
  "Ġà¥¨à¥¦à¥¦": 7605,
  "Ġà¥¨à¥¦à¥§à¥": 8751,
  "Ġà¥©": 9740,
  "Ġà¥ª": 9213,
  "Ġà¥«": 10313,
  "Ġà¥Ĳ": 11052,
  "Ġà¥Ń": 10314,
  "Ġà¦": 273,
  "Ġà¦¡": 4042,
  "Ġà¦¢": 6299,
  "Ġà¦¢à¦¾à¦ķà¦¾": 7963,
  "Ġà¦¤": 871,
  "Ġà¦¤à¦¬à§ĩ": 5003,
  "Ġà¦¤à¦¾à¦¦à§ĩà¦°": 5914,
  "Ġà¦¤à¦¾à¦°": 2662,
  "Ġà¦¤à¦¾à¦ģ": 11053,
  "Ġà¦¤à¦¿à¦¨": 2815,
  "Ġà¦¤à¦¿à¦¨à¦¿": 3582,
  "Ġà¦¤à§ģà¦²": 7035,
  "Ġà¦¥": 1368,
  "Ġà¦¥à¦¾à¦ķ": 3641,
  "Ġà¦¥à¦¾à¦ķà§ĩà¥¤": 6770,
  "Ġà¦¥à§ĩà¦ķ": 1683,
  "Ġà¦¥à§ĩà¦ķà§ĩ": 1813,
  "Ġà¦¦": 653,
  "Ġà¦¦à¦²à§ĩà¦°": 9741,
  "Ġà¦¦à¦¶": 9214,
  "Ġà¦¦à¦¾à¦¬": 5737,
  "Ġà¦¦à¦¿à¦¯à¦¼à§ĩ": 7304,
  "Ġà¦¦à¦¿à¦ķà§ĩ": 8350,
  "Ġà¦¦à¦ķà§įà¦·": 2134,
  "Ġà¦¦à¦ķà§įà¦·à¦¿à¦£": 2222,
  "Ġà¦¦à¦ķà§įà¦·à¦¿à¦£à§ĩ": 8753,
  "Ġà¦¦à§ģ": 3035,
  "Ġà¦¦à§ģà¦°à§įà¦Ĺ": 11054,
  "Ġà¦¦à§ģà¦ĩ": 5738,
  "Ġà¦¦à§ģà¦Łà¦¿": 9742,
  "Ġà¦¦à§Ĥà¦°": 11898,
  "Ġà¦¦à§ĩà¦¶": 2274,
  "Ġà¦¦à§ĩà¦¶à¦Łà¦¿à¦°": 7305,
  "Ġà¦¦à§ĩà¦¶à§ĩà¦°": 11899,
  "Ġà¦¦à§ĩà¦ĸ": 6531,
  "Ġà¦¦à§ĩà¦ĸà¦¾": 11900,
  "Ġà¦¦à§įà¦¬": 1696,
  "Ġà¦¦à§įà¦¬à¦¾à¦°à¦¾": 5147,
  "Ġà¦¦à§įà¦¬à§Ģà¦ª": 2548,
  "Ġà¦¦à§įà¦¬à§Ģà¦ªà¦ªà§ģà¦ŀà§įà¦ľ": 5915,
  "Ġà¦§": 2404,
  "Ġà¦§à¦°à§ĩ": 9215,
  "Ġà¦§à¦°à§įà¦®": 9743,
  "Ġà¦§à¦¾à¦°à¦£": 11055,
  "Ġà¦¨": 782,
  "Ġà¦¨à¦¤à§ģà¦¨": 11056,
  "Ġà¦¨à¦¾à¥¤": 11057,
  "Ġà¦¨à¦¾à¦®": 1904,
  "Ġà¦¨à¦¾à¦®à§ĩ": 4462,
  "Ġà¦¨à¦¿à¦¯à¦¼": 6300,
  "Ġà¦¨à¦¿à¦¯à¦¼à§ĩ": 4649,
  "Ġà¦¨à¦¿à¦°": 7036,
  "Ġà¦¨à¦¿à¦°à§įà¦": 5916,
  "Ġà¦¨à¦¿à¦°à§įà¦¦": 9744,
  "Ġà¦¨à¦¿à¦°à§įà¦¬": 11058,
  "Ġà¦¨à¦¿à¦ī": 11901,
  "Ġà¦¨à¦¿à¦ľ": 7306,
  "Ġà¦¨à¦¿à¦ľà§ĩà¦¦à§ĩà¦°": 11902,
  "Ġà¦ª": 480,
  "Ġà¦ªà¦¡à¦¼": 11903,
  "Ġà¦ªà¦°": 1169,
  "Ġà¦ªà¦°à¦¬à¦°à§įà¦¤à§Ģ": 7308,
  "Ġà¦ªà¦°à¦¿à¦¬": 9746,
  "Ġà¦ªà¦°à¦¿à¦¬à§ĩà¦¶": 7606,
  "Ġà¦ªà¦°à¦¿à¦ļ": 4364,
  "Ġà¦ªà¦°à¦¿à¦ļà¦¿à¦¤": 6301,
  "Ġà¦ªà¦°à§ĩ": 11059,
  "Ġà¦ªà¦°à§įà¦¬": 6104,
  "Ġà¦ªà¦°à§įà¦¬à¦¤à¦®": 9216,
  "Ġà¦ªà¦°à§įà¦¬à¦¤à¦®à¦¾à¦²": 9747,
  "Ġà¦ªà¦°à§įà¦¯à¦": 3714,
  "Ġà¦ªà¦°à§įà¦¯à¦¨à§įà¦¤": 4365,
  "Ġà¦ªà¦¶à§įà¦ļà¦¿à¦®": 3642,
  "Ġà¦ªà¦¶à§įà¦ļà¦¿à¦®à§ĩ": 7964,
  "Ġà¦ªà¦¾à¦°": 3373,
  "Ġà¦ªà¦¾à¦²": 10316,
  "Ġà¦ªà¦¾à¦ĵà¦¯à¦¼à¦¾": 7037,
  "Ġà¦ªà¦¾à¦ķà¦¿à¦¸à§įà¦¤à¦¾à¦¨": 7307,
  "Ġà¦ªà§Ĥà¦°à§įà¦¬": 3117,
  "Ġà¦ªà§Ĥà¦°à§įà¦¬à§ĩ": 7965,
  "Ġà¦ªà§ĥ": 2565,
  "Ġà¦ªà§ĥà¦¥": 2750,
  "Ġà¦ªà§ĥà¦¥à¦¿à¦¬": 2988,
  "Ġà¦ªà§ĥà¦¥à¦¿à¦¬à§Ģ": 9748,
  "Ġà¦ªà§ĥà¦¥à¦¿à¦¬à§Ģà¦°": 4118,
  "Ġà¦ªà§įà¦¯à¦¾à¦°à¦¾à¦Ĺà§ģà¦¯à¦¼": 9745,
  "Ġà¦ªà§įà¦°": 779,
  "Ġà¦ªà§įà¦°à¦¤": 9749,
  "Ġà¦ªà§įà¦°à¦¤à¦¿": 11905,
  "Ġà¦ªà§įà¦°à¦¤à¦¿à¦": 5278,
  "Ġà¦ªà§įà¦°à¦¤à¦¿à¦·à§įà¦ł": 9217,
  "Ġà¦ªà§įà¦°à¦¥à¦®": 4650,
  "Ġà¦ªà§įà¦°à¦§à¦¾à¦¨": 4561,
  "Ġà¦ªà§įà¦°à¦¶": 4562,
  "Ġà¦ªà§įà¦°à¦¶à¦¾à¦¨à§įà¦¤": 6771,
  "Ġà¦ªà§įà¦°à¦¾à¦£": 10317,
  "Ġà¦ªà§įà¦°à¦¾à¦¯à¦¼": 3118,
  "Ġà¦ªà§įà¦°à¦¾à¦ķ": 5917,
[...]
